#version: 0.2
Ġ Ġ
ĠĠ ĠĠ
ĠĠĠĠ ĠĠĠĠ
ĠĠ Ġ
e r
i n
o n
r e
a t
s t
o r
e n
Ġ t
l e
Ċ ĠĠĠĠ
Ċ ĠĠĠĠĠĠĠĠ
s e
a n
a l
Ġ =
Ġ c
a r
i t
Ċ ĠĠĠ
i on
d e
- -
c t
m e
r o
ĊĠĠĠĠ ĠĠĠ
h e
) ;
ĉ ĉ
i c
Ġ f
i s
Ġ p
in g
g e
Ġ {
a s
u t
en t
u r
/ /
e s
Ġ (
Ġ s
Ġ n
u n
Ġ a
Ġ "
i d
l o
Ġ re
m p
e d
Ġ *
Ġ }
a me
Ġt he
Ġ b
ĊĠĠĠĠĠĠĠĠ ĠĠĠ
i f
* *
e x
Ġ in
a c
Ġ '
c o
at e
Ġ <
Ċ Ġ
i l
-- --
Ġ o
u l
a d
u e
Ġ w
e l
Ġ d
r i
Ġ m
( )
= "
p e
t h
as s
ĠĠĠĠ ĠĠĠ
u s
ĊĠĠĠĠĠĠĠĠ ĠĠĠĠĠĠĠĠ
Ġ v
Ċ ĉĉ
u b
Ċ ĉ
Ġ S
t r
a b
Ġt h
o l
an d
e t
i g
o t
at ion
a p
c e
' ,
ge t
Ġt o
or t
l i
ur n
Ġ st
< /
u m
= =
c h
a ge
ct ion
I n
h t
p t
l ass
i v
on t
t urn
Ġ C
t er
" ,
e w
Ġ T
a y
- >
ĊĠĠĠĠ Ġ
Ġ $
Ġ A
ĊĠĠĠĠĠĠĠĠ ĠĠĠĠĠĠĠ
at a
o de
: :
a m
e m
l ic
ex t
Ġ se
Ġ de
in t
y pe
e ct
" >
i le
Ġ if
en d
u p
o m
s p
Ġ h
i mp
s s
ĠĠĠĠĠĠĠĠ ĠĠĠĠĠĠĠĠ
v er
i z
n ame
i st
Ġ [
Ġ -
---- ----
o d
Ġo f
# #
Ġ //
R e
Ġf or
č Ċ
Ġ is
Ġ I
( "
o w
Ġre turn
Ġc lass
ab le
e st
Ċ ĊĠĠĠ
Ġ P
q u
i m
it h
** **
t o
a v
c k
ul t
Ġ l
Ġc on
Ġth is
ac k
a se
Ġ and
p er
( '
al l
imp ort
st r
pt ion
c on
m ent
se t
) ,
al ue
( );
Ġ +
Ġ D
i r
Ġ @
Ċ Ċ
k e
ub lic
a g
in e
er s
Ġ e
Ġ g
f f
l f
Ġ M
Ġ N
) )
t p
j ect
d er
or m
ro m
us er
. .
Ġ L
Ġ :
o s
S t
ar t
es s
a in
_ _
Ġ F
d iv
co m
s er
p ro
== ==
i me
u re
ul l
o ur
Ġ E
Ġ /
iz e
t e
o p
I N
tr ing
Ġ |
p ut
ht tp
Ġb e
E R
ĊĠĠĠĠĠĠĠĠĠĠĠĠĠĠĠĠ ĠĠĠ
Ġ `
er r
un ction
Ġ= >
Ġ y
Ġp ro
q ue
a ct
Ġn ew
Ġ ex
u se
Ġ r
o ut
o c
it y
Ġ on
s c
Ġ O
) .
i re
Ġ &
at h
Ġ B
in d
čĊ č
Ġt r
: //
Ġ or
p l
N ame
Ġ R
ac e
Ġ it
Ġp ublic
" :
i al
ic e
n t
O N
p ar
Ġ* /
Ġ G
E x
` `
c l
un t
re s
Ġ< /
Ċĉĉ ĉĉ
th is
f o
o id
er t
f ig
d d
Ċ ĊĠĠĠĠĠĠĠ
b ject
a re
v e
Ġ #
de f
P ro
r r
o mp
p p
Ġ j
Ġ i
Ġst r
Ġ me
Ġ lo
f orm
Ġ an
re turn
que st
Ċĉĉ ĉ
o o
d ata
I d
a il
-------- --------
C on
Ġ= =
l l
re f
R E
] ,
s h
ĊĠĠĠĠĠĠĠĠ Ġ
Ġ _
t y
Ġ as
T ype
**** ****
Ġ get
Ġw ith
Ġ W
p ort
ar g
ig n
or y
Ġin t
Ġse lf
l y
Ġ U
a st
C ont
S T
Ġn ame
i ew
Ġ .
i p
Ġw h
http s
un d
ro w
o u
Ġf rom
Ġn ot
ĠĠĠĠ Ġ
a x
o st
ode l
de x
S tring
Ġ !
v ent
or d
ĊĠĠĠĠĠĠĠĠĠĠĠĠĠĠĠĠ ĠĠĠĠĠĠĠĠ
" )
on e
it e
Ġcon st
iv e
sp an
Ġc h
Ċ ĠĠ
Ġde f
c ont
Ġf unction
li st
ad d
c ess
t d
ar y
i el
u ct
u st
Ġ V
Ġ H
ke y
v ice
al se
t ype
an ge
' )
iel d
D e
o re
co de
Ġth at
at ic
b er
ã ģ
an t
an s
ig ht
v al
m l
it ion
b ut
user name
b u
Ġ In
or k
our ce
ar d
T o
Ġd ata
Ġ un
f t
Ġ el
[ '
) :
Ġc ont
b o
re ss
ĊĠĠĠĠĠĠĠĠĠĠĠĠĠĠĠĠ ĠĠĠĠĠĠĠ
i o
at or
E N
Ċ ĊĠ
L ist
R es
A T
an ce
" );
ap p
A L
le ment
il l
] (
le t
err or
i es
at ed
re ate
e c
Ġre s
č ĊĠĠĠ
y st
Ġse t
a ult
lo w
an g
Ġ al
Ġn ull
Ġd o
at ch
er e
co l
en er
D ata
lo g
il d
par am
j s
ri v
// //
a mp
O R
yst em
u le
f ile
s o
Ġv oid
in k
## ##
Ġ \
Ġc om
ĊĠĠĠĠĠĠĠĠĠĠĠĠĠĠĠĠ ĠĠĠĠĠĠĠĠĠĠĠĠĠĠĠĠ
Ġ --
d ate
g r
> <
Ġv ar
a k
m o
E n
p r
it le
I D
I T
==== ====
i x
A R
se lf
' ]
Ġv alue
Ġs h
on g
av e
um ent
le ct
U L
Ġ use
( $
u de
sc ri
ä ¸
s ion
riv ate
str ing
Ġ} ,
Ġstr ing
Ġf ile
Ġ id
i de
he ck
S E
ce ption
lo ck
Ġb y
S er
a w
Ġel se
ab el
L E
Ġ x
o g
č ĊĠĠĠĠĠĠĠ
en g
ad er
Ġ at
ro up
c lass
on se
o ul
li ent
Ġt ype
C h
Ġ )
ri but
Ġ k
oul d
p h
er y
} ,
u d
cl ude
en se
b r
th od
y n
o me
p o
Ġy ou
at us
ar r
rr or
Ġ >
ri g
re ad
in al
D E
v alue
T r
> </
ur re
y le
t est
um ber
ut h
Ġtr ue
ass ert
Ġ! =
b e
ï ¼
" ;
ac h
ã ĥ
v ar
qu ire
C ol
e b
g er
m s
ow n
) );
.. /
t ext
ã Ĥ
Ġp ar
lo c
V alue
Ġc an
Ġa re
S et
ĠT he
m in
u g
Ġ// /
n ew
s ize
ĠS tring
im age
Ġt est
' );
ac he
pe c
ith ub
r c
ter n
Ġf alse
Ġ Re
S e
Ġ %
i a
o b
Ġst atic
us ing
Ġv al
e y
m it
as k
con st
`` `
k en
ht ml
as h
Ġc omp
av a
' ;
pe ct
() .
p ublic
E rror
urre nt
P ar
A N
l ine
e p
i b
Ġ en
Ġc ol
g ithub
m a
C T
G et
t on
Ġ he
qu al
E S
n e
en ce
Ġ end
lo ad
Ġp rivate
eng th
ĠT h
ss age
Ġ Ð
' :
w w
Ġ username
K ey
m d
arr ay
un c
e mp
ĠĠĠĠ ĠĠ
O bject
id th
c ri
Ġ& &
Ġo ut
B u
ur l
p os
Ġ ->
th er
amp le
] ;
Ġ J
re e
Ġ up
F ile
b ack
Ġh ref
on ent
p y
f or
co mp
de d
C omp
p ath
Ex ception
ption s
ack age
od ule
ers ion
st ance
rig ht
l ay
******** ********
ation s
r y
m and
Ġw e
] .
co unt
Ġ le
ĉĉ ĉĉ
p re
ind ow
t ime
ar ch
ar get
T est
w ork
u c
r ame
" "
I t
f er
R O
ĊĠĠĠĠĠĠĠĠĠĠĠĠĠĠĠĠĠĠĠĠĠĠĠĠ ĠĠĠ
Ġa dd
I ON
in clude
Ġ ?
ro ll
an n
per ty
Ġ/ **
M E
Ġ li
Ġ: =
() ,
T h
o f
u al
el l
T ext
u es
UL L
ã Ģ
() );
s um
if i
if ic
Ð ¾
ut il
o ck
lo at
T ime
Ġ u
A n
+ +
o unt
Ġ error
r ite
č ĊĠĠĠĠĠĠĠĠĠĠĠ
re am
o ol
o und
t ing
in dex
Ġres ult
= '
c he
m ary
rr ay
U n
a ke
Con fig
Ċ ĊĠĠĠĠĠĠĠĠĠĠĠ
ic ense
pl ay
r ap
U T
p s
f rom
v iew
ç ļ
le an
V iew
i e
A t
çļ Ħ
St ate
Ġb u
ame ter
Ð µ
p x
B y
od y
ess age
Ġor g
ar k
or g
l ate
ĊĠĠĠĠĠĠĠĠ ĠĠĠĠĠ
c es
re d
Ġ );
it em
it ial
č Ċĉ
It em
Ġw ill
A S
il ter
Ġ-- >
I C
A dd
Re quest
Ġs er
---------------- ----------------
oc ument
ect or
/ *
m ap
le te
w ord
s ub
. _
Ġ* *
ir st
v oid
Ġ ro
yn c
In fo
ï¼ Į
Ġ} );
Ġa pp
ff er
i se
f unction
p en
Ð °
um n
] )
in put
arg s
Ġt ime
a it
Ġc ase
t ribut
Ġ err
ire ct
F F
n g
a ction
ut e
le ction
//// ////
lo b
in ter
if y
Ġp r
Ġ list
o int
E vent
c c
g ist
oo k
s on
Ġ __
() )
Ġf inal
Ġh ave
m odel
f ace
( (
con fig
P I
at ure
sp ace
str uct
Ġn e
Ġ all
b y
ĠS ystem
l abel
c a
or der
M essage
F ield
ĠL icense
[ ]
.. .
l er
ĠN ULL
' s
Ser vice
r it
ri de
A C
ub le
Ġ import
S h
ic h
iz ed
A D
op y
O T
', '
at es
C O
ro l
d b
sp onse
Ġ assert
Ġ key
v el
l ink
Ġre quire
n ot
Ġ let
M ap
ag er
ĠĠĠĠĠĠĠĠĠĠĠĠĠĠĠĠ ĠĠĠĠĠĠĠĠĠĠĠĠĠĠĠĠ
m on
N ode
ur ation
Ġd is
P ath
pr int
qu ery
E T
g le
c re
p es
Cont ext
n ing
Ġ K
f e
ic k
C ode
"> </
en s
Ġst d
le d
m b
C om
def ine
cri pt
ĠI N
ap i
Q u
å ı
U ser
F orm
č ĊĠ
M odel
Ġdef ault
Ġlo g
se d
all y
â Ģ
re ak
S ize
n ode
r g
o k
M an
} ;
Ġ user
Ġ/ *
ĠS t
Ġs o
js on
A rray
co re
U R
Ġ< <
ver ride
Ð ¸
res ult
Ñ Ĥ
y s
tr y
o x
p onse
Ġb ut
t able
im g
Ġ| |
#### ####
Ġp l
= {
lic ation
======== ========
c al
ĠE x
In dex
d is
cont ent
m at
Ġ z
Ġn o
A pp
e e
Ġp er
st ate
r aw
p i
I S
c reate
f unc
n et
Ġo bject
ut o
Ġn il
Ġ ì
P E
L O
f l
oo lean
E lement
Ã ©
T R
t itle
ĠP ro
il der
Ċ Ċĉ
le ase
ic s
ph p
T he
A B
p ackage
ate g
l ength
d i
E qual
en c
Ġre quest
val id
con d
ä »
' t
H e
/ **
s ign
Ġs ize
L og
ĠC on
N ot
in fo
C lass
Ġc ode
tern al
"> <
ic es
Ġt ext
E D
Ġan y
n o
ĠTh is
t a
De f
Ġch ar
ain er
at ive
w h
up port
li b
re quest
ex port
Ġcon fig
Ġ imp
Ġs ub
F O
g roup
q l
[ "
st art
sum mary
and le
an k
Ġy our
( {
us h
a z
Ġs pec
are nt
w e
uth or
ĊĠĠĠĠĠĠĠĠĠĠĠĠĠĠĠĠĠĠĠĠĠĠĠĠ ĠĠĠĠĠĠĠ
Ċĉĉĉĉ ĉ
p ress
l d
t he
Ġj ava
n er
ust om
U p
roll er
d uct
Ġw ork
ĠG et
id er
IN G
to p
Res ult
Ġsh ould
w are
Res ponse
ce pt
Ġa b
M A
Ġh as
V al
ent er
Ġ( )
C H
Ġp re
T O
S ER
d o
Ġ Y
Ġme thod
Ġwh en
U N
ag s
Ð ½
scri ption
Ġ array
Ġst yle
O f
Ġr un
t s
Ġth row
scri pt
Ġex pect
' ),
Ġin ter
d oc
In t
Ġ( !
Ġa c
m is
M e
te mp
I G
m age
me ssage
and ler
EN T
b ase
Ġin st
in ed
n d
lic k
fo re
å Ī
" ]
Ġ ext
ãĢ Ĥ
m ax
D es
Ġn umber
bu g
en sion
Ġ+ =
ol d
M P
tribut e
../ ../
Ġpr int
E X
", "
am s
æ ľ
se s
A s
I L
B e
ĠĠĠĠĠĠĠĠ ĠĠĠ
en u
c ord
Ġ using
Ġ} ;
o bject
Ġme ssage
L e
Ġc all
Ġst art
ib le
d f
ne ction
Ġ ]
## #
t x
O n
Ñ Ģ
C lient
Ġc reate
Ċĉĉĉĉ ĉĉ
col or
n b
Ġre ad
\ "
po int
end s
f ield
Ð¾ Ð
ro und
o ver
ww w
mo ve
bo x
ä º
Ġv ersion
A l
Ġc heck
ch o
it s
tr ue
Ġin put
Ġwh ich
) {
O ut
ĠD e
Col or
d ir
n um
st atus
it or
Ġp ath
Ñ ģ
b lock
Ġo b
g in
Ġ" ""
a de
p ost
O r
t n
i able
st d
Ġun der
Ġc l
St atus
C ount
ail s
def ault
c ur
o v
Ġch ange
} }
Ġn ode
Ġm odel
ting s
Ġa d
tr ans
i k
D ate
b ody
a f
Ġc urrent
b l
a le
c heck
W ith
t il
uc cess
ot al
ect ed
-- -
Ġb ool
Ġs rc
F or
> (
G roup
ĠT r
ic on
e vent
ĊĠĠĠĠ ĠĠ
. /
ug in
os ition
Man ager
lo se
st atic
re n
Ã ¡
ann el
ic al
ut ton
c lient
l ang
re g
C L
ic ro
ass word
s w
lob al
m an
IN FO
A c
Ġon e
t es
Ġ X
ch ar
č ĊĠĠĠĠĠĠĠĠĠĠĠĠĠĠĠ
Ġtr y
Ġw as
S ystem
T able
Ġf ield
m t
ut ion
Ġst ate
Ġo ther
Ġ[ ]
i ent
L oc
at ab
! --
end er
gist er
In put
se lect
A G
Ġth en
å Ĳ
s rc
ol der
Ġcont ext
th on
st yle
I s
Ġit em
ç Ķ
Qu ery
Ġb reak
ver t
Ġl ine
Ġs ome
Ġtr ans
Ġm ay
b ar
ro id
so le
å ®
č Ċĉĉ
p age
Ġ arg
ifi ed
but ton
mp ty
à ¸
form at
w idth
p ng
In ter
m odule
ver sion
iz ation
Ġin dex
at er
( &
Pro perty
Ġuse d
nb sp
{ {
l en
I mage
Ġ Ċ
u age
å ħ
u x
Ġ ent
in it
ĠN one
ser v
$ {
per t
W indow
ĠI f
Ġstr uct
Ġm y
Ġd ist
] [
H E
op en
oo gle
Ġ https
M L
D O
Ġ/ >
ĠL ist
ĠU n
w ait
so ft
atab ase
Ċ ĊĠĠĠĠĠ
Ġout put
app end
y pes
r a
Ġe vent
n ull
ast er
Ġb ase
loc al
ä ½
v ide
è ¿
c urrent
ot e
act ory
mis sion
g o
B ox
S S
u i
is h
ĠC lass
T Y
A ction
Ġa ct
T E
B utton
ameter s
p lo
Ġ ,
a pe
o ff
Ġ= ==
S ub
Comp onent
pl y
D I
C ON
D is
Ġu int
ment s
c s
. </
it er
c ase
U til
or s
able d
\ \
ĠA N
s ing
ol low
â Ķ
at ing
Ġp art
o in
f rame
s m
d own
p end
} )
g round
ĊĠĠĠĠĠĠĠĠĠĠĠĠĠĠĠĠ Ġ
Ġb ack
O L
p tr
B U
Ġon ly
ĠS et
AT E
le ar
et urn
Ġt arget
B ase
o ption
To ken
gr am
A rg
id d
pert ies
A d
Ġm ax
Ġ us
b in
m y
L o
u int
r l
Tr ans
Cont ent
Ġ image
Ġt emp
Ġt itle
T H
form ation
rap h
% %
ion s
ser ver
fer ence
O verride
Ġre sponse
Ġ} )
Ch ange
F rom
w ith
d u
Ġcont ent
Bu ilder
Ġg ener
L I
ig h
l in
` ,
ĊĠĠĠĠĠĠĠĠ ĠĠĠĠ
m od
d a
pro to
t tp
or age
f loat
f ind
In stance
L ine
N ew
an y
' ).
Tr ue
he ad
ateg ory
F I
cont ext
**************** ****************
w rite
P l
lay er
el se
Ġd ocument
m ark
N A
æ ĸ
Ġm ore
A ct
m ain
bu ild
Ġ( (
P er
me m
te ger
g t
å ¤
Ġ ë
w eb
per ator
L ay
g l
IN T
Ġa p
P O
Ġm in
v ir
Ġne ed
pl ace
c all
F A
C all
G ener
s ource
pos it
Ċĉĉĉĉ ĉĉĉĉ
Ġt able
j ava
è ¯
Ġw idth
St ream
ì Ŀ
icro soft
ific ation
E nt
f low
Me thod
Ġs p
f alse
c i
s g
le ft
v is
Ġre l
or re
up date
ĠO R
v ider
æ ĺ
V ar
le s
N ull
ĠC h
irect ory
Ġ( $
itial ized
< ?
ifi er
u id
ĊĠĠĠĠĠĠĠĠĠĠĠĠĠĠĠĠĠĠĠĠĠĠĠĠĠĠĠĠĠĠĠĠ ĠĠĠ
il ity
A P
Ġa g
" ).
e ature
Ġf loat
it ch
I mp
ul ar
ff ff
de v
se arch
up er
Ġb oolean
se ction
ain s
Se lect
le x
Ġ Q
and om
ft ware
Ġ http
Ġs ource
l p
} );
Cont roller
N umber
f a
t ected
ile d
C reate
r id
: "
//////// ////////
T I
o ve
e ar
Ġn um
Ġm ake
res ent
Ġf irst
Ġc opy
A ll
em ail
ĠR es
E d
Ġp age
à ¦
SER T
are d
ss ion
P oint
th ing
r un
Ġl ong
, '
æ Ī
lo ud
co pe
ay s
O P
H T
bu f
C E
to ken
Ġdo es
* /
me thod
S ON
id get
ro p
Ġcol or
an c
ri x
at s
me d
Ġbu ild
P age
p c
V ER
H andler
Ġis s
Ġup date
o ot
Ġf ollow
t arget
n ext
ĠT itle
Ġin stance
re quire
æ ķ
Ġg o
Ġ url
f ter
re sponse
++ )
ĠC ont
] );
s k
Ġin to
Ġm ap
ss ert
Ġe lement
ĠA pp
D B
// /
a ir
Ã Ń
ad ata
U E
tr act
s l
en ame
> >
Ã ¼
S tr
str ong
( [
ser t
name space
u ch
Bu ffer
Ġa wait
posit ory
Ġcom mand
Ġth ere
p ush
Com mand
Ġc re
set s
Ġf l
N o
out put
a int
Ġext ends
I P
S ource
f ilter
ĠI t
O ptions
ĠF ile
ĠĠĠĠĠĠĠĠ Ġ
he d
h ost
rit er
Ġ ::
Ġ} }
/ >
h as
ang uage
per ation
Ġc lient
Def ault
U S
if t
Ġm od
p ri
~ ~
p art
r t
ing s
Ð »
Ġimp lement
p rivate
le m
ĠS er
sign ed
Ser ver
G L
t om
V ersion
Ġ qu
Ġdo uble
Ġn p
n ect
ob j
Ġd i
Ġl en
end if
ĠĠĠĠĠĠĠĠ ĠĠĠĠĠĠĠ
x f
ol ic
Ġpro ject
Ġo ptions
ms g
lic ense
Ġval ues
c ss
Ġval id
u me
Ġ ;
t ual
Re f
Ġp o
v o
c d
orm al
å Ĭ
ust er
Ġ right
č ĊĠĠĠĠĠ
Ġf a
re t
ct x
Ã ³
çĶ ¨
Ġc o
Ġ ar
imp le
M ode
En d
w o
ap ache
it ies
en e
Ġ[ '
ĠT est
O F
Ċ ĊĠĠĠĠĠĠĠĠĠĠĠĠĠĠĠ
he ader
Ä ±
" ),
our ces
Ġ ed
a uthor
S C
ow er
H el
unt ime
en v
ser vice
S I
Ġli ke
Ġa ction
Ġof f
de t
ap t
Ġrequire d
St art
" ))
param s
D et
F l
l ast
F rame
Col umn
row s
un k
C heck
A A
t ag
P r
er o
Ġser ver
E L
AB LE
ĠS e
Ġ{ }
Q L
arg in
Ġre t
an el
Ġwh ere
Ġr ange
Ġo pen
st ore
ap h
l t
press ion
c f
in ition
Ġb lock
Ġpro cess
C l
S p
om ain
L abel
Ġdist ribut
ĊĠĠĠĠ ĊĠĠĠ
n umber
n av
f r
n ow
g oogle
( _
) ]
g ener
Ġfor mat
doc s
Ġ args
Ġc al
C K
o ptions
An d
f ont
def ined
' ],
í ķ
bo ard
ĠIn itialized
Ġse lect
Ġs upport
ĠO bject
b ot
Ġlo cal
Ġs c
ĠC ON
iv ity
m ail
C C
Ġv iew
ER R
x y
U rl
######## ########
Form at
par se
y m
A M
č ĊĠĠĠĠ
At tribute
ç »
F actory
o pt
Ent ity
H ttp
Ġwh ile
c p
br ary
List ener
ĠA dd
K E
Ġ ass
ent ity
čĊč ĊĠĠĠ
B lock
e qual
Ġd if
Re ad
S P
f irst
ref er
Ġfor m
C o
v ed
UL T
st ream
ref ix
ve lo
ĠO F
image s
un it
ĠA n
sh ow
O b
T ask
Ġe cho
å ľ
pro ject
t t
ĠC omp
H O
ver y
gr aph
Col lection
g ress
Ġj ust
Equal s
Ġp oint
.. ..
() :
by te
ĠĠĠĠĠĠĠĠ ĠĠ
iz er
Ġl abel
Ġa uto
Ġw ould
s v
ĊĠĠĠĠĠĠĠĠĠĠĠĠĠĠĠĠĠĠĠĠĠĠĠĠĠĠĠĠĠĠĠĠ ĠĠĠĠĠĠĠĠĠĠĠĠĠĠĠĠ
ä¸ Ģ
Th is
he ight
le ss
St yle
Ġfile s
u mp
m ut
ĠD E
Ġex ample
et a
com mon
Ġ$ {
U I
s pec
ar ning
Ġst atus
Ġo ver
M em
Ġf ind
Res ource
comp onent
ial og
c ard
res h
" .
Ġm odule
Ġm ust
Ġex ec
ad min
Out put
m er
Val id
util s
Ġin clude
iv en
Ġex ist
æĺ ¯
il ename
de scription
è ®
e f
Ġs ol
g n
r ad
et work
Ġl a
Ġse e
TY PE
AL L
a a
Ġo s
p g
Config uration
in st
Ã §
er n
T P
Ġal so
ĠA PI
I M
ail able
Up date
Ġm an
æ Ĺ
le g
U s
I O
che d
Ġd ate
vir on
ch ange
čĊ čĊ
Lay out
IT E
è ¡
U M
F ilter
Ġme m
Ġg roup
æķ °
R ow
in es
Ġn ext
Ġpro vide
n p
Ġf ont
ex pect
L ink
, "
Ġj son
enc y
ck et
Ġp ost
ri ver
add ing
{ "
Ġc atch
x x
ĠN OT
a h
in s
S to
S c
y thon
ant s
Ġ> =
ST R
Ġpro b
L ength
a ded
å Ń
P RO
Ġhe ight
Ġc ount
in stance
temp late
ro ot
ĠC opy
c enter
re act
y mb
a uth
che ma
; &
M O
at tern
ĠD ata
EX T
b it
Ġl ast
v ector
re q
Ġto ken
c ast
io us
ĠĠĠĠĠĠĠĠ ĠĠĠĠ
ens or
be gin
T emp
ess ion
Ġfollow ing
UR L
d ing
ĠS h
pro cess
Ġ ...
U P
z ure
bo ol
Ġf ix
Cont rol
p ack
T ypes
n s
OR T
Ġiss ue
å º
l ight
Ġ" /
Ġf ound
Ġs ame
pro perty
ĠV AL
cont rol
U B
at tr
Add ress
olic y
Ġa v
ol s
Ġh ere
Ġinst all
W h
pro duct
c r
F unction
ĠY ou
= >
tribut es
ud io
d ist
r ag
Ġlo ad
o ther
cri ption
ic le
x b
M odule
c ent
a j
qu ot
ry pt
Ġn ow
v en
() ->
Ġ query
add ress
ĠA S
Ġo ption
Ġin formation
t en
' .
NA ME
o se
ĊĠĠĠĠĠĠĠĠĠĠĠĠĠĠĠĠĠĠĠĠĠĠĠĠĠĠĠĠĠĠĠĠ ĠĠĠĠĠĠĠ
Ã ¤
V E
c y
act ive
n own
R out
et ch
ĠI D
Ð° Ð
å Ľ
i er
Ġre f
w ard
d ition
Ġm at
Ġ que
ex ec
at form
B ack
s a
ãģ ®
Ġas ync
lo t
c b
com mand
) (
Ġdis play
Ġe ach
Ġ ],
l n
l it
ES S
BU G
": "
Ġ< =
ult ip
! [
S H
as ses
ty pes
rap per
g en
Ġsh ow
a use
N one
Ġpro tected
Ġ Z
j oin
=" #
J son
O ff
å °
R un
Ġm atch
i an
Ġor der
================ ================
str act
Ġs w
file s
{ }
W rite
b ind
Ċ Ċĉĉ
` .
he l
e lement
p arent
ff ect
re move
Ġp ub
f s
Ġcon sole
Ġ' ',
A pi
Ġl ink
Ñ ĥ
A PI
D o
ĠE n
ac es
r on
me t
de lete
ĠC ol
b tn
g ing
č Ċĉĉĉ
un ter
å ¼
N um
Ġinter face
R AN
Pro vider
Ġthrow s
or ld
M od
idd en
Ġm ain
N O
Ġcomp onent
å į
c at
v ices
d ated
r ing
Ġbe en
read y
on ly
ãĢ ģ
Ġlo c
Ġ ),
Â ł
m aster
W R
col umn
x ml
s ol
W eb
Ġs ign
C ache
ad o
Ġs uper
an e
Ġp ort
s ql
Ġand roid
Ġt ag
ap ter
âĶ Ģ
ĊĠĠĠĠĠĠĠĠ ĠĠ
Ġal low
b ook
)) )
W idth
on s
c ache
ĠT o
Ġclass Name
ĠF or
re en
ot o
ĠW h
f ull
U ES
o use
Ġcol umn
Ġh ow
Ġab out
P re
do uble
viron ment
ĠA rray
cont ainer
IN SERT
d t
T ag
o le
x e
O S
Ġw ant
an ch
P art
ĠCopy right
ĠIN TO
Ġ em
Ġv er
He ader
loc ation
Ġc orre
struct or
ĠC reate
le vel
Ex ec
P tr
Ġp ackage
b a
V is
C lick
Le vel
-------------------------------- --------------------------------
ä¸ ª
Ch ar
is s
ch ild
ĠL og
Ġto p
Ġs ystem
di ct
é Ģ
CT ION
bu ffer
arg ument
Ġbe fore
s ide
M enu
i que
Ġp h
p atch
Ġw eb
Ġvar iable
Ġ q
c lose
ĠU ser
A uth
ma ke
ãĥ ¼
Ġo verride
Ġa fter
indow s
in ce
ĠW e
p resent
ain ing
; </
tr a
__ __
Ġt e
SE T
he et
E Q
Ġ row
' '
F alse
ir tual
Ġg iven
Ġ$ (
ĠO n
pos ition
Ġ" \
ä ¹
M ax
j e
S pec
En try
ing le
s d
s end
V AL
ĠP ar
> ,
ith er
Ġser vice
Z E
ire ction
ent ial
Ġli mit
st amp
Ex t
Ġ( '
App lication
Ġdistribut ed
cre en
A Y
P osition
C ase
am b
h er
âĢ Ļ
č ĊĠĠĠĠĠĠĠĠĠĠĠĠĠĠĠĠĠĠĠ
ĠB u
Ġc ur
M S
( *
Ġ< !--
ĠVAL UES
P L
ĠR eturn
Ġb et
ĊĠĠĠĠĠĠĠĠ ĊĠĠĠĠĠĠĠ
Ġp osition
Ġde t
æ ī
ann ot
dis play
ĠA l
as ic
t ri
Util s
ĠI S
ca le
st ri
En um
tx t
Ġf ilter
Hel per
ex ample
ĠC om
em ent
E mpty
wh ere
ĠT ype
Ġwh at
ĠS o
Ġf n
ĠU p
ĠP R
A b
Con st
ge st
n der
Par ams
Ġlo ok
Sto re
R em
app ing
ĠE X
Ġth an
R L
] :
Ġf eature
G ET
Ñ ı
f ul
Ac cess
ë ĭ
Ġarg ument
li p
t ask
pl ugin
I f
Con nection
Ġexpect ed
Ġd on
il y
ĠS ee
Ġpar ams
Ġpro perty
? :
er m
ar i
re l
ult i
val ues
de bug
d ocument
Ġ es
Ã ¶
Ġin itial
m ode
y nt
Ġspec ific
Ġit s
D i
ĠD ate
P h
ĠT O
scri be
Par ser
M M
c le
O ption
Ðµ Ð
Ġob j
ĊĊ Ċ
ex p
h ome
Ġre g
Ġd own
pro t
a uto
Ġch ild
Window s
m m
Ġle ft
ar n
Ġ? >
yn am
im er
frame work
' ))
se ssion
RO M
ĠĠĠĠĠĠĠĠ ĠĠĠĠĠ
s ite
C ore
s ave
ĠIn t
ĊĠĠĠĠĠĠĠĠĠĠĠĠĠĠĠĠ ĠĠĠĠĠ
ymb ol
Ġac cess
c or
me ta
ent ic
Pro cess
p ub
V ector
l ish
ce iv
Ġw rite
[ :
t mp
Ġres ource
Ġw rit
Or der
m atch
rom ise
) </
id x
Ġwith out
act er
> &
Cont ainer
c ul
off set
b b
P RE
Ġ( "
H ash
D raw
Ġh andle
h ash
Ċĉĉĉĉĉĉ ĉ
ĠT HE
R eturn
Ñ ĭ
AT ION
ĠA s
p assword
FA ULT
DE BUG
Ġl anguage
Ġt ask
B ar
d at
ut or
ers on
< !--
C ell
Ã £
che s
Ġre nder
åľ ¨
Ġex p
ut om
g it
I con
Ġg r
X X
T ER
IT Y
D D
Ġo pt
l ing
ol ve
T arget
> ();
Loc ation
x a
Ġm ode
u ction
M in
de vice
ERR OR
Ch ild
Ġso ftware
ĠTr ue
al ign
Ġp arent
qu ence
if f
d ic
z e
Ġex cept
Ġ* )
c lick
ug h
mo unt
$ (
s ystem
r u
Ser ial
print f
O K
emp ty
I F
Ġthe y
Ġ ê
C P
h andle
con f
py thon
Ġb o
s or
O pen
pro ps
Set tings
ĠAN Y
Ġadd ress
u ff
und le
Ġst ore
b reak
se e
Ġ et
er ge
an sp
") );
čĊč ĊĠĠĠĠĠĠĠ
D ir
im al
P R
Ġn on
ad ers
As ync
M at
y p
we en
Ã£ o
W ork
let ed
c ustom
o perator
in ue
co py
Ġo ur
"" "
ä¸ Ń
f d
P os
st ep
sp lit
t otal
ay load
Ġs k
er a
Ġ" ,
AR T
Ġ' ./
b lob
t ab
å ¯
ure s
Un it
b ed
Par ameter
Lo ad
Ġal ign
en ces
å Ĩ
ĊĊ ĠĠ
sh ot
' >
N S
Th read
Ġapp lication
row ser
He ight
ĠW AR
Ġthe m
Ċĉ Ċ
item s
ĠH T
ent ifier
Ġp ri
li ed
De vice
st ack
æľ ī
ĠV ersion
Ġ[ "
ent ry
m enu
v ious
Inter face
ĠR E
in ate
a i
ist s
w n
ä¸ į
Ġde scription
Ġhe lp
B ody
Ġro ot
plo y
Q ue
ock er
G E
Ġ' /
I B
Ġv is
C urrent
v ol
In teger
ut er
Ġ( :
ri es
Ġc ould
Ġde lete
ĠD es
OR D
å ĩ
mission s
ĠDe f
j pg
w ay
å ¾
l a
and ard
x c
x d
Ġtemp late
Arg s
ĠE rror
Ġd b
ĊĠĠĠĠĠĠĠĠ ĠĠĠĠĠĠ
ock et
im um
lay out
ï¼ ļ
Ġ{ @
Ġo p
se cond
S ec
D ocument
g u
æ Ŀ
il er
or ies
Ġp ass
oc i
Ġin fo
Ġse cond
he ll
æ ł
C M
Ġl ength
h av
imp l
. "
to String
Ġcon s
ĠM e
Ġst ep
Ġbu ffer
St ack
ĠAN D
Ġc ustom
ot ype
Ġs uccess
Ġf rame
ro ugh
ph a
R ender
W e
IN E
Ġm sg
âĶĢ âĶĢ
x ff
s uccess
el y
-------- ----
a ise
at t
ern el
_ .
Ġt wo
S ession
ĠN ew
ve c
ä ¼
ĠN o
expect ed
g h
res ource
Ġb tn
ist ory
Ġb l
å Į
in ation
ĊĊ ĊĊ
v m
L IC
an ces
Ġl ay
c ategory
Ġe ither
T op
ix el
Re cord
sc he
up le
P ost
é ĩ
ĉĉ ĉ
sh ould
app lication
Ġ ~
i or
p th
Ġb order
ren der
ca use
" `
in ary
T itle
p k
ĠA ssert
ed it
ĠF alse
Ġdif fer
ĠA p
Par am
S D
ĠN ot
B O
H ER
Ġpar se
EN SE
T D
} /
ĠG ener
ach ine
Ġspec ified
Se arch
Ġle vel
ĠG L
A RE
Pro ject
DI R
R ange
L L
e ad
ule s
! !
Ġb r
A SE
co ding
S cript
__ (
Ġback ground
c loud
d s
D own
] ]
By Id
WR ITE
in sert
Re pository
Ġreturn s
Ġor ig
Ġin it
f inal
in line
l ong
Ġw indow
i as
add r
Ġ ge
re place
Ġ' \
sh ape
In st
ank s
ension s
Ġse arch
Des cription
p op
Ġ est
ch annel
av ax
tr ain
Ġs end
al y
t ree
ãģ Ļ
str uction
j ob
l s
(' /
li mit
) ->
rig ger
t ed
ĠÐ ¿
%% %%
() {
return s
Ġ( *
ynt ax
n a
in ternal
act or
Ġs cript
ç Ľ
i us
g lobal
J SON
AC E
L ast
ĠEx ception
Ċĉ ĠĠĠ
ĠN ame
A ssert
Ġcre ated
Ob j
fe ature
Ð º
Ġresult s
AC K
ĠD o
Ġme t
un g
as on
Ġthe se
Ġ âĢ
A g
EN D
Ñ Į
s ample
ĠWAR RAN
Pro perties
str aint
o us
we ight
N ULL
ition al
Ġm argin
Call back
H andle
Ġde vice
f ix
Re ader
Ġbe cause
AS S
m ar
Ġav ailable
ynam ic
r ate
KE Y
c el
Ġcall back
ut f
Ġ+ +
Ġtest s
Bu ild
F L
r ation
de st
re gister
ãĤ Ĵ
ĠT ext
Ġc ache
Ġ č
g gle
s ort
IN D
Loc al
Ġ! ==
Ġa x
Ġ% }
ed ia
Ġ" "
gist ry
um b
Ġf un
++ ;
Ġ{ {
AT H
inter face
Ġhe ader
Re g
Ġp e
Ac count
čĊ ĠĠ
is hed
á »
Ġre move
Ġre d
M B
; ;
AN D
T ree
per s
Ġw ay
N ext
Val ues
a o
th en
ack et
M et
f n
U RE
Ġb ody
Ġd irectory
Ġi o
SI ZE
gr id
ĠC O
ĠA ll
d ay
in ner
\ +
b ad
Ġal t
Def inition
c an
com mit
c ell
Ġpar ameters
model s
ĠA zure
Ġt otal
us r
ä¸ º
ĠCon fig
cur ity
ex pr
is ion
Ġcon nection
S ign
ĠĠĠĠĠĠĠĠ ĠĠĠĠĠĠ
Ġd one
ĊĠĠĠĠĠĠĠĠĠĠĠĠĠĠĠĠĠĠĠĠĠĠĠĠĠĠĠĠĠĠĠĠ ĠĠĠĠĠĠĠĠĠĠĠ
Ġ â
sp ring
g or
Ġpar ameter
ultip le
O p
ĠJ SON
plo t
Ġp os
Ġoff set
C ustom
n ap
Ġchange s
u ally
G raph
æ ³
Ġh ost
Pro duct
De lete
ide o
C RE
il t
Ġent ry
p ol
im ation
Ġdef ined
u k
reg ion
Ġf unc
A r
idd le
ur i
. *
Ġal ready
th read
)) .
lic e
P C
ut ure
val u
Ġby te
åı ¯
s i
med ia
ĠW IT
P ort
Ġs m
" ],
ar io
Ġ Ã
Temp late
Ġst ream
=" {{
ä» ¥
æ ŀ
Ġ{ "
m un
Ġdiffer ent
ç ½
} {
ab ility
ib ility
Ġbut ton
d c
ĠC heck
Off set
tr ic
MA X
Ġpro gram
æ İ
bot tom
h o
' m
co der
Ġde st
Ġpo ss
Ġa cc
Ġun defined
AG E
mo v
F irst
s cope
e cho
ĠRe act
AT A
module s
b order
IG N
M ENT
style s
Imp l
eng ine
Arg ument
OR M
ĊĠĠĠĠĠĠĠĠĠĠĠĠĠĠĠĠ ĠĠĠĠ
Ex pression
Ġconfig uration
Pro to
'] )
: \
ub e
Ġb it
key s
C re
Ġf ore
Ġac count
Ġcont rol
f c
Ġd atabase
Ġv irtual
Ġe mpty
ro ss
à ®
P layer
å ½
f in
ä ¿
am l
æ Ķ
C al
as sets
d r
Ðµ Ð½
c md
ĠM ap
con nect
w indow
Ġby tes
am era
CO DE
e ed
Ġse ssion
ac count
Ch annel
Ġde pend
component s
al s
De bug
æ į
u a
ir m
St ep
d im
v as
Ġf ull
" />
M on
FI LE
Ġth ink
Ġ license
ser ial
action s
ĠĠĠĠĠĠĠĠĠĠĠĠĠĠĠĠĠĠĠĠĠĠĠĠĠĠĠĠĠĠĠĠ ĠĠĠĠĠĠĠĠĠĠĠĠĠĠĠĠĠĠĠĠĠĠĠĠĠĠĠĠĠĠĠĠ
è ¦
re m
Ġf ail
i od
am ily
set tings
S A
G rid
S QL
ip el
Ġde l
ĠTr ans
i ct
al loc
velo p
ac cess
D R
é Ĺ
in c
Re ference
ver se
St orage
N E
Ġin ternal
pe ed
Ġcon f
< <
Rout e
In it
equal s
N et
refer ence
al le
Ġsw itch
Ed it
g ment
Ø §
O ne
Ġname space
ĥ ½
r ange
ĠA d
Ġapp lic
C ard
b f
b c
æ Ģ
s upport
S ION
Ġw ord
F ound
ab s
j o
è §
im ent
bo ve
Ġ Ñģ
LO G
æĹ ¶
w s
po se
H P
f ilename
bo ot
(' #
Ġo ld
ĠI s
" }
mo ck
En g
log in
Ġre q
ign ore
gor ith
Ġp y
W N
Ġre lease
Ġun signed
Ġthe ir
P ORT
c ap
g ame
Ġre cord
ater ial
S O
ction ary
id s
Ġs um
a e
Ġm ark
Ġc ard
Ġr aise
Item s
Ġe very
Ġre port
Ġad ded
ĠE N
Ġpro to
i i
By tes
ĠD is
è¡ Į
com ment
require d
Ġg lobal
Change d
by tes
% ;
To ol
Ġs ure
P T
mem ber
d l
av as
ĠO ption
M ock
Ġob t
) ),
H ost
Ġth read
M atch
r s
. __
Ġpl ace
P anel
F loat
A re
sv g
ur ity
S Y
Par ameters
ut es
Ġh ash
ĠM odel
Le ft
Act ivity
Ġj avax
LE CT
avas cript
Ġa bove
e q
//////////////// ////////////////
P ER
Ċ ĊĠĠĠĠĠĠĠĠĠĠĠĠĠĠĠĠĠĠĠ
R el
at al
Ġt mp
Ġc tx
Ġd oc
S chema
ang le
Ð ²
c rypt
D F
Us ers
Ġcon dition
Ġ ĊĠĠĠ
Ġk now
Log ger
ĠW eb
PO ST
Ġn et
us ers
Ġprob lem
Ġat t
å ¹
Eng ine
l ap
F ont
Ġp adding
b ers
B l
ĠT ime
c ar
TI ES
ĠF orm
oc us
RE WRITE
n ative
al k
ĠS ub
B ind
^ ^
D ialog
U ID
* )
s ys
to ol
Ġbet ween
re port
D el
( -
k nown
Ġt ypes
_ ,
h older
Ġf ree
w ays
ro y
Ġsize of
str ap
C S
Ġd er
e k
co me
or ch
Ġs uch
Ġf in
ĠF ROM
C R
ãĤ ĭ
Ġex ception
å ¸
M y
ĠReturn s
Ġs im
L i
az ure
W idget
urre n
TE ST
c pp
w ise
are a
P o
Ġ' @
G ame
ĠB ase
k it
O peration
ĊĠĠĠĠĠĠĠĠĠĠĠĠĠĠĠĠĠĠĠĠĠĠĠĠ Ġ
Ġ> >
Ġm on
Ġ" <
re lease
n on
con n
J ob
export s
=" /
m icrosoft
L icense
ĠM icrosoft
Ġassert Equals
inst all
ath er
U D
trans form
ac ity
æ Ń
k a
Ġa uth
Re quire
d rop
æĸ ĩ
~~ ~~
de sc
å ·
Ġfa iled
sc ale
ä» ¶
g a
ð Ł
l ation
Ġcorre ct
A p
') ->
m ath
Ġ[ [
i ant
c lear
å® ļ
In valid
Var iable
V ert
Ã³ n
A CT
o om
Ġcal led
er ial
al t
Ġch annel
T e
'] ;
Ġfield s
") ]
or ig
ãģ «
Ġen um
ĠU RL
Ġo k
( !
è Ģ
ge s
File s
play er
con nection
R ule
v id
Ġs ort
} "
ĠV alue
red ential
A ME
ĠS T
Ġit er
Ġcont ainer
ĠÐ ²
I ter
w idget
r andom
un signed
Ġh igh
Str uct
ĠSo ftware
Ġa m
ipel ine
amb da
E ach
h idden
enc ies
Ex p
mod al
en um
[ $
c ed
av ig
Ġd irect
ì Ĺ
pl it
y y
i um
age ment
Ġerror s
Ġat tribute
w j
d uc
Ġp assword
b s
Ġ í
ra ft
ge d
d raw
ãģ Ĺ
prot otype
ter m
Ġ Key
Ġlo aded
ex ception
Ġloc ation
M T
Ġpar a
vo ke
S L
ul ation
I R
ĠWARRAN TIES
ar m
ĠE vent
ëĭ ¤
: (
I ST
ĠL O
N OT
Ġre gister
N on
ire d
S w
Pro ps
h s
Ġex press
iter al
ff ic
" },
Ġth rough
Ġv ol
lo y
par ser
te gr
G B
r m
que ue
ĠO pen
ãĥ ³
tr ics
By te
j unit
Ġg u
Dis play
Ġt ri
h r
r ic
e ded
proto buf
äº Ĩ
ĠAp ache
Ġ" $
IT ION
Ġprovide d
Ġt er
i os
Ġitem s
Ġ ke
print ln
(' .
Ñ ĩ
W S
L ong
point s
D atabase
aw s
è¦ ģ
; ">
det ails
pro file
Ġ im
t ip
Ġg l
t ags
Ġs ample
m ask
O ver
ou gh
sche ma
z ip
Ġ` ``
Ð ¼
f mt
Ġpl ugin
Ġrun ning
Ġde s
W riter
me di
p ull
P ri
Ġm is
( :
Ġs ingle
ay ment
Ġn etwork
use d
fo o
cript or
li de
I E
En abled
Ġm erge
Ġj ob
H as
f ree
Ġr andom
Ġg raph
n n
Ġbe ing
T ab
ĠUp date
C opy
F R
ìĿ ´
ĠN ode
: </
IG HT
Gener ic
ac y
} .
ĠH el
Ġre al
b re
end ing
Pr int
A ss
ert ific
ĠW indows
man ager
C A
Ġc ell
sh ort
. $
R ed
ge x
de l
Ġv ector
p u
Ġ ];
entic ation
Ġd ie
Ġm ut
int e
ure d
Ġ\ "
ĠL o
Ġcont inue
ix ed
and roid
sp on
ĠDE FAULT
HO UT
Ġre present
l ar
ator s
P ackage
R ight
lic it
st op
P assword
CO L
vis ion
ë Ĭ
č Ċĉĉĉĉ
Ġpro duct
F low
Ġag ain
Ċ ĊĊĠĠĠ
R oot
ĊĠĠ ĊĠ
Ġj s
ĠP l
ak es
ri e
( __
P ATH
art icle
' =>
word s
č ĊĠĠĠĠĠĠĠĠĠĠĠĠĠĠĠĠĠĠĠĠĠĠĠ
Ġset tings
w rap
c m
log ger
du ce
Do uble
se mb
Act ive
l g
sc al
{ \
Ġa uthor
Ġlog ger
= \"
Que ue
ĠD O
Ċĉĉ Ċĉ
Ñģ ÑĤ
w ner
ĠC re
M sg
Ġh and
LIC ENSE
ur ing
co ver
Ċĉ Ġ
Ġ email
Met adata
pen ame
= $
fo ot
ĠDef ault
Ġ` `
hav ior
} \
ag n
serv ed
ĠV ector
n one
Name s
ud ent
ad ow
D L
_ ;
( ()
æ Į
d omain
Ġmem ory
Ġpar ser
iv es
(" #
Ġre ference
Ġbase d
spring framework
k w
Ġa pi
c v
Ġwrit ing
E ST
un try
V L
Ġs ave
å Ģ
re cord
Ġo perator
D S
é Ļ
it es
Ġst ack
FF FF
Field s
ç §
Ġd id
Ġ< ?
Re port
Ġ' <
T W
nap shot
t w
at om
ign ment
field s
Pl ugin
E E
el f
back ground
op s
f ill
ĠP RO
Ġ html
ro s
Mat rix
Ġp ut
Ġdoes n
bu ilder
) /
Ġex port
S o
"> &
Ġse ction
col lection
Ġ âĶ
rag ment
C lose
Ġinst ead
ĠM ath
ann er
ar s
> {
ĠA ct
ĊĠĠĠĠĠĠĠĠĠĠĠĠĠĠĠĠĠĠĠĠĠĠĠĠĠĠĠĠĠĠĠĠ ĠĠĠĠĠĠĠĠĠĠĠĠĠĠĠ
Ġg ame
RE F
H EN
b d
ĠS ome
P AR
ĠT ask
license s
lang uage
sh ared
Ad min
e g
Ġc enter
ĠR em
Ġposs ible
Imp ort
ĠWIT HOUT
P ool
( `
Ġ um
Ġun it
æĪ Ĳ
Ġro le
Ġst ill
d ocker
F unc
(" /
he ther
Ġargument s
x ffff
ĠP er
Ġo peration
t f
de cl
se c
D oc
ä½ ¿
wj gl
st orage
C ategory
ç ī
Ġ ĉ
ad a
Ġobt ain
******************************** ********************************
ĠSer ver
Ġper missions
F eature
m ac
Ġc lose
è¿ Ļ
M eta
Ġc lear
Ġm ov
> :
)) );
ĠIn put
P S
ĠA nd
Ġbe gin
O UT
/ )
name s
un ch
Ġdet ails
C I
Ġ' '
P olicy
ST AT
Ġus ers
() ).
R R
Ġli brary
p refix
serv ices
ac ing
Ġs a
log y
j avascript
d ot
ĠB e
Ġp ython
ä ¾
Ġap pro
¦ Ĥ
test ing
Ġfore ach
ĠV al
Ġ icon
G R
Ð¾Ð ²
čĊ čĊč
ĠIn st
Ġag re
error s
Time out
An y
Collection s
he s
to ols
Ġs imple
Y ou
Ġread only
? >
IL ITY
]( #
æį ®
Ġ ĊĠĠĠĠĠĠĠĠĠĠĠ
-- >
Pro file
ä¸ ĭ
In ternal
C ur
A X
result s
ĠTO DO
a iled
ro le
å¯ ¹
ĠM y
ãģĹ ãģ
Ġn ormal
V er
Ġcont ains
or ity
ĠO ut
PE CT
Ġpro perties
E rr
= (
Sh ow
Ġ[ ];
hel per
åĪ °
re p
Trans action
. ,
ex tern
al ys
Ġ" ",
n ess
Ġp lease
Ġex it
Ġselect ed
r am
ook s
Des criptor
ĠV iew
Re gister
annot ation
Ġo per
in itial
Ġdocument ation
ll um
Ġbo th
Ġa utom
ĠR out
view s
li ance
e ver
ceiv ed
f b
ch ron
ot tom
Ġt ree
Ġp as
select ed
Ġel if
B r
.... ....
ro ute
ëĬ Ķ
å Ĵ
ĠP y
ï »
Ġpar am
Ð ´
M ain
on y
A uthor
ĠI mage
Ġp layer
h igh
Det ails
p b
é ¡
R ect
Ġ čĊč
Ġo wn
) }
user content
ick er
se curity
Ġcon structor
A ST
Ġb ox
Ġ ..
av ed
alys is
ï» ¿
anc el
n ormal
call back
O B
æĸ ¹
HER E
ir d
č ĊĠĠĠĠĠĠĠĠĠ
ĠH e
tr ack
U se
llum inate
ĠI O
Ã§ Ã£o
Ġm ock
as ync
X ml
b oolean
S upport
################ ################
ĠIn teger
ĠC ode
Form s
ĠA c
Ġg over
Ġd im
je ction
ol ution
RE AD
w d
S uccess
i pp
al th
. ",
pr ice
DE F
ĠU se
de pend
d ates
Ad apter
ad ing
Ġent ity
D C
HT ML
ol ver
f p
c imal
ĠS QL
le ep
k t
ON E
b atch
P arent
en code
ĠN O
Ġper form
č ĊĠĠĠĠĠĠĠĠ
Ġmethod s
Select or
è¡ ¨
j i
Ġfunction s
U AL
Ġe ven
C an
lin es
Ġin line
ĠRe quest
s ure
Ġgener ate
Ġd iv
a u
it ter
å İ
G lobal
Ġ ĊĠĠĠĠĠĠĠ
pri mary
sc reen
Ġup dated
R T
ri p
up load
w in
bo und
Ġw ait
con sole
Ġname s
W ORD
å ¿
Test s
ãģ §
è ĥ½
ĠK IND
l at
åĴ Į
iss ues
E mail
am a
Ġg en
Par se
ub y
! (
Ġcon vert
' re
s im
h y
Ġw ell
github usercontent
ĠR un
å ¦Ĥ
Ġcol lection
i Ã³n
è ¾
M ark
On ly
D ist
Ġde cl
åĪ Ĩ
M icrosoft
Ġimp lied
z er
var iable
> .
Ġsh ort
gorith m
r b
ì Ħ
ä¸ Ĭ
E CT
j ust
ĊĠĠĠĠĠĠĠĠĠĠĠĠĠĠĠĠ ĠĠ
Ġ Ċĉ
íķ ĺ
w er
é Ŀ
AN T
ĠB y
AR Y
met adata
d k
S U
Ġtrans form
Ġact ive
cre ated
ç İ
exec ute
Ġ util
Ġw ere
` )
VER SION
h andler
e a
Ġen v
re set
p a
m argin
m i
c li
R ole
ĠF unction
S k
D irectory
re al
Select ed
fl ags
IC E
E M
y ear
Ġmodel s
Ġf mt
Ġser ial
Ġpre vious
Ġed it
lo ader
fl ag
Ġapplic able
log ic
Ġs ince
Ġto ol
Tr ack
ãĥ Ī
Ġtr ack
as ure
. '
\ ":
du ction
Ġcon n
al low
å ±
A V
G e
{ %
net work
ri ct
Ġimplement s
Ġs cope
ä¸Ģ ä¸ª
ĠM essage
per iment
å ī
ĠD B
d x
Ġcom mit
urren cy
ç Ĳ
) *
B it
Ġde bug
á º
To String
ĠL oc
Mem ber
ĠA t
quest ion
j a
=" ../../
st at
AL SE
H ub
ĠI P
D ATA
RE S
d atabase
ateg ories
ol y
â ĸ
Cl uster
ir cle
Ġm ultiple
ansp ort
en ded
ä½ ľ
LI ST
ang o
S creen
ome try
p ass
Ġs ent
ç½ ®
SE LECT
' ll
ĠA rg
Draw ing
J S
H ome
Ġp red
cont roller
ãĤ ¹
Fl ags
Ġm ost
L ock
sol ute
à ¹
end ar
valid ate
s n
f g
Ġ( _
her it
sw itch
pro p
pro perties
W E
Ġgo od
to ggle
') );
ĠO r
Ġact ual
get Element
ĠÐ ¸
ce ive
pk g
Ġass oci
Ġp lay
Ġfl ag
I m
B E
ex ists
Ġv ert
Ġsome thing
the me
sh al
K ind
ĠP romise
ĠL e
F E
ut ter
h and
z z
ĠÐ ½
CON T
W rapper
ver ter
Ġan other
ur face
u ite
pre c
In itial
g y
co unter
â ķ
p df
M IN
Ġobject s
er ic
æ³ ķ
cf g
ĠH ttp
r untime
ä½¿ çĶ¨
Ġin v
t k
am ent
FL AG
A v
ĠĠĠĠĠĠĠĠĠĠĠĠĠĠĠĠ ĠĠĠ
| |
f it
ap ply
cs v
__ _
Ġelement s
ĠRes ult
it al
Ġset up
Ġen vironment
Ġorig inal
è ĩ
B oolean
p anel
N etwork
Ġv ec
if def
ump y
R I
B ound
Ġreturn ed
ac c
Ġst op
ĠE nd
al led
d om
Ġgener ated
/ .
it o
Ġp op
or iz
F ull
Ġv ia
ç ¨
) "
im it
RE G
N T
Sh ape
Ġimplement ation
sub mit
re st
, $
Ġwork ing
A uto
cond ition
Ġh app
ar p
ç ®
w ik
P UT
ash board
Ġi p
k er
Ġright s
cont ains
ight s
T otal
Ġs ite
he lp
å ĳ
B R
Ġst orage
oo se
ĠR ed
ĠLicense d
' ve
S ync
m k
C D
B undle
ug gest
x FF
sa fe
res sed
Lay er
N ET
Ġc md
ex it
Ð ¿
: **
en ch
Å Ł
L INE
, ,
åı ĸ
lin ux
ĠM an
l ab
ĠF OR
leg ate
v i
x t
Tr ace
Ġ img
al ert
ĠSt art
Ġbe low
Ġo cc
Ġm ight
Ġwith in
sh ip
Ġcont ain
( @
ri ef
çĲ Ĩ
ĠIn ter
TI ME
foot er
M apping
in ess
ĠHT TP
Ġs creen
Ġsol id
Model s
> ;
Ġ æ
Ext ension
Gener ator
v c
so cket
Ġt ake
Po inter
cl asses
Ġ< -
Ed itor
it ive
ON T
Ġ" -
Ġhe aders
re at
resh old
ì ł
âĢ Ŀ
ĠI mp
ul er
i ed
cre t
Ġb ug
b on
yn chron
age d
æķ° æį®
id ent
ĠRe ad
Ġin d
G r
Ġf older
Ġbu f
a ut
Ġwork s
u f
v s
com m
ĠSer vice
Date Time
ç ±
ë ¥
U SE
ak ing
lo sed
RE Q
Trans form
ru pt
av ing
Ġe as
S end
à §
ĠP ython
b g
ag ent
F ind
D ITION
Ġf ilename
Ġap ply
} >
mat rix
np m
re c
åĩ º
Ð° Ð½
Ġt ab
ag ing
F T
Ġcan not
test s
if act
sm all
ë ¡
Ġvariable s
velop ment
Lo ader
em s
at tribute
b us
Text ure
al pha
wh ite
x s
ĠE d
it ude
en able
Ġh andler
L S
( ['
'] ['
d iff
Ġcl uster
Ġexist ing
Ġbu ilder
o od
t ml
Ġn one
R ad
p m
(" %
Rem ove
** :
child ren
Ġp erson
f aces
r f
co ll
V ENT
Ġd ir
ale s
c mp
CH AR
ĠT ABLE
Not Null
Ġl aw
AB ILITY
C F
n il
ãģ ¯
ertific ate
ĠI d
S um
fore ach
ãģ Ħ
Ġf r
full y
Ġ" .
R C
ir c
Ġcom mon
gr ad
gr ade
h a
Ġw hether
Ġy ear
se q
ĠJ ava
Ġ_ ,
è ½
co s
Ġcomp liance
v es
J ECT
Ġpo inter
é ¢
Ġin dic
MO DE
ĠA b
ĠC OL
h pp
Ġ' ../
P H
app ed
F IG
Ðµ ÑĢ
sd k
à ¤
ĠĠ ĊĠĠ
ĠH ow
? .
in ux
Th at
U SER
F ail
c n
ched ule
ĠB AS
h i
Ġpoint s
æĪ ĳ
assert Equals
down load
ĊĠĠĠĠĠĠĠĠĠĠĠĠĠĠĠĠĠĠĠĠĠĠĠĠ ĠĠĠĠĠ
Ġke ep
( \
ĠT e
D ER
å¤ §
Ġin teger
g re
M edia
s ig
ĠEX PECT
P U
P y
ĠW HERE
ä¼ ļ
vide o
ìĹ Ĳ
vir tual
} </
Event s
čĊč ĊĠĠĠĠĠĠĠĠĠĠĠ
bl ank
local host
Ġcon nect
äº İ
mat erial
åħ ¥
Ex pect
Ġs ym
æĸ °
\ _
Ġext ension
Mem ory
Ġd f
il ar
s core
Ġc lick
ĠS p
Ċ Ċĉĉĉ
Ġp resent
ĠSt ate
g reg
è ´
Ġro t
Ġv ery
A x
ç ¤
æ Ĭ
ĠH ash
Ġli b
Ġmet adata
Ġkey s
Key s
C ALL
f il
Ġe qual
D omain
ĠC L
package s
åĲ İ
Ġmat rix
Ðµ ÑĤ
V M
ãĢ Ģ
Ġon ce
R untime
redential s
iz es
Ġ{ '
Ġh ad
At t
ĠP ublic
event s
Ġ( `
ĠArray List
F ORM
ate way
=" ../
Ġc lean
Se cond
f amily
f ail
ç± »
HT TP
ĠB oolean
Ġw r
l ates
T ION
() ));
ch ain
Ġm any
ĠWh en
D est
head ers
Ġ ignore
ent ion
Ġr aw
ax is
Ġp ull
Ċĉĉĉĉĉĉĉĉ ĉĉĉĉ
Ġb ound
At tributes
d one
oo st
ang ular
ï¼ ī
I V
e v
Ġcom ment
Ġ-- -
W ord
ate st
Ġ er
w rapper
Ġco ord
Ġ" #
a ff
Ġg rid
> )
ĠN umber
ì ļ
B B
ĠÐ º
M D
TW ARE
det ail
Ġb ind
OF TWARE
Ġinstance of
d en
" +
ê °
th rows
'] );
Ġagre ed
ĠBAS IS
Ġ" ";
Ġsp ace
g i
ateg y
A fter
S ave
Ġre sp
ç º
P op
ĠCON DITION
h ir
Ġgover ning
Ġto o
pl atform
Sp ace
st ats
H R
par ameters
type of
f etch
D b
G en
sum er
ation al
c py
AS K
Ġin cl
ro me
) ](
ìĿ Ħ
> ::
Con n
B L
Ġs up
ts ch
() ))
ass ign
Ġcal cul
w p
styles heet
n i
iter ator
Ġar ia
ud ing
get Name
Ġnode s
Ġrequest s
Ġa mount
Ġm ove
ĠRes ponse
Ġd raw
boot strap
ï¼ Ī
est ed
ab il
cl uster
P Y
po ol
Ġt y
CH E
ĠCONDITION S
Ġal ways
Ġlimit ations
ad os
f x
ĠP r
åŃ Ĺ
Sec urity
åĲ į
ak er
Con f
æľ ¬
Ġstruct ure
agn ost
P lay
po ch
S ample
not ation
let ion
j ango
sw er
Ġp refix
STR ING
Ġid ent
Ġc ap
S ort
s ync
if est
Ġs ide
p air
LE TE
ces sed
> \
Ġhe l
Ġre served
Ġevent s
Not e
Ġmessage s
Ġd at
ĠN S
Q U
D irection
ĠT R
b log
in a
ĠÐ ¾
al ance
ee k
Const ants
E Y
et s
ver s
& #
S cale
Ġ ĊĠ
ç «
Ġs ys
ĠBu ild
Ġt f
Com mon
D ATE
Ġprint f
re sp
p are
ĠA ction
Ġf e
Ġs cale
li brary
A zure
mb ers
Ġuse s
our s
Ġfix ed
Ġb atch
____ ____
ç Ĥ
Ġp attern
Ġlo op
] ))
Fl ag
th row
at io
/ {
S ocket
r v
s uper
in f
ĠP O
Ġm enu
ar ies
A rt
\ /
Ġb est
Ġcont ribut
r ule
C md
pl ac
æ ı
Ġre fer
Pro gress
p adding
Ġd a
ĠâĶ Ĥ
res olve
ic a
Ġ ##
Det ail
F ailed
AN G
_ {
S imple
Ġv e
oriz ont
ĠP lease
Ġsol ution
Ġc ore
Ex ample
Ġb inary
assert Equal
Ġab le
option al
Ġoption al
åı ĳ
Ġ ^
b rief
ud o
Ġ' #
F C
t re
r al
I LE
ĠS H
Ġass ign
ct or
av en
ĠU I
ub er
Ġf ill
v a
type def
kw args
pro tected
late st
Log in
} `
u it
. \
Ñ ħ
velo per
Ġ{ };
åº ¦
Id s
re qu
r d
Ġ" '
op le
Des c
Ġre pository
cre ment
ç ¬
Ġchar acter
ĠÐ ´
co gn
S ql
åĬ ł
ro t
Be an
ç¨ ĭ
Ġne eded
d river
Ġmod ify
Ġen able
icon s
Ġ$ ('#
ĠĠ Ċ
Con dition
LO CK
p ag
Ġfeature s
g s
ur al
st and
AD D
ãĤ ¤
Ġs chema
t ar
p ed
. ");
Ċĉĉĉĉĉĉĉĉ ĉ
log o
b ash
Ġchange d
F in
Se lection
Ġexist s
for Each
h l
Re gistry
res ources
ĠP ath
ĠVal id
D im
Ġsub ject
Ġ ĊĠĠĠĠ
N U
le v
Ġre m
Ġadd itional
Ġ$ _
t l
ĠD ep
Pro xy
ĠMe thod
Ġnot ice
=" <?
Ġlay er
al let
Ġd river
M ut
ĠSt atus
ist ic
ĠUn less
Ġpas sed
avig ation
orre ct
Ġ unt
iddle ware
D A
æŀ ľ
lo ss
C B
ĠPro ject
Require d
Ġat tributes
ĠS OFTWARE
c apt
Ġid x
ic ode
P refix
Ġsupport ed
) \
ĠF ound
æİ ¥
Ġg ot
AR G
Se ction
Ġb rowser
Ð¾Ð »
act iv
Ġl ines
pl us
Ł ¥
J ava
pe at
ro ke
Ġdi ct
, -
' d
Ġs l
Ġlo ck
n def
P air
ist ent
ĠL I
end or
æ Ľ
ĠCol or
E l
ĠF l
V ol
INT ER
ph one
li er
Ser vices
O D
Ġse par
time out
à °
node s
de code
Ġ" %
k ind
Ġf lex
tri m
Const ant
bl ue
i ence
%%%% %%%%
Enum er
åŃ ĺ
ĠA R
Result s
top ic
as set
P P
G ER
ĠC an
t c
Ġcondition s
ter min
å¼ ı
O pt
af ter
De cl
äº º
con s
=" "
an a
Ġapp end
ĠS E
orizont al
to Be
N UM
sh ift
State ment
Ġ# [
Error f
bo se
Ġn a
ac ion
f i
ĠM od
ĠI F
S cope
k s
Proto col
mark s
sc hed
æ ģ
Ġde scribe
az y
co ur
ĠA r
Ġac cept
straint s
P attern
ë¥ ¼
Ġ[ ],
up lic
e ach
Ġth ose
set up
Ġque ue
ue st
wh ile
Ä Ł
if ndef
(" \
C ap
ì ŀ
t le
Ġsm all
ys ql
ĠS ec
Ġin valid
gener ate
Ġd en
for ce
Ġcopy right
s up
Id entifier
ë¡ ľ
Ġro ute
B o
am ount
cont act
Ġab stract
ĠT able
Ġ art
ic les
Ġin sert
Ġs ql
be fore
Ġg it
ik ari
ĊĠĠĠĠĠĠĠĠĠĠĠĠĠĠĠĠ ĠĠĠĠĠĠ
ĠC H
plugin s
E ffect
C loud
time stamp
n y
âķ Ĳ
Ġc r
sh op
mem ory
sh a
es h
ut ing
ĠR ow
time s
Are a
Ġbr anch
ãģ Į
ĠG it
Ġpro ps
ãģ ¨
ĠK EY
ON G
R ate
Ġ und
ĠOut put
d ia
Ab stract
Ġde sc
pre v
Ġ" ./
è µ
Ġt orch
Ġm ade
ĠDes cription
Ġx ml
ĊĠĠĠĠĠĠĠĠĠĠĠĠĠĠĠĠĠĠĠĠĠĠĠĠĠĠĠĠĠĠĠĠĠĠĠĠĠĠĠĠĠĠĠĠĠĠĠĠ ĠĠĠ
) [
mo ved
ĠT H
Ġdef ine
fr ont
Ġ Qu
Sc roll
Ġat tr
D K
ist ics
Ð ·
Ġad min
Pr ice
p attern
Ġ' .
par ameter
Ġm uch
åī į
ĠC o
data set
ĠCh ange
Ġt erm
getElement ById
=" _
S M
Ġnull ptr
ê ³
ç ł
åĽ ŀ
pl an
Ġpl atform
Ġde ploy
Co ord
æ µ
c atch
an ization
Ġf etch
Map per
own er
ase s
z one
Vert ex
f lex
F older
A li
Ġ à¦
ĠC all
o ice
æĿ ¥
ut ed
Ġdef inition
OR Y
page s
ĠTh anks
ĠOption al
ffic ient
O M
Ġme an
Ġneed s
om ent
Ġiss ues
d ig
semb ly
Ġre set
Be fore
åı¯ ä»¥
d irectory
Ġ Ã©
Vis ible
ãĥ¼ ãĥ
s q
un ique
æ ĭ
+ "
Ġred irect
ur a
B IT
Ġt yp
ff f
al f
Ġplace holder
ĠC lient
V ID
ic o
Ċ ĊĠĠĠĠĠĠĠĠĠ
im ate
Ð° ÑĤ
/ "
s b
Ġtr ain
Ġde v
co ord
M ar
S W
ĠĠĠĠĠĠĠĠĠĠĠĠĠĠĠĠ Ġ
um my
t i
w arning
ĠF ield
ì §
a im
'] .
LO AD
Ġb ar
il i
d art
. <
ĠO N
c ity
Ġimage s
f ire
ion e
ab ly
tr ace
G u
æ ¯
ĠComp onent
W arning
CC ESS
Ġchild ren
ag ma
) ",
U ri
M ath
ĠCom mand
ç¤ º
-> _
proto col
if orm
Ġì ŀ
ot a
ter s
è¿ ĩ
] ),
ed itor
low er
Ġ Ø
Iter ator
X ML
Ġsh ift
leg al
R P
Ġfl ags
ver age
is m
Å ¾
object s
Ġlog ging
Ġexec ute
Ġpl t
Ġe ffect
L en
Ġassoci ated
Pro gram
Ġset ting
Ġc ause
Ġr ule
I VE
uber net
ãĤ ¯
T F
ch a
F ragment
Inter val
roll ers
Ġhe ad
Ġ rows
Ù Ħ
CO MP
Ġp ur
our se
s z
not e
V S
ĠIn itial
Ġ' ,
Back ground
ãģ ¾
c ry
St ats
Ġet c
M ove
ĠLO G
ubernet es
ĠV er
qu iv
ĠHT ML
: `
r or
on es
pro gram
ro uter
Wh en
ç Ń
Ġw orld
éĹ ´
in valid
(" .
f actory
i j
T A
] ['
I AL
Ġp ayload
ĠS ET
Ġun ique
serv able
Ġk ernel
ĠTh ere
Ġautom atic
N N
ro ad
ĠP h
DE FAULT
Ġd ay
Ġmem ber
iv ers
at ar
ol l
Re lease
Ġ arch
s y
Ġmis sing
in v
ific ations
ì Ĭ
dis able
ar ge
Ġdown load
inte ger
Mod al
sc roll
ĠO b
L imit
h ide
l ished
ĠN ote
O rig
ig ration
ot ion
MA P
is on
ch art
lo op
Å Ļ
Ġdif f
Ġp ush
Ġ. /
Un known
at tributes
> "
Ġin tegr
act ers
à ¯
stri ct
== =
ĠM at
çĤ ¹
Ġstring s
Ġbe havior
ed ge
å Ļ
> `
SC R
y cle
Ġs v
w orld
ä¿ ¡
b le
t ure
ri ve
Ġr ad
pro xy
Ġre po
Ġtime out
AA AA
Cont act
At tr
z en
W HEN
ap er
LO W
Li brary
-------------------------------- ----------------
Ġother wise
ay be
Ġd omain
Ġ' ''
h ip
te am
Ã ª
ĠJ son
Ġrel ated
Ġen abled
and o
Ġres olve
Ġdata set
M I
Ġs cal
lo aded
vo ice
ĠT EST
čĊč ĊĠ
Se quence
comp lete
ĊĠĠĠĠĠĠĠĠĠĠĠĠĠĠĠĠĠĠĠĠĠĠĠĠĠĠĠĠĠĠĠĠ ĠĠĠĠĠĠĠĠĠĠĠĠĠĠĠĠĠĠĠĠĠĠĠĠĠĠĠĠĠĠĠĠ
ĠE RR
qu are
Bind ing
ĠM on
mon th
feature s
Ġì Ŀ
EQ UAL
_ (
Node s
w indows
Ġt ags
Ġ- =
LO C
s ent
VAL ID
Name space
l int
F ONT
label s
âķĲ âķĲ
čĊč Ċĉ
èĩ ª
Ġ arr
ob ile
R et
Å Ĥ
Ġcurrent ly
sw ing
Ġd uring
in i
UT H
Ġcont roller
åĻ ¨
Ġz ero
åĬ ¨
Frame work
du mp
ĠEx ample
TH ER
Ġtype of
Ġm ask
Be gin
em o
St at
Ġ ðŁ
A mount
N ormal
ìĿ ĺ
++ ++
ĠW rite
Ġare a
d ialog
Ġal ert
con vert
Ġter ms
x E
B ool
ĠC l
STAT US
b its
sk ip
l ambda
alle l
Ġinclude d
Not Found
Ġre ason
Ġw arning
ĠH REF
ĠT emp
V ec
L anguage
St atic
Ġde c
d p
VAL UE
D IS
æī Ģ
ro om
: -
Ġf s
p or
and id
config uration
\ ",
ĠIN T
and s
mo b
å ŀ
Ġ( {
B us
P ublic
b eta
ç ľ
utor ial
A F
ang er
Ġnot e
em on
struct ure
w t
ck er
S im
for med
S V
P erson
rad ius
& &
c lean
me an
Ä ħ
ic ip
ĠP age
Ġax is
om ite
Ġcl asses
T EXT
æ ±
åĢ ¼
ĠĠĠĠĠĠĠĠĠĠĠĠĠĠĠĠ ĠĠ
= [
=" ">
ĠĠĠĠĠĠĠĠĠĠĠĠĠĠĠĠ ĠĠĠĠ
UN T
Ġsh ape
mun ity
EL D
Ġv ideo
ĠC ustom
ĊĠĠĠĠĠĠĠĠĠĠĠĠĠĠĠĠĠĠĠĠĠĠĠĠ ĠĠ
Ġ ×
Y PE
é ģ
od o
M ouse
ĊĠĠĠĠĠĠĠĠĠĠĠĠĠĠĠĠĠĠĠĠĠĠĠĠ ĠĠĠĠ
wh en
CRE ATE
p olicy
omite mpty
' }
i pe
Ġvalid ate
ĠD et
T L
y aml
å® ŀ
ac iÃ³n
Ã ł
ant ity
ur s
li k
En v
m c
Res ources
comp are
-------- --
column s
Ġme ans
ĠA L
so me
ĠG ame
Reg ion
Ġexec ution
ĠO THER
Ī ëĭ¤
ache d
A cc
ty pename
: %
u ario
res ses
cri be
pl t
sh are
av el
V ideo
mer ge
: '
pe t
Ġ\ \
con v
F r
` :
S ymbol
Ġbet ter
Ġres ources
anc ed
ãģĻ ãĤĭ
Ġme ta
Ġcolumn s
Ġr untime
Ġp air
Ġthe me
pe ar
éĢ ļ
R andom
mp loy
G o
s lice
in o
Ġex pression
W AR
ST ATE
lo or
è® ¾
aly t
Ġi de
L ight
Ġre st
ĠE nt
t body
or n
Ġ' "
de c
Ġs b
ĠL ink
åĬ ¡
arg v
Ġre view
gist ration
Ġp d
Ġs plit
script or
d ays
Ġl ater
p ad
Ġ' ';
S B
P ass
Ġe valu
ĠU SE
= %
é Ķ
N ative
æģ ¯
Exec ution
] ],
ĠC HE
S l
UN D
Ġtrans action
E C
Ag ent
Ġver ify
co ut
ĠGener al
Ġl ight
uff ix
aw n
Ex pr
ĠU s
co very
Ġcomp lete
o per
] +
æĸĩ ä»¶
Ġal loc
z ero
is set
ĠHel per
d n
riter ia
ç ¼
De pend
Ġc op
Ex port
å »
c raft
L EN
âĸ Ī
se l
ch at
ex ternal
col lect
f older
Ġbl ack
B ASE
Ġs ur
ĠI lluminate
ĠWh at
Ġ{ %
() ),
iz ing
Ġarg v
ç ´
Ġk ind
Ġre ader
æĪ ·
R aw
č Ċĉĉĉĉĉ
CON FIG
** .
g b
Ñ İ
S up
D uration
ul ate
åĨ ħ
at iv
c us
Ċ ĊĠĠĠĠĠĠĠĠĠĠĠĠĠĠĠĠĠĠĠĠĠĠĠ
code d
z a
ĠAn y
çĶ Ł
Ġact iv
Ġlog in
Y Y
å¼ Ģ
ĠCHE CK
ĠD ocument
re view
Ġcur sor
ick et
Ġc ategory
Ġst andard
IN CL
A I
ribut ion
Con tract
M ulti
Ġunt il
O O
COL OR
Ġle ast
æĢ §
ĠA uth
li ke
CHE CK
Ġne cess
atom ic
| .
Ġ il
Ġs ocket
oc ial
Ġse ems
Ġincl uding
âĶĢâĶĢ âĶĢâĶĢ
at ter
aw ait
T ip
N d
D rop
ul a
igh b
medi ate
Ð ±
ãĤ Į
J oin
sub ject
ÐµÐ½ Ð¸
åŀ ĭ
Not ification
æ ĥ
ĠV is
ĠCont ent
on d
RE CT
ĠA uthor
çł ģ
UT F
Ġ( [
p ayload
fo und
B Y
T erm
He aders
mut able
mun ic
sing le
D T
ĠG ET
éĿ ¢
Ġpro file
M ask
S ingle
Ġre pro
Ġd rop
**************************************************************** ********
D ay
cp u
serial ize
CO MM
Ġ}} </
de ploy
message s
ĠRes ource
Ġd u
"> \
æ ¬
ĠIO Exception
Ī ĺ
der r
m as
Ġcons ider
é ħ
Ġ' ../../
d st
de pth
è¯ ·
al ity
ced ure
l u
çĽ ®
Ġy et
c ut
AN CE
re ader
con struct
mp t
ĠO k
Valid ation
Ġ" ${
Ġst at
Com ment
vent ory
Ch art
ĠS upport
re pository
p id
i ally
Ġcorre spon
R UN
ĠIt em
Ġtest ing
]( ../
ri end
å Ł
ig r
En vironment
ul um
group s
UR I
M aterial
gn ore
v let
ĠW ork
åĲ Ī
Ġcomponent s
ook ie
Ġtime stamp
æ ²
In v
F D
Ù ħ
Ġc ar
è ¨
Menu Item
ĠD i
Ġcommand s
ce ed
Ġ Ñ
Ax is
if e
ĠIn c
S m
# [
cl one
ĠL ong
second s
inc ip
**** **
opt s
Ġuse ful
refer ences
Ġth ings
ãĥ ª
up dated
Ġc over
Ġ[ `
Ġlay out
æľ Ģ
TR UE
ĠS ource
ĠM em
un defined
Ġspec ify
s ch
å Ŀ
de mo
f un
Ġdo cker
RES ULT
Message s
pro vider
r and
r uby
Control s
ul ator
b asic
ac le
id ual
is Empty
Ġre ally
å° ±
è¿ Ľ
Ð¾ ÑĢ
gener ated
é ľ
ĠM ake
ĠP ost
è °
ĠC al
st mt
íķ ľ
åį ķ
ĠU N
Ġê °
te ction
Ġopt s
include s
ar ation
h over
lo ok
ĠI l
per son
M is
. ',
wik i
O per
T imer
ĠIn dex
ĠS to
Ġm ac
ach ment
re po
ud a
ĊĠĠĠĠĠĠĠĠĠĠĠĠ ĊĠĠĠĠĠĠĠĠĠĠĠ
In d
L A
ĠP oint
åº Ķ
R o
ast ic
Set up
Ġn umpy
st er
FI X
F UN
Ġdepend encies
H tml
Ġp ers
st ar
O wner
Ġc ert
h istory
FI ELD
[ -
s f
c ip
ĠÐ¿ ÑĢ
bu cket
g g
è ·
ser ve
; <
> '
Ġde scri
Ġ utf
valid ation
ar row
Render er
åı Ĥ
$ $
Ġsub mit
ĠG raph
================================ ================================
ĠW ith
Sh ould
Ġ' -
V ICE
ãĥ¼ ãĤ
S R
k ernel
AS SERT
ceiv er
Co unter
ĠRem ove
Ð¾Ð ´
ĠPro perty
]( ../../
ss l
¸ °
Sp an
W ait
Ġt x
Ġ$ ("#
) |
å ¥
------------ -
Ġrel ative
Ġlabel s
ãģ ª
" ].
S top
Ġtime s
ĠCon sole
Ġte am
P e
ãĥ ĥ
Ġper mission
u ce
in ates
ĠS w
) ?
b i
scal a
L ib
å¤ ļ
O rg
Ã¤ r
ĠTo ken
R IGHT
Ġm aster
N e
UE ST
Ġin side
Ġh o
Con verter
AT CH
d m
lip se
Ġst rict
Ġb ig
^^ ^^
; /
P rivate
fe ed
N ow
Ed ge
Ġf ig
The me
Gener ated
èĢ ħ
OR S
B atch
F ore
Ġpro gress
Ġc ome
T AG
Ġ ----------------------------------------------------------------
TR IB
T C
č ĊĠĠĠĠĠĠ
En ter
t m
Ġb el
ĠS ession
assert True
Ġb asic
App end
Ġopt im
} ",
trans action
g reen
Ġre moved
r ank
del ta
Ġ Ä
Ġwh o
Th row
Ġrem ote
: /
ĠG lobal
en abled
us ion
Pro p
X FF
e val
all en
Ġex tract
u uid
Ġp ixel
P lease
ĠB lock
SCR IP
ĠS pec
I X
f ast
high light
å ĵ
TR Y
] ->
Ġre ceived
IN ST
br anch
re ct
B ook
w atch
Ġl wjgl
at o
Ġ| =
= -
Ġex ternal
Ġt rigger
Ġc b
ĠG oogle
struction s
Ã ¥
M C
En able
åĲ Į
] *
comp any
e fficient
In formation
An imation
ĠSe lect
ĠS elf
è İ
Ġ' %
Ġ enter
Ġse quence
W I
Ġl atest
set Text
Y ear
ol ved
ĊĠĠĠĠĠĠĠĠĠĠĠĠĠĠĠĠĠĠĠĠĠĠĠĠĠĠĠĠĠĠĠĠ Ġ
() `
Ġcont aining
ch an
ul k
se m
æĹ ¥
pre t
il li
in u
Ġ Â
Âł Âł
te ch
Ð¸ ÑĤ
ĠL anguage
ong o
n c
D river
z y
Ġwrit ten
ation ship
Ġ" @
ap se
ĠO S
Ġwr ong
č ĊĠĠĠĠĠĠĠĠĠĠĠĠĠĠĠĠĠĠĠĠĠĠĠĠĠĠĠ
Ġ Query
N av
S yntax
S pr
pr agma
er c
ä» ¬
Ġm achine
] }
pro gress
Ġstep s
s imple
l ers
Ġb ad
i et
Ġallow ed
ĠS te
r x
Ġ{ },
O FF
date time
ĠDate Time
ifi ers
Al low
M ake
F ix
Ġf hir
Ġpub lish
ĠP art
Ġc or
M IT
ikari Config
Ġc v
rie ve
Ġle ss
g z
j query
get Value
Ġser vices
atal og
SU CCESS
st e
ĠApp lication
ĠM ain
åĪ Ĺ
se ss
DE LETE
Object s
Ġsim ilar
End point
B C
load ing
Ġh is
et c
Ġreg ion
ĠS tr
Task s
åĮ ĸ
]( /
Ġc ref
H istory
k g
or th
W orld
ad or
nav bar
cur s
Ġ] );
Ġinst alled
m ing
g dat
ĠD atabase
Ġex tra
av or
MO D
Con vert
alyt ics
P ub
Ġact ually
L ower
T x
R ot
Ã¼ tsch
ext ension
Id entity
å½ ĵ
Ġed ge
gu ide
Ġm s
č ĊĠĠĠĠĠĠĠĠĠĠĠĠĠ
Ġde sign
---- -
D OT
In sert
'. $
{ $
ĠInst all
å» º
ë ĵ
ĠB E
> {{
m ine
ĠAS SERT
at is
c lo
æ ¨
T ags
Ä Ļ
---- --
Con nect
RE C
let on
Ġ" +
ick s
S cal
H older
Ġy ield
Add r
h w
se ct
Ġh ome
iz able
Z one
P ower
tr l
red it
ou ch
Us age
MB ER
ud it
D iv
éħ į
File Name
ĠH i
ĠEx ec
at ile
Event Listener
li m
Ġgo ing
Ġh ard
Ġm b
ĠI MP
up y
ĠDe lete
pro c
C lear
Ġsecond s
Ġcase s
Ġs core
B A
Vol ume
Nd Ex
ĠĠĠĠĠĠĠĠĠĠĠĠĠĠĠĠ ĠĠĠĠĠĠĠ
ill a
é ĥ
t ensor
~~~~ ~~~~
H and
l and
Ġ ).
po inter
| --
{ },
Id x
ci pe
ĠS ie
Ġmon th
Comp at
g p
Null able
in herit
che me
å° Ĩ
åħ ³
ĉĉĉĉ ĉĉĉĉ
V O
c art
Ġb ottom
am ma
(' ./
aj ax
Ġh idden
li es
ĠE lement
P acket
ĠLo ad
an te
={ {
ĠPro cess
Point s
Ġar ound
ë ¦
z on
fl utter
Ð¾Ð ¼
ot lin
Pl atform
Ä Ľ
åľ °
m ulti
o res
ĠG MT
PO SE
Ø ±
fl at
Ġvalid ation
IO Exception
Ġw idget
TRIB UT
un e
po sed
if ies
j ar
s r
As set
Ġp od
Process or
var s
Ġ engine
Ġvol ume
ĠD A
Ġb us
Ġp lot
Ġ ###
Ġdis abled
AP P
éľ Ģ
Sh ort
Cre ated
l an
o h
unk nown
Re al
ÑĢ Ð°Ð
Ġ, "
FLAG S
Char acter
Ġp acket
F S
Ù Ĩ
Ġaction s
Ġus age
Ġpro vider
l as
çİ °
" ])
act ivity
Ġcre ating
h ow
[: ,
Ġbu ilt
HE AD
+ '
I MP
In s
Ġset s
! =
U ST
ys ical
A udio
N C
ĠS c
ly ph
ĠS k
nav ig
Ġ" ../
ile s
em bed
Ġ{ \
Å ¡
Ġs ig
Ġwh y
l r
un ded
Ġs uggest
am az
loc ale
ch or
ade s
Ġautomatic ally
ĊĊ ĊĠĠĠĠĠĠĠ
ĠCont roller
Ġt urn
h ref
Ġp ool
Ñ Ĩ
iv ed
d uration
cl s
ĠDo uble
Ġd ays
ĠB Y
Ġis instance
M esh
th at
> ()
un to
Ġinst ances
ä» £
èİ ·
\ '
orig in
T ABLE
e ax
he x
ĠCre ated
æĽ ´
é ĺ
T ri
B inary
N ING
c ategories
Ġlo s
er ies
Ġm ulti
ìĦ ľ
M ASK
w rit
ĠÐ ¼
quest ions
éĩ ı
æĮ ĩ
ver ify
Ð» Ð¸
M ES
Return s
Ġin c
Ġallow s
l v
m u
able s
dest roy
Ġs ymbol
UD ING
sc an
T T
< >();
< '
Ġd irection
Input Stream
Ġf eed
Ċĉĉ ĠĠĠ
ĠG NU
ĠA D
c ert
G O
Ġ ÑĤ
ar ing
comp ile
al i
ĠO UT
Re st
D irect
Ġend point
Ð½ Ñĭ
Ġ question
rem ote
Ġf ew
bin ary
r ules
id o
U CT
p ay
graph ics
( /
s ymbol
en k
Ġed itor
ĠRe gister
prec ated
w r
F ree
cur sor
Ġpro p
Ġr ules
h ere
bl ack
Ġco unter
é Ľ
Ġpe ople
ur ch
m ore
* ,
C ancel
Ġdirect ly
Ġb its
å §
d y
æł ĩ
P ixel
co untry
unt u
Ġm aterial
St rip
), (
Per mission
Ġversion s
UT O
Rout er
S core
Ġs ender
Ġon Click
list s
åĽ ¾
ĠCont ext
Ġe v
ĠG roup
gr pc
Ġc od
ì§ Ģ
UB LE
C enter
Ġas set
C apt
g on
Ġsign al
get Id
Ġf uture
Valid ator
ĠL ine
Ġs i
ag ger
Load ing
mo use
get String
y ml
Ac cept
requ ency
dis abled
ĠC ar
p ing
ãĥ Ĺ
\ ";
Ġle s
Ġproto col
an it
Ġre p
ĠEN D
Exec ute
Ġre place
Set ting
I p
ĠF ix
sample s
ĠLoc al
M achine
Ġmax imum
iss ue
v ue
Ġd ynamic
support ed
Ġe q
RE D
ĠArg ument
B asic
S UB
gener ator
s in
. """
re et
Action s
o verride
Ġstore d
A MP
ĠC os
Array List
p d
Ġd st
ĠFound ation
head ing
Sh ader
Ġsk ip
N ESS
L D
: \"
Ġa ut
I I
ê° Ģ
custom er
ĠGet s
Ġchar acters
Ch unk
go od
b rowser
C amera
co ok
ĠM IT
p f
h ook
y es
Ġc apt
ĠRout e
ĠUn it
Ġdate time
ĠLog ger
Ġj oin
ĠB ut
index Of
G EN
. ")
O perator
T S
dis patch
> =
check ed
bad ge
pro b
Ġne ver
Ġex act
; }
ĠS imple
Ĥ ¬
Ù Ī
ì ĭ
s heet
Ġì ł
UL AR
S hell
t b
OR K
Ġadd ing
IM IT
Di ct
loc ity
Ġp ower
Ġ" );
Ġrequire s
v ing
p in
me sh
K it
Ġsh ared
de sign
ĠE rr
Dis patch
I gnore
ĠF rame
g ov
D ynamic
ched uler
Ġ" [
âĢ ľ
ĠG e
ĠĠĠĠĠĠĠĠĠĠĠĠĠĠĠĠ ĠĠĠĠĠ
amaz on
ch unk
mit ive
éĥ ¨
Ġ qual
u ck
Ġg oto
de s
Ġ( -
id ad
c am
j et
stri p
p at
Inst all
U DE
Ġre main
F IL
c ircle
ä¾ ĭ
Ġ" ;
ulum i
pub lish
t imer
sh adow
Å ¼
_ );
Ġlo wer
DE X
M ov
}} </
s lide
an o
ateg or
EN V
d irect
UL E
ĠÃ ł
end l
ĠP o
ãģ ķ
av ailable
Ġp olicy
con cat
Test Case
---- ---
D to
vol ume
w a
/ #
ME MBER
Ġpro per
se cret
p riv
) ',
TR GL
u ent
Ġvar char
Ġty pename
Ġid entifier
Ã¼ r
om bre
B order
Row s
g mail
Ġd ue
key words
Res olver
L C
Ã¶ r
Ġe in
Ġcont act
UR CE
Serial izer
me tric
ĠEnt ity
x F
ÐµÐ ¼
AT OR
ant ic
u lo
ãģ ¦
æ Ħ
Ġw riter
de g
Cont ains
Ġl ang
a fe
MA GE
A W
Ġen sure
ĠU til
or a
Application Configuration
) +
Ċĉĉĉĉĉĉĉĉ ĉĉ
to Equal
Ġ" _
ART IC
t uple
è§ £
Ġf low
Ġdist ance
Ġhapp en
abil ities
S ite
sign al
one y
project s
Ä į
Ġcontent s
IL D
z h
åħ ¶
S ome
it ect
Ġ} ),
en ario
Ġstart ed
ëĭ Īëĭ¤
er ate
ĠR untime
Ġch unk
ant i
Rem ote
Sc ene
å° ı
Ġ[ {
key word
orig inal
k i
m ost
F OR
Ġs u
Ġpre v
Ġlink s
Ġ{ :
Re set
ic ate
Ġen coding
ĠV ar
G IN
F act
Group s
ap s
S plit
'=> '
par ator
ĠSec urity
Ġd ig
C ar
um an
Ġte ch
agnost ics
ex cept
red irect
qu ote
Bu f
F ALSE
S napshot
ĠC ore
Ġle arn
Ġun less
Error s
def er
d irection
pl ain
âĸĪ âĸĪ
Mon th
Ġa void
ĠE ng
Ġpart ial
Ġb ot
' "
ction s
å ģ
a udio
L in
Ġprovide s
b n
urn al
p ower
Comp lete
const expr
Ġoper ations
- (
Ġc lo
ĠCol lection
Ġal pha
Ġdis able
Ġinitial ize
b ig
th umb
Ġorig in
ST ART
uplic ate
ens ity
Ġfor ward
ä½ ł
Ġn g
se ed
def inition
co res
Ser vlet
trans late
Ġn av
Ġb in
Ġs imp
Ġ}} "
ang ing
Ġcall s
ĠAb stract
A IN
ĠX ML
L a
/ '
ĠA ss
ĠSer ial
ç» Ħ
Imp lement
A K
Ġm akes
ĠB utton
ĠU RI
pi pe
E P
âĢ Ķ
V AR
Cur sor
Ch ain
Ġs it
CL ASS
r ust
ĠSe arch
Ġo wner
Ġ. =
` ](
get Instance
S ide
o peration
Vis ual
Al loc
ĠS ign
Sh ared
Ġdistribut ion
Man y
ãģ Ł
ve y
a Ã§Ã£o
ist ence
step s
ĠGit Hub
plac ement
Ġvar iant
Ġc y
Ġme dia
ĠL IMIT
ĠF ALSE
. )
_ ->
drop down
Ġc a
"> {{
Element s
P M
Ext ensions
* -
Ġspec ial
Ph one
Ġpri mary
Ġd uration
ĠO ff
Ġlo w
ĠM ax
ãĥ ©
Sub mit
xffff ffff
ĠL IC
I Z
ab out
e ffect
ä¹ ĭ
B ig
$ .
Time stamp
ĠP re
Ġ? ?
Ġse g
ĠF ind
us ic
ĠV ec
p an
Ġb g
ĠM AX
N G
ag ic
trans lation
( []
Write Line
Se e
t rigger
log ging
app s
th ers
h d
ac cept
Down load
Ġd ialog
Lo op
CO UNT
Ġsc roll
ĠC urrent
h icle
ĠM ock
Ġlist ener
Ġsuccess fully
cont inue
Ġnecess ary
ĠM in
se quence
d ark
ut able
Ġs aved
sp ot
un wrap
', $
Ġnum bers
C UR
ĠS in
oot er
MA G
Ġdis patch
am age
ab ric
import ant
web kit
ĠRow Box
ct rl
p ow
Ġne g
py x
Ex ists
cre ase
IN IT
Ġwe ight
m ysql
åº ı
ç ³
ĠSt ream
l iteral
åĮ º
Ã µ
Ð ¹
Ġun a
for ward
å¦Ĥ æŀľ
size of
G it
p n
Ġpl an
DE CL
ool s
ĠM ER
li ct
Ġno thing
H igh
Ġn ative
Option al
======== ====
O k
In f
T X
oot strap
Ġm o
ç» ĵ
è ±
Ġch art
er ature
ĊĠĠĠĠĠĠĠĠĠĠĠĠĠĠĠĠĠĠĠĠĠĠĠĠĠĠĠĠĠĠĠĠĠĠĠĠĠĠĠĠĠĠĠĠĠĠĠĠ ĠĠĠĠĠĠĠ
inter val
in y
Ch at
Ã º
w riter
æĸ¹ æ³ķ
/* !
P ane
ãģ ĵ
ãĢĢ ãĢĢ
ĠC loud
A ut
L P
Ġd om
Ġre ct
We ight
Exec utor
ĠI m
Ġimplement ed
ĠB ack
ĠB it
ed u
Re p
IS ION
Ġan swer
ag raph
element s
U UID
Ġcomp ute
PAR AM
t v
Ġpackage s
cul ate
) `
F n
Ġstate ment
P ACK
;; ;;
Ġw on
up per
sc ene
ãĥ «
Ġ' _
Ġp or
CH ANT
e lem
ition s
ex tra
ĠLIC ENSE
Ġs ay
Ġb ook
Ġassert That
K EN
command s
Ġl arge
Ġup load
Ġg ive
tw itter
I l
Column s
de scribe
Ġh old
fig ure
Ġr c
cour se
Con sole
! /
Re q
åĪ ¶
ic ally
W IN
æ¨ ¡
Child ren
UR POSE
__ ,
k y
B D
ĠG o
" \
PI O
Ġunder stand
P G
Ġfor ce
IF T
Ġs ync
æĪ ĸ
N V
LI B
hel lo
ity Engine
Ġre ject
Ġimp ro
Ġas k
Ġpr ice
() ]
Ġse curity
Ġpro xy
ME TH
ench mark
Ġtry ing
use s
Ġag ent
s peed
Ġw ire
ex pression
n ama
FF ER
vid ers
link s
A E
Ġl at
ĠOr der
Ġ mp
r ift
Ġtr aining
Ġ ir
Ä ĩ
pe g
ĊĠĠĠĠĠĠĠĠĠĠĠĠĠĠĠĠĠĠĠĠĠĠĠĠ ĠĠĠĠĠĠ
ĠCh ar
ĠPro duct
x fe
Ġ} ).
the ad
Ġr ate
ĠĠĠĠĠĠĠĠĠĠĠĠĠĠĠĠ ĠĠĠĠĠĠ
ĠM O
Ġat temp
Ġh aving
De cimal
'] ))
Ġlo ss
Expect ed
ĠB l
md i
ĠM odule
L Y
lap ack
ç Ļ
Se gment
at an
V e
div idual
ind ices
IT NESS
Ġde pth
æı Ĳ
Ġdel ta
åŃ Ĳ
> ';
b um
get Message
L IN
A rr
RE E
ĠCol umn
ĠBu ffer
Ġvis it
er ation
fr ag
(( (
.* ;
Ġdoc s
es ome
G oogle
wh at
as m
Ġis n
ĠB UT
ĠP ARTIC
ress ion
[ {"
m ult
lear n
Ġload ing
Ġp ol
Ġm ath
f ocus
Ġ" ")
mob ile
)) ))
ak en
ĠJ S
Al ignment
CHANT ABILITY
t orch
Per iod
ĠP URPOSE
us s
av es
ĠB ig
éĩ į
L ook
g oto
ID TH
Ġf actory
sub scribe
com ing
ĠTh en
Ġw rapper
Ġre ceive
mis s
] =
Ġh ikariConfig
Ġbo ard
m x
F ac
Ġup dates
os er
Ġs n
ĠM ark
B ER
Ġlook s
dir name
hy per
´ ë
Å Ľ
Sign ature
os ite
code s
Ġ" )
RO OT
p ixel
Ġh er
Sec ret
ĠTR UE
sl ug
qu ent
à¦ ¾
ap is
Ġse lection
config ure
ĠTh read
Ġprob ably
D at
D om
V irtual
å½ ķ
Ġinput s
R GB
Ġde lay
Que st
Ċĉ ĠĠĠĠĠ
UR N
d anger
ĠCont rol
={ "
fa iled
Ñ Ī
g res
Ġro und
ĠE num
ss ue
rypt o
y e
ĠF ree
) -
ä½ į
Ġ Î
re marks
present ation
Ġfail ure
m id
') :
D iff
éĻ ¤
ig en
ĠG rid
le ms
çĶ¨ æĪ·
< !
` ;
s leep
Ġp atch
Ġpath s
de lay
in voke
Up load
( %
Ġc ost
ĠPARTIC ULAR
I A
ĠâĢ ľ
F ace
ä¿¡ æģ¯
Ġpage s
d ashboard
ĠPro p
ĠS P
> ";
c nt
ĠO ther
ic ular
xx xx
Ã ¨
AR D
lo ts
create Element
Ar ch
Ġget ting
x C
At om
Di ctionary
Ġperform ance
E MP
base d
èİ· åıĸ
Ġ! [
g if
AS H
back end
; "
new s
B ottom
ĠRe g
s hell
Ġman ager
G ui
Ali as
db c
en o
Ġin s
Ġu i
vis ible
Ġcl one
ĠERR OR
F ill
id entifier
Ġmodule s
T rigger
Ġinter val
example s
wh ich
Ġcol lect
ipp ing
P red
m al
check box
cd n
ì ľ
ĠRe f
al ias
me mbers
em it
_ )
Ġth ing
ĠSh ow
Ġ" --
Ð¾ ÑĤ
åĲ ¦
Ġper iod
s ym
re gex
REQ UEST
LI ED
To ols
comp ute
ct l
Pl an
n orm
æ ¡
T ensor
ĠMER CHANTABILITY
Com mit
Con structor
aj or
Sw itch
P ayload
tern et
Ġtoken s
Col lect
y per
Custom er
ç³ »
An notation
ìļ ©
graph y
% "
ĠL inux
Ġal ong
p ayment
var iant
ĠL ay
oc ation
Act iv
ê ²
k o
d w
Ġin form
Style s
ĠBu ilder
ĠCon st
En coding
Fail ure
br aries
al og
andid ate
P romise
ar ison
Ð½ Ð¾
ĠH andle
ur ther
ĠC OP
u v
ri b
Ð» Ñı
S chedule
act ual
Ġab solute
Ġend if
ist ing
He ad
v endor
Run ner
me trics
g ers
ĠA uto
-------- ---
end point
inte gr
an ded
@ @
Ġp anel
Ġany thing
è¿ Ķ
pp ed
x ref
me s
Ġm apping
ĠÐ ·
æ Ł¥
M ac
ait s
Ġmat ches
hav i
v anced
De legate
int o
... )
Ġexp licit
Ġrepro duce
L ATE
// !
g ht
as y
form ance
pl or
Ġit self
capt ion
ire s
dist ance
Ġth ree
ìĬ ¤
as i
ex e
ir t
An gle
f ol
ĠN e
av is
De pth
: {
co st
can vas
ĠRe quire
Cl asses
Ġ$ \
Ġb ro
Ġent ries
MS G
F atal
Z ero
Ġg reat
Content s
road cast
ĠBy te
F N
b t
ref s
Ã ½
rad io
Ġstart ing
Ġdest ination
} },
ĠO p
ĠTh at
éĢ ī
E VENT
Ġg rad
Ġd ot
Ġf i
ĠA pi
ãĤ ¢
å¾ Ĺ
Ċ ĊĠĠĠĠ
Ġ ):
åĽ ½
è± ¡
mb ed
Û Į
Work er
T ile
ist r
X Y
str ument
ĠIn valid
Ġgener al
input s
ĊĊĊĊ ĊĊĊĊ
n ail
content s
h ot
ĠG r
éľĢ è¦ģ
Ġconst ant
ĠPO ST
c urrency
ĠG u
Ġde termin
m r
* (
Str ategy
St andard
ĠDe bug
ĠL i
($ _
SER VER
ne g
it tle
P ush
Al ert
B tn
F ocus
re peat
Ã© s
ĠAnd roid
Sum mary
Ġbu cket
Ġsp an
ĠA M
ĠF ITNESS
and box
ĠĠ Ċĉ
Ġsepar ate
Ex it
Ġdo ing
å¹ ¶
Comp iler
å¹ ´
Ġf ast
ĠCOP Y
s ince
ĠU INT
script s
AR GET
æľ į
è° ĥ
ĠCon vert
set ting
Wh ere
Ġde leted
} '
Ġlog ic
A VE
se g
** *
af ka
G RO
string ify
Ġcheck ed
e ch
a is
O wn
:: $
Ġh istory
ist o
s yntax
ĠConfig uration
D P
channel s
g dx
AT ED
'] [
c ancel
m n
Ġword s
ie ce
C V
] ^
Ġf it
Ġf ails
ĠN etwork
ult ure
Auth entication
re ater
v g
x B
Ġ$ .
Ä± n
P HP
Component s
\ .
ĠA g
S elf
/ ?
ï ¿
ĠF loat
Ġuint ptr
åĬ Ł
S peed
ç ©
ä¸ »
b ine
Ġvis ual
SO URCE
ab c
Ġc ross
CM D
Ġ ut
Ġagain st
ref resh
Ġname d
y l
Ġsign ature
h old
æ¬ ¡
Ġ ul
Ġem bed
incip al
Wh at
Ãµ es
ê ¸°
re gistry
ff ers
Ġprocess ing
B ag
ĠThe se
ER N
Ġt w
Ċĉĉĉ Ċĉĉ
L iteral
Ġwe ek
Ġ uri
Del ay
map s
ÐµÐ ´
b at
Ġlo t
lay ers
Ġ> >>
Ġal gorithm
æľ º
ac er
col s
F ixed
__ )
post s
Ġm oment
Ġde velopment
Ġs peed
st derr
ĠR P
aw t
mon itor
on ce
ext end
order ed
I lluminate
ç ķ
Te am
decl are
function s
ĠĠĠĠĠĠĠĠĠĠĠĠĠĠĠĠ ĠĠĠĠĠĠĠĠ
Ġch ain
AC C
Ø§ Ø
Ġtr ace
De ploy
task s
is k
Ġcomp at
æĶ ¹
Ġcan cel
ces ses
ä¹ Ł
Ġtask s
Hash Map
åı ·
Sub ject
H ow
ĠAc cess
........ ........
F uture
éĹ ®
s ender
Ġper mit
Ġ íķ
TR AN
ä» ĸ
Ġin ner
t wo
bad logic
rg b
Ġqu ick
Ġexample s
ain ers
] {
vis it
Ġcall ing
Ġc he
h u
Hel lo
æ± Ĥ
ex tract
bu ilt
text ure
Ġv an
Bound s
MA KE
ĠF ilter
log s
Ġre cent
-------- -
Ġm aint
ord ing
pre d
Top ic
Ġfin ally
Tr y
]( ./
Ġp ick
argument s
Ġt ip
ĠA CTION
. |
EN CE
gener al
mploy ee
s op
M ESS
Argument Exception
Th ere
Ð¾Ð ³
opt im
P ython
å§ ĭ
At A
um ul
Ġp i
ag ram
è Ĭ
se lection
ec lipse
Ġtr a
ĠHash Map
Ġ ãĥ
ĠI ter
d ers
é¢ ĺ
de ep
p ic
Ġcomp ile
Serial ization
P ress
le y
ME M
de cor
ue l
t ile
S heet
ot es
ation Token
ĠTh row
Re c
Ġup per
C pp
æ Ļ
Ġs yntax
PO S
con current
Ġn n
Ġt s
ĠPar ameters
Ġgroup s
string s
ĠM et
Inst ances
Ġro om
NA MES
F eed
r pc
ĠM ar
g al
Ġframe work
line ar
web pack
t ty
Re view
b undle
P oly
a N
common s
ê³ ł
à¦ °
Ñ ī
æĹ¶ éĹ´
Ġ! !
æ³ ¨
å· ¥
j sp
n l
Ġf ire
Ġse ver
O ther
Ġse c
set State
Ex ternal
par k
P ipeline
gr ay
ca pe
b p
U X
m v
ou ght
ict ure
Ġf ine
token s
u ed
st udent
Rad ius
]) ^
Ġwh ite
V C
Ġp at
ud y
b as
at ory
P ers
Con s
çĽ ¸
Ġpart icular
enk ins
åħ ¨
PRE SS
mar shal
Ġp tr
Ġth ough
product s
å¸ ¸
B ad
Ġc ourse
igr ations
R oom
ement s
Ġë °
Ġb ir
condition s
ast e
Al ign
CL C
Stack Trace
Ġse gment
iv er
Ġfr ont
Bo ard
Ġf act
Ġcorrespon ding
Ġpar sed
ĠP ort
per iod
HO ME
* .
ï¿ ½
ser ies
re ply
Ġc fg
G P
Ġcom ments
w arn
Ġen ough
M AC
Ġdepend ency
BU FFER
ĠE VENT
CL I
çľ ĭ
ID E
Ġtop ic
Dist ance
mut ex
Ġm ouse
OB JECT
ĠIMP LIED
n x
g ui
Ġcorrect ly
m os
Author ization
N ONE
') }}
Class Name
m en
Ġcon tract
HO ST
W in
} ")
cl a
Ġp ot
// ----------------------------------------------------------------
path s
ĊĠĠĠĠĠĠĠĠĠĠĠĠĠĠĠĠĠĠĠĠĠĠĠĠĠĠĠĠĠĠĠĠ ĠĠĠĠĠ
Ġv s
äº ĭ
Ġt ensor
De v
I ZE
Ġchar set
amp ler
Lin q
Ġconfig ure
ĠLIMIT ED
ant ed
un der
] ).
Ġ' $
h ub
r w
Cont rollers
o i
é »
el come
ĠP HP
/ _
ion es
aa aa
åĮ ħ
ut down
)) {
Ġì ķ
Ġv m
In clude
res ize
Can vas
ge o
ĠO ne
Ġend l
UB LIC
Ġ? ></
æĪĳ ä»¬
S ame
Graph ics
Ġcon struct
c ision
age s
mark down
comp at
ĠDis play
Ġ ist
Ġd jango
Ġproject s
Ġz ip
Thread ing
)) :
() [
è®¾ ç½®
FA IL
Ġre comm
Mon itor
a ign
form s
mark er
co in
pol y
Ġconfig ur
id entity
ont o
č č
tool tip
æŃ ¤
RE T
Ġs z
let te
ĠV M
Comp leted
Ġ- *-
ĠP ower
Argument s
Ġk w
Ù Ĭ
RE SS
S rc
ĠF eature
Ġget s
ansp arent
ä½ ĵ
ĠR el
Ġp ipeline
Ġat om
cry ption
he el
INCL UDE
b old
ĠS end
Ġ ĊĠĠĠĠĠ
Trans fer
en ers
un ce
ill s
lev ant
Ġ# {
ward s
Ġ( ((
t ex
ç Ħ
Ġ ----------------
ad s
AR R
pri ate
block s
AD DR
Av ailable
D X
Des cribe
sched ule
ise d
Ġsort ed
Enumer able
Man agement
é ĥ½
TR ACT
t bl
Ġinclude s
p od
M ail
ul p
pro d
i en
IN VALID
Ġme trics
iv ely
not ations
æĺ İ
Ġjust ify
bre w
n el
b et
Data Source
Ġst ats
T wo
s With
Ðµ Ð»
ĠÐ ±
Ġc amera
* ^
Ġsh are
rid ge
M erge
Ġf il
Gener al
Ġc rate
r p
Ġgu ide
coll apse
de veloper
P ayment
Struct ure
ap on
el astic
er ing
fix ed
mo us
Ġcomp lex
ãģ¾ ãģĻ
Ġint ro
e ff
en coding
ymb ols
mine craft
Ġde al
#### #
ĠF rom
User name
art ifact
Instance Of
[ {
k ubernetes
Ġconf irm
greg ate
ë¦ ¬
all ery
M ed
ĠS ize
ĠPar se
const ant
sq rt
Ġm k
Ġun known
| (
Ġ Ċĉĉ
Ġc loud
ĠAl so
CO M
="../../ ../../
Ġcop ies
f old
d v
F etch
m achine
ado op
class Name
dist ribut
com ments
fr ac
br id
L ines
Ġto ols
Ã¡ s
F X
pre view
ony mous
u er
Ġse q
P ay
is p
Status Code
Ġa ff
C or
or ing
f ony
\ )</
æ °
è ¢
mo z
Ġvis ible
W ORK
Ġ` ${
Ġadd r
à¸ ²
h at
se gment
B F
Ġpart s
EN TRY
Se q
ad apter
IT H
é ķ
S printf
color s
Label s
å® ¹
Ġrot ate
ãĤ Ĭ
D TO
sub string
Event Args
Ġj o
Mar shal
Ġt akes
ix in
ap pro
sk top
In voke
sp aces
B its
in x
Ġm d
Format ter
m q
An im
sh ield
el li
ĠW H
Ġdim ension
CH AN
ĠEx t
Ġ utils
ĠHow ever
à ´
ĠCL ASS
Ġide a
A CTION
ĠCom mon
Ġn s
Ġread y
è¿Ķ åĽŀ
ĠAct ive
# !/
amp aign
UP DATE
Ġt imer
" ];
y our
Ġmay be
Int ent
EN C
Ġin itialized
čĊĉ čĊ
duc er
v k
[ ![
En coder
pack et
ãģĹãģ ¦
b est
hel pers
Ġan gle
A rc
Ġc losed
Ġtrans late
Output Stream
N I
ĠS DK
Ġs ynchron
Ġg ithub
S n
id a
s ame
//////////////////////////////// ////////////////////////////////
initial ize
h x
Ġact ivity
h ave
Ġeas y
Ġd t
Ġse m
us age
ì ĸ
per ience
M aster
ĠCH AR
p ick
æŃ £
or ry
B ACK
Re fer
ard s
: #
æ º
y t
ĠSto re
V A
S urface
ier arch
Ġal ias
Ġre c
ç® ¡
Sc an
Ċĉ ĠĠĠĠĠĠĠ
l ua
ĠF irst
lib s
Ġlog s
Ġsum mary
ĠC SS
\": \"
Ġt uple
In ject
Ġli k
> [
m ul
annot ations
è¯ ¥
Q ual
y out
Ġ ])
ain ed
e poch
ri er
Ġ( );
Ġhigh light
é ļ
s ur
et ing
Ġrequest ed
Ġmod ified
ìĿ Ģ
cent age
ĠVis ual
ĠWIT H
M o
_ [
Ġf ace
é Ĥ
conf irm
DO M
Ġtri ed
not ification
lo ur
yp ed
Sub scription
ĠDO UBLE
crypt o
ĠC or
Res p
Ġdecl are
è® ¡
ma zon
P in
Ġcomp are
H AND
ener gy
; \
Ġtrans fer
Det alle
è¾ ĵ
loc file
å¾ ®
Are Equal
ĊĊ ĊĠ
Ġê ²
ĠâĢ ĵ
temp lates
P K
Ġt ell
pre vious
' },
not es
| ;
Ġw in
ì ķ
query Selector
Method s
M ore
xffff ff
LO B
S PE
gorith ms
ĠA DD
G uid
Des ign
Ċ Ċĉĉĉĉ
åıĤ æķ°
l b
ĊĠĠĠĠĠĠ ĊĠĠĠĠĠ
Ġfunction ality
ĠÄ ĳ
Ġcol ab
æľį åĬ¡
W T
ĠRout er
qu ip
ĠProp Types
ĠN AME
Ġimport ant
b ank
F ER
D ao
è® ¤
end region
con tract
red uce
Ġp ack
ĠF ont
ä¸ İ
T uple
Ġtext ure
æ ¸
Ġint ent
Ġlong er
arch ive
Ġ' {
exp and
": [
mat ches
ĠN E
o th
ot or
side bar
j ax
user Id
a led
ph i
é ĸ
Ġv i
TE GER
cur r
C ast
f w
Ġe ar
Ð ³
itect ure
vent ion
Ð¾Ð ±
allen ge
ç» Ł
sh all
ĠIl legal
View Model
ĠInitial ize
ĠT ry
å ¢
æ ¶
VID ED
br a
ĠTH IS
Ġ__ _
ç ĥ
Ġk nown
change d
{ })
ar er
Ġsc an
ç¬ ¬
Co efficient
-> {
ãģ ĭ
çŃ ī
Ġh it
åĪ Ļ
vis ual
Ġcomp iler
åı £
Ġ ĊĠĠĠĠĠĠĠĠĠĠĠĠĠĠĠ
ĠAdd ress
enc ed
åŃ ¦
Ġdis cus
il ation
Com bo
Ġevery thing
Bl ue
w all
ph oto
P ACE
ĠCOPY RIGHT
N EXT
c amera
ong s
------------ --
Ġme mbers
ac ed
Bu cket
ca de
select or
P ack
P resent
cl us
ĠLI ABILITY
F e
Orig in
d ynamic
Ġcl s
Con straint
ĠSet s
AR K
A utom
up s
S ound
Ġm aking
Ġf ar
Check ed
Pri mary
Ã¡ n
Second s
St ar
Ġa udio
t ot
T M
l c
z u
Hel p
s aved
Up dated
ĠB U
B ot
ĠAc count
A UTH
H ave
Ġbuild ing
cr umb
s lot
ĠT op
ĠS chema
ĠSh ould
Ġ" ^
ĠA WS
ons ive
Di agnostics
æĥ ħ
v b
W M
">\ (
TO KEN
BO OL
i NdEx
Ð°Ð º
ĠIN CL
ref lect
Ġblock s
de p
p ip
T er
L at
t or
I ME
Ġo u
e valu
F ROM
Ġ ĊĠĠ
O RE
Over flow
Q t
m g
Ġs hell
B in
Ġdid n
/ ">
ĠJ ust
t ax
Ass ign
ĠN ow
ext ensions
ĠRe port
ä¿ Ŀ
t ion
Mis sing
Ġcan vas
Ø§ ÙĦ
P icker
s uite
ĠAd ded
åı ª
ient s
Ø ¯
Ġtrans ition
ĠCont ainer
Ref resh
G TH
Ġc d
SD K
c lock
Ġc s
Ġl as
ip her
= ${
Ġmerge d
Ġj upy
D one
Re act
Ã§ Ãµes
N D
ĊĠĠĠĠĠĠĠĠĠĠĠĠĠĠĠĠĠĠĠĠĠĠĠĠĠĠĠĠĠĠĠĠ ĠĠ
ir a
Ex tra
å· ²
i pt
ĠS ty
Con sumer
' +
LO AT
Ġ" >
f loor
åĪ Ľ
ĠA rt
Ġse ed
ĠD ec
Ġ article
ĠPro to
ĠAd min
ce eded
ĠT ag
navig ation
ar a
æ ĵ
Ob server
ER S
Ġappro priate
Ċĉĉ Ġ
st andard
or ary
File Path
Me tric
Ġ' ')
Ġde p
pe ated
ĠDe vice
ĠD own
method s
ĠP ri
åı ĺ
ent ries
scri ptions
we et
æĢ ģ
R ules
Ġy es
Ġauth entication
N avigation
anc ell
> /
F amily
Ġback end
value Of
!! !!
/ ${
imp lement
] ",
Ġv o
F actor
Ġcalcul ate
! ("
å ķ
E st
Ġch oose
ç½ ĳ
Ġread ing
Ġs pr
ĠEx pect
= /
NO DE
ĠP REC
ĉĉĉĉ ĉ
Ġselect or
Con straints
so ck
Pl ace
B T
r ase
ill ing
Del ta
ivers ity
In tegr
** ,
IN DEX
ĠPr int
Ġc li
Ġnot ification
Valid ate
per mission
ĠO K
ĠImp ort
Ġd r
Ġp our
Ġc p
ĠM aybe
ĠJ ob
Ġp a
And roid
USE D
Ġan alysis
cl c
filter s
Ġrecord s
b ro
Ġf oo
Ġmatch ing
Ð¸ Ð¼
pre vent
Ġro uter
ãģĹãģ ¾
ent e
or ph
Ġp t
ab e
Ġr s
eb ook
Ġw x
Ġnp m
Ġvert ex
iz ers
led ge
å¤ Ħ
z n
Ġin f
č ĊĠĠĠĠĠĠĠĠĠĠĠĠĠĠĠĠĠĠĠĠĠĠĠĠĠĠĠĠĠĠĠ
ç¬ ¦
en vironment
fl ash
CON ST
Ċĉĉĉĉĉĉĉĉ ĉĉĉ
g c
Ġde vices
ç±» åŀĭ
Ġp x
ent ities
>< ?
". "
p ipeline
à¯ į
ard ing
Ġap pear
pri se
CM ake
++ ){
Ġl ambda
Ġan imation
Ġth anks
Ġsub st
refer red
Re ply
æĺ¯ åĲ¦
ĠB asic
Ġter min
w x
Ġapplic ations
ãĥ Ń
pre pare
Ġacc ording
V R
U Int
Ġg oogle
trans ition
è £
Ser ies
O C
P ut
ĠSt andard
depend ency
Ġ/ ></
st age
Ġf ocus
name d
ĠN ull
Ġr ather
term ine
P ag
ĠL abel
ĠOn ly
è¢ «
N il
á ĥ
ĠS Y
AR CH
ill is
g ot
Ġ Ñĥ
ĠS im
On ce
ĠP layer
- %
Ġmon itor
ĠCre ates
FORM AT
ĠPREC ISION
pos itor
Ġ* ,
ĠD ist
comp ose
ic ial
vert ex
å ł
! ");
SE SS
Ġse cret
ĠS TR
UT E
ĠĠĠĠĠĠĠĠĠĠĠĠĠĠĠĠ ĠĠĠĠĠĠĠĠĠĠĠ
RO W
: ",
read crumb
ĠMat rix
fl ush
Ġr hs
ss ible
ir ror
ĠT otal
Ġr g
olic ies
is o
é «
| )
man agement
Ġhel per
Ð° Ð»
Ġc ent
Re po
Ġen code
u ge
Ġì Īĺ
ĠWARRAN TY
Ġmin imum
ë ı
p icker
å¯¹ è±¡
ĠTrans ition
le me
qu is
Ġc are
serv ation
ORD ER
C N
ĠCOL OR
EN ABLE
not ify
ĠU TF
Ġdet ail
pre dict
[ (
E VL
val s
ct r
ĠO P
std out
MAG ES
add EventListener
lar ge
ĠT ree
ILE D
Ġs leep
F ire
èĢ Į
Ġcheck s
+ =
Ġ čĊ
t cp
C ost
n able
b oost
ind ent
Bit map
tre nd
s yn
F ACE
munic ation
cept or
View ById
č Ċĉĉĉĉĉĉ
m apping
Re place
Cal endar
ĠSt udio
h ouse
éĩ Į
Ġassert True
OL D
Data set
ĠP M
ãģķ ãĤĮ
Ġ' </
ĠDE BUG
Ġin structions
render er
Cal led
lo s
ss h
and as
IN CRE
Ġum a
ise s
æ² ¡
f actor
à¸² à¸
Dest roy
Ġme asure
ĠV L
Ð¾Ð ¹
Ġre gist
W atch
en ant
iz ations
Line ar
C G
emp loy
# {
ge ther
O VER
Ġval ign
C art
gress ion
Ġì Ĥ¬
con structor
print StackTrace
ç Ĭ
frame s
am ing
Ġcomp leted
ab stract
Ġcert ain
ĠR ender
ĠX XX
x mm
m icro
(' \
ari os
é¡ µ
x l
ĠÐ½ Ð°
scri ber
ĠD I
Ġent ire
ĠC AST
SH A
process ing
list ener
Ġpre vent
k u
= $(
l wjgl
ex press
________ ________
Ġre ply
ly ing
Col l
d ating
ab ab
æĦ ı
%%%%%%%% %%%%%%%%
Loc ale
Ġbind ing
ach ing
æ ®
E OF
Ġ[ !
Ġdi ctionary
ĊĠĠĠĠĠĠĠĠĠĠĠĠĠĠĠĠĠĠĠĠĠĠĠĠĠĠĠĠĠĠĠĠ ĠĠĠĠ
Ġconn ected
ĠCon nection
'=> $
Ġ< >
C trl
n r
Ġ ãĤ
Ġb as
=" ${
Ġser ies
> ("
y a
ARR AY
Ð°Ð½ Ð¸
ĠM ac
S lot
lic a
BU ILD
q a
ĠRe ference
ic ht
Ġ{ $
for ge
Ù ĩ
Ġd as
ĠR andom
) $
/ :
x be
Me trics
R PC
Serial ize
ç® Ĺ
de b
ol id
ip s
c url
l on
app le
Run ning
U sing
ox y
D rag
Ge ometry
Ġdis k
er ved
TO P
æĹ ł
duc ed
^ {
Ġst udent
Ġme sh
ĠH ome
Ø ª
Ġ ------------------------------------------------
havi our
F P
[ [
Ġem it
cook ie
rel ative
is ation
ĠD ocker
if ec
f ake
ĠH ere
Ġver bose
ĠCO MM
al o
METH OD
F B
] ="
Ġapp lied
C ertificate
è¯ ´
ä¹ Ī
R ST
Ġd w
Ġpri or
Feature s
Ġbe come
al ent
"] ["
red is
Ġì Ĺ
led ger
version s
åħ ĥ
æĶ ¯
SESS ION
Ġp in
ĠF ire
Ġsupport s
LEN GTH
sign ature
Ġl ittle
lect ron
MESS AGE
at ur
Change s
Ġweb site
x D
Ġconfig ured
variable s
as c
Ġy y
Ġpub lished
weight s
æĮ ģ
Ð ¶
Ġcre ates
Ġl l
be ans
" {
éħį ç½®
IC ATION
ĠD ATA
'' '
) **
Id ent
St age
To ggle
In struction
Ġj e
text area
NE CTION
> ",
Ġ" __
k otlin
Image s
od b
ĠU sing
P A
Ġle arning
CE PT
B rowser
an imation
Ġcol ors
tr ansport
ç ¡
c uda
en n
Ġt ile
ĠC ount
y ou
el low
NAMES PACE
ï¼ Ł
Ġal tern
Ġex periment
W A
Ġf Ã¼r
A IL
ĠRE AD
SCRIP TION
C ert
Ġcomp let
r st
ER O
String s
u j
í Ĭ
Ġsh a
urre d
Ġsimp ly
SH IFT
Ġsc ene
over flow
Ġt re
ie ve
OL DER
Ġv on
str cpy
M R
E B
Ġ[ -
Path s
Ġf ac
Mem bers
="../../ ../
IM ARY
ifec ycle
ĠJava Script
Ġ ))
L AY
un its
Ġp s
Ġ$ $
" /
de scriptor
ĠEx p
f uture
Ġre gex
Ġid s
ç© º
(" [
pend ing
Depend ency
ht m
DI RECT
\", \"
T y
X R
velo pers
f ac
depend ent
Pub lish
T ARGET
ĠC I
ä» İ
d ll
Ġf urther
ĠR et
u ro
u pt
Found ation
P ASS
n v
in ator
ĠD im
Time s
Ġlook ing
Ġcustom er
request s
s quare
get Class
av atar
Ġa pt
V EL
cy cl
DE P
ĠString Builder
ĠP ackage
/ %
D Y
Ġd type
C r
Ġc ss
å¿ ħ
çº ¿
ro les
Ġ` <
sl ider
S K
par a
- .
face book
Ġ_ .
ĠA fter
SE D
part ment
, %
Ð¾ Ð½
í Ħ
st ock
V k
ë §
li ve
Ġg reen
p w
it a
è ¶
Ġref resh
éĽ Ĩ
p lier
æł ¼
() }
D ig
é ª
part y
An alysis
J o
Th anks
ĠPro perties
dest ination
Ġgener ator
f ort
C ould
ĠB O
äº Ľ
Ġw atch
="# ">
P ol
é¡ ¹
P IN
Ġb oost
VS OP
w ar
S G
/ $
ë ©
Ġc lock
Ġad v
qu ant
collection s
Command s
start ed
ä» »
x A
no logy
ä¹ ī
æ ·
const ants
Ġpart ition
GRO UP
ament o
ĠSt ack
F inal
ail y
P atch
mis sing
pri ority
XX X
ä¿ ®
Ġp ad
L AB
f u
Ġrun s
t ail
Access or
[ ])
` );
a ur
æľ Ł
Ġ` /
ãģ į
Ġsample s
c u
ĠRe cord
Ġw rap
ĠM B
ĠH as
Ġn orm
Ġprob lems
L et
Ġex pr
Ġm t
Ġs in
By Name
Ġ/ ><
èĬ Ĥ
St ub
az z
__ .
Ġp riv
enc ia
ĠM edia
cr ate
ĠSt orage
H ook
ING S
ç« ¯
i ro
n ed
av sop
Ġshow s
im ated
ĠA UTO
re verse
row se
ient ation
Ġph one
æ ´
ĠS m
ig o
Im g
, \
FUN CTION
Ġde code
Ġwh ole
Ġho pe
ĠO ver
Ġc out
Ġs lot
state ment
Mod ified
é« ĺ
ë ł
In dic
frag ment
he alth
MOD ULE
PRE FIX
id ade
el s
s udo
Ġa avsop
stri ction
D AT
PO INT
part ial
Ġde scriptor
qu ation
U int
curs ive
ĠVar iable
S IGN
ĠC ell
g pu
work flow
ĠS ave
Ġo l
Ġx s
Up per
å® ī
zer os
s un
re v
Dim ension
Ġsa id
valid ator
pro jection
è· ¯
Sh arp
work er
n Ã©
Event Handler
w eek
RO P
Data Type
uff le
åį ļ
Ġ" ../../
ost ream
Ġf d
LE MENT
ys ics
So ftware
Ap ply
ub untu
) '
prevent Default
ri ent
Ġì Ħ
Ġsh all
k n
ĠG en
Ġ& #
P a
Ġb undle
Ent ries
è ī
Ĥ ¨
ch r
ĠPro gram
anch or
Ġde termine
b al
ĠSet tings
âķĲâķĲ âķĲâķĲ
Ñģ Ñı
CT YPE
Quest ion
k l
T ex
ĊĠĠĠĠĠĠĠĠĠĠĠĠĠĠĠĠĠĠĠĠĠĠĠĠĠĠĠĠĠĠĠĠĠĠĠĠĠĠĠĠĠĠĠĠĠĠĠĠ ĠĠĠĠĠĠĠĠĠĠĠ
åĽ ł
urch ase
Ġhand ling
Ġs ound
ĠIN FO
Ġc ast
ĠRed ist
Conn ector
NotFound Exception
Conf irm
un icode
CP U
ë Ĳ
Pro b
ç§ į
Ġimp l
gener ic
ç ¾
as ing
Vis ibility
ĠThrow able
Ġp res
ĠC ategory
lic ations
os en
} _
ĠAt tribute
Ġpri ority
att ach
Ġhe x
åĩ ½
Initial ize
è¿Ľ è¡Į
ĠC R
à§ į
t utorial
Ġe val
e th
="# "
C tx
ext ends
var i
Ġover flow
ipp ed
ĠB ox
ic i
Ċĉ ĠĠĠĠ
Array s
medi um
l st
åĨ Ļ
it ation
ust ers
ãĤ ī
Ġcur r
bind ing
d AtA
PRO TO
ĠINCL UDING
ĠS C
Ġun its
shield s
anc er
PL AY
c x
positor ies
ĠM enu
Tr ansport
on o
ĊĠĠĠĠĠĠĠĠĠĠĠĠĠĠĠĠĠĠĠĠĠĠĠĠĠĠĠĠĠĠĠĠ ĠĠĠĠĠĠ
W rap
Lower Case
Ġvar i
ans wer
pi ct
i h
N ON
serv let
n u
ĠUn ityEngine
Ġm it
[ ],
ac on
Ġass ume
sh arp
agnost ic
Ġ questions
ĠT ool
Ġst age
Ġa st
Ġme tric
Ġstyle s
Ġpro cedure
ĠE mail
D ot
ar b
Ġ( %
AC H
Ġmark er
B I
part s
Ġiter ator
He alth
De cor
c er
S em
íĬ ¸
K ernel
iv o
< =
åĪĽ å»º
az ione
Ġsh own
Ì ģ
ET HER
A U
} ',
null able
ĠDA MAGES
add Class
Ġs s
Ġproduct s
Sh adow
å® Į
all back
: ]
ĠT arget
Ġme di
ĠRe set
h ard
Ġsa fe
L ER
ag r
Ġcre ation
ĠĠ ĊĠĠĠ
Ġst ates
Ex tract
= &
so und
ĠC LI
Ġdefault s
ĠPRO VIDED
ĠEng ine
av g
process or
Ġst roke
Non Null
Ġappro ach
SS L
Ġdest roy
Ġline ar
ers hip
Ap pro
Ġth reshold
ĊĠĠĠĠĠĠĠĠ ĊĠĠĠ
ĠĠĠĠĠĠĠĠĠĠĠĠĠĠĠĠ ĠĠĠĠĠĠĠĠĠ
Ġbl ue
Ġre levant
conn ected
Ġin dividual
ĠValue Error
ĠImp lement
v t
Br anch
n an
E q
spec ial
Ġs chedule
rit ical
ĠY es
plot lib
fo x
C redentials
t ur
Ġscript s
E mit
Ġoutput s
íķ ´
Tool Strip
çĬ ¶
Ġchar ge
Fr ont
Doc s
Ġtest ed
TE MP
Ðº Ð°
i am
ing er
ge ometry
An chor
Click Listener
look up
ĠF ixed
W rit
num eric
pos al
w i
Ġd ump
L ONG
Ġrequire ments
à ¥
++++ ++++
isto gram
pe ech
Ġmin utes
Look up
ann ing
Table s
ik i
Ġgener ic
ÑĨ Ð¸
CONT RO
STR UCT
In line
BU F
å¼ ķ
į ä½ľ
æľ Ī
Ġsuccess ful
æº Ĳ
Ġm ult
ap sed
Ġwork flow
> ',
ãģĹãģ¾ ãģĻ
Ġre verse
Ġres pect
OFF SET
åŁ º
Ġac ross
ĠU P
ĠIn it
vert ical
Ã ´
Variable s
Ġa z
HP P
éĢļ è¿ĩ
ç¼ ĸ
ĠI con
R S
t od
Ġnot es
mk dir
ç®¡ çĲĨ
Ġa ws
ĠA V
ĠD raw
i q
Ġd s
back up
| [
| -
ĠSH ALL
t z
C he
char acter
ä¸Ń çļĦ
Un ique
ĠEX PRESS
Ġpre tty
IN F
Ġind ices
Ġr m
Y our
é Ĵ
pre ter
(' ../
comp iler
IS ING
sp ark
æł ·
Un expected
Ġsever al
åĩ½ æķ°
S cheme
A sp
çĦ ¶
E O
Sh ift
ĠW ord
non atomic
h adoop
Ġp oly
Text Field
è¯ ķ
Ċ ĊĠĠĠĠĠĠĠĠĠĠĠĠĠĠĠĠĠĠĠĠĠĠĠĠĠĠĠ
ĠC PU
Ġinter est
ĠC N
en a
User Id
ouse l
è¿Ļ ä¸ª
Ġref lect
H ex
Ġde velop
? )
READ ME
Ġc url
ãģ Ĩ
è ģ
ÃŃ t
ic ult
v r
append Child
çĥ Ń
R ound
F ilename
de li
* >(
ar c
Ġcon cept
ĠV AR
Ġde cimal
ĠSE LECT
ap es
oo th
Equal To
Json Property
ĠL et
Ġplugin s
(" @
n h
' \
if fer
err y
S UP
dot net
RT X
cal c
Helper s
IE W
he t
spec ific
spon d
T w
ĠHe ader
äº Į
document ation
inner HTML
get Type
Ġproper ly
čĊč ĊĠĠĠĠĠĠĠĠĠĠĠĠĠĠĠ
ach er
ĠForm at
IST S
ä¼ ł
ab or
") :
in ject
Ġc ertificate
oc ab
Ġp b
ĠS cript
Ġ: )
h al
Ġman ually
b gn
Ġf ragment
S lice
ĠEx pression
Ġrepresent ation
aly zer
ç» ı
è½ ¬
Ġvar ious
ul let
out h
dis k
F LOAT
Ġignore d
Ġdescri bed
c gi
Ġj est
Ġkw args
Print ln
Ġm icro
U A
ĠS ER
ug ht
B alance
Ġe lem
ĠCON TRACT
plor er
sp acing
ip pet
umul ative
Ġa uf
Ġh im
s al
B LOCK
Support ed
k top
sc r
Pri ority
im ing
ro py
Ġp romise
LE D
job s
Base d
run ning
Sh are
place holder
Request s
n umpy
Ġtype def
Ġle g
run ner
Ġuse State
è ª
Ġtable s
CMake Files
P adding
B al
g ree
B IN
ĠB r
bind ir
at ial
y r
Ġimp licit
re ason
Ġt cp
pe er
b an
n op
(" -
anc y
c lip
Ġpe er
ĠD IS
it ution
Ġf actor
Ġwork er
Decl aration
Ġ; ;
to s
>< !--
ãĥ Ĩ
åĲ ĳ
e ep
(" <
Ġlist s
em y
uc er
ĠF in
ĠE l
m aven
Ġw er
WI SE
MA IN
æ¶ Ī
(' <
Ex periment
gr ams
Ġp ay
ord ers
ĠLI ABLE
K S
Ġm ention
I MAGE
W D
ĠD river
Ġ` .
? ?
ĠS U
:: ::
T ick
b alance
th reshold
Ġ çļĦ
ÐµÐ º
C lip
B lob
attr s
Ġch o
ĠIn formation
count s
s il
vers ation
Q UE
node js
sw ap
Ġregister ed
Ġ| >
Is Null
g ateway
Ġ* **
ĠC ache
Ð°Ð ²
Ġrad ius
INCRE MENT
t odo
Ġs napshot
ĠC ard
Ġ$ ('.
h h
âĢ ¦
WAR NING
T K
ĠH OLDER
fol io
ĠDi ctionary
ob ot
Ġs yn
B reak
Ġ* =
Ġ[ (
ĠĠĠĠĠĠĠĠĠĠĠĠĠĠĠĠ ĠĠĠĠĠĠĠĠĠĠ
Ġ( \
V RTX
ex clude
DO WN
Ġm en
file Name
Al gorithm
m ag
DE V
ĠS ch
S ender
Re ason
mod ified
Act or
Ã¤r nd
ribut ions
Ã¤rnd Ã¼tsch
thread s
ĠArg s
u an
T ouch
NUM BER
vol ution
× Ļ
ĠWH ETHER
ens itive
å® ĥ
æ¯ Ķ
S ent
Ġcom o
fl uid
ĠM ulti
Ġcom bin
Ġt xt
Ġadd s
Ġr and
ĠAR ISING
Ġi Ã§
P od
æī §
Rot ation
Y W
ĠUs age
Ġandroid x
AL TER
tab s
è½ ½
k in
For ce
E valu
xx x
to LowerCase
> ]
c ross
K HR
Ent ities
st one
DO CTYPE
exec ution
Ġc at
å¤ ĸ
G F
ke ep
Gener ate
br and
M argin
ER T
CP P
im a
m iddle
Ġcomp any
rel ated
default s
crypt ed
Ġintegr ation
Ġcoord inates
M ON
RE NT
st ub
cre te
ĠOb servable
Ġ}} ">
qu o
Ġind ent
r um
Set s
OP TION
ver bose
ro bot
ĠE L
Vis itor
m ong
ĠS UB
J s
Ġ} ));
o logy
Ġn avigation
DE VICE
all s
Ġuser Id
cal endar
ìľ ¼
ëĵ ľ
Ġ) {
mac ro
Ġs us
Ġfor ms
Z X
ãĥ ķ
Ġì ĭ
ol ang
amp ling
b x
f name
ĠC A
Ġm er
Ġorg an
Aut ow
O ld
j peg
U sed
Ġdif ference
Back end
cycl er
Ġp ag
ynchron ous
Ġs ense
cache d
Ver ify
čĊĉĉ čĊĉ
ĠEn vironment
W IDTH
la unch
g d
m f
ĊĠĠĠĠ ĉ
Ġf printf
get Logger
G UI
Copy right
Ġfilter s
j ack
b en
Ġìŀ Ī
un iform
qu ick
M IS
} ]
/ ",
Ġst uff
Ġle an
Read y
æŀ Ħ
è¯ ģ
Ġd ans
t el
} $
se ll
S CO
ĠD at
åĳ ½
Ġh ide
ĠY our
Ġreg ular
Ġre mov
íĦ °
ĠD irectory
ĠEd it
ĊĠĠĠĠĠĠĠĠ ĉ
W r
-- ;
Ġcod ing
"> (
st ates
Comp are
vol atile
Ġpred ict
icip ant
å¥ ½
d yn
Me asure
Pre view
ĠìĿ ´
Ġid entity
Ġ[ #
get Text
gn u
l azy
h orizontal
ĊĠĠĠĠĠĠĠĠĠĠĠĠĠĠĠĠĠĠĠĠĠĠĠĠĠĠĠĠĠĠĠĠ ĠĠĠĠĠĠĠĠĠ
Ge o
G G
ĠLoc ation
Ġc e
ed List
å¤ į
": {"
Ġc c
k an
Ġex plo
æīĢ æľī
åİ Ł
spot ify
A WS
Ġon Change
Ġrefer ences
ĠTe ch
j enkins
arg o
Scal ar
Ġl iteral
ĠLog in
N eg
Lo aded
M AN
Ã ±
Ä ģ
ore m
Ġrg ba
entic ated
ighb or
h m
čĊĠĠĠĠ čĊĠĠĠ
åİ ¿
Ġrepresent s
EX PORT
trans fer
iv ing
Ġcomp uter
ç§ °
Color s
çī ¹
] ));
Th reshold
s ocial
Ġc redentials
Ġp rom
å¤ ±
ĠL a
R atio
Sup press
ĠOTHER WISE
Th en
Ġ" :
St d
c losed
Asp Net
Ð¾Ð º
l bl
TEXT URE
Ġ* (
Ġvert ical
Ð¾Ð» ÑĮ
. (
} :
Ġad apter
Ġ" {
Ġ' +
Ðº Ð¸
ĠQ t
ĠMan ager
Ġenum erate
ent s
tr aining
CT RL
Ġde li
P ending
ĠM ay
æī§ è¡Į
a C
Ġc os
Ġstyle d
Ġo thers
çī Ī
V oid
gu ard
Ġs uc
Ġterm inal
ĠS um
:: {
release s
æĵ įä½ľ
Error Code
tr as
ĠAs ync
t ick
Part ition
LE VEL
ãĤ ·
Ġph p
ĠD el
ìŀ Ĳ
v p
iz z
sub scription
Ġsystem s
Ġto ggle
ul ated
Con v
ãģ Ĥ
ãĥ §
ra structure
r int
do e
id i
PRO PER
ĠM ode
ãĤ Ī
Ġup grade
L IL
Ġto gether
the ta
--- |
C ookie
f ollow
ĠA UTH
ĠF r
ĠT ORT
Sign al
Ġg reater
co d
ãĤ °
pers istence
LE FT
TO DO
åħ ¬
Ġexec uted
Ġco untry
Page s
cat alog
o auth
Ġp ip
Ġwait ing
åº ĵ
Ġsub scription
Query Parser
j avax
Ġ" ");
C lean
sp i
MB OL
ip edia
R F
man ifest
Autow ired
set Attribute
( ",
Ġb i
Ġz one
ĠStr uct
Spr ite
Ġc irc
] ):
n f
Ġmod al
E lem
ur acy
s napshot
Ġse ll
čĊč Ċĉĉ
port al
ut ine
b ined
Ġ@ @
ĠAl low
En code
ail ability
Ð½ Ð°
y c
n om
IT ER
ĠT HEN
Ġcache d
FA ILED
U i
p ace
Ġd Ã©
ĠSet up
/ @
ĠN um
at map
Ass oci
cl k
re w
PRO C
Ġon click
"} ],
B OT
Var iant
ten ded
view port
S ys
Trans ition
ĠD WORD
w g
in ct
ĠTemp late
G ateway
IN PUT
"> [
D M
OUT PUT
== '
G rad
çĶ ±
Ġret rieve
Ġdes ired
Ġs ources
ex periment
Re gex
à¸ Ļ
control s
] \
Test ing
St udent
Ġ ÑĢ
Ġa verage
Ġde mo
ĠN et
,, ,,
Ġpixel s
[ ];
ĠP AR
Print f
u ation
inter pret
ë ³
Ġm ail
HEAD ER
Ġfe el
ìĸ ´
+ -
Ġm ount
LE S
en ing
CT L
As sembly
Ġadd ition
Ġre gistry
P UBLIC
sub str
æĮĩ å®ļ
DE D
Ġ ĉĉ
man age
sk ill
iz ar
Ġth ought
NOT E
Ġad just
ĠS pr
In ner
h alf
Ġc pu
ĠW orld
q q
ne ed
work space
Ġe poch
ĠPar ameter
Index QueryParser
IndexQueryParser Tests
× ķ
Function s
M illis
S uite
u str
ri o
cal led
Token s
Ġli ve
Us uario
Co untry
Ġm obile
Re ceived
Ġexport s
ĠS O
ĠĠĊĠĠ Ċ
(" ");
H ere
Y es
CLI ENT
Æ °
Ġse en
Ġh ar
app ings
as InstanceOf
il ing
f ed
output s
Ġsol ve
OP EN
RET URN
em ber
č ĊĠĠĠĠĠĠĠĠĠĠĠĠĠĠĠĠĠ
Project s
st able
d ash
Ġr gb
ITE M
on ical
Å ¯
sh ader
ĠGener ate
sc ape
Ġcol span
Des erial
Ġdeploy ment
depend encies
is ode
Ġpl us
de sktop
qu antity
ce ipt
ä»£ çłģ
sol ution
CO PY
re ng
ĠF ILE
ĠN ext
Ġë §
An swer
éĻ Ĳ
Ð¸ Ñģ
Per missions
r is
Ġd ol
in voice
Ġth ird
ist or
N s
čĊĠĠĠĠĠĠĠĠ čĊĠĠĠĠĠĠĠ
ĠS TD
æĿ ĥ
O IN
Ġ( &
A H
St ates
ĠR EQ
ENT ER
df s
ro utes
'), (
Al pha
Ġfig ure
Ġs anit
% ">
ist ant
Ġscal a
lyph icon
xb d
ĠJ ul
Ġfix es
IT S
case s
th rough
Ġfeed back
a res
pe ak
b el
çī ĩ
Ġneg ative
Ġë ³
M ultip
AME TER
Ġ(! (
on al
ĠR ect
Ġ Ñĩ
Ġ(! $
Ġassign ed
y d
Ġro utes
c orrect
K NO
Ġs he
ir th
Ġadd resses
Į Ģ
Ġop acity
Ġchannel s
ãĤ ¿
ĠO ptions
d jango
ĠCh annel
çĽ ´
ĠPl ugin
Ad ded
pro j
æ® µ
ST EM
$ "
over view
ĠC lear
ĠRe lease
mer ce
ĠP erson
è¿ ĺ
Ġe c
f as
Ġa ux
ad ded
f req
Act ual
* >
E F
() </
Name d
tri b
arr y
ID ENT
ä½ Ĩ
Debug ger
Read Only
Ġcheck ing
Ġ ĊĠĠĠĠĠĠĠĠĠĠĠĠĠĠĠĠĠĠĠ
è ĭ
Ġcont inu
) >
G S
Ġcol l
M iddleware
Å ĳ
ol ation
Ġsup p
Ġdisplay ed
Ġim mediate
S uper
W eek
M s
ĠE ach
Ġa w
ĠB ad
Wh ite
m ultip
ä¸ ī
Ġc ookie
\ ">
ãĥ ĩ
log ical
L ive
e ven
âĢ ĵ
e u
Ġde ep
Ġin herit
Ġo pp
Ġgu ess
Ġ" </
Ġsh adow
Ġap pe
ir ation
ĠFile s
last ic
) =
A z
Ġs q
b and
Ð°ÑĤ ÑĮ
Pe er
Ġz u
å± ŀ
w ill
Pro c
Ġë ĭ
Ġs ch
ĠC ur
################################ ################################
quiv alent
ov a
æ²¡ æľī
v ince
Ġexact ly
or acle
ing leton
Be havior
at ives
C ity
ar ator
Ġinv ok
Ġinstall ation
ĠPer mission
ì Īĺ
Mark er
N aN
Ġout side
link ed
Ġatt ack
å¾® åįļ
ĠS ym
Pop up
Component Model
Ġ' )
Ġun safe
xf c
Ġlearn ed
j ac
l cs
Ġdet ect
iz ard
ä½ ķ
Cre ator
LOC AL
Se parator
Ġman agement
illi seconds
ab solute
· ¸
=" -
å ĭ
Ġf ake
Cl ause
Ġthread s
? ,
k r
H it
on om
] ["
AC HE
Log ging
D id
E mbed
iv ot
Ġde legate
C lo
å® ¶
R X
Ġp ast
port s
Ġu uid
f abric
em a
äº ¤
ìł ķ
de ps
Ġm ixed
group Id
m ix
sp l
à ±
cla imer
Ġhapp ens
ad v
ÐµÐ½Ð¸ Ñı
ï¼ Ľ
Ġstart s
Ġan notation
Ð¾Ð ¶
ĠPR IMARY
d rag
s u
ot os
Ġf Ã¶r
UI RE
O ps
âĢĶ âĢĶ
H int
Work flow
un lock
inter faces
m iddleware
ĠA v
yout ube
ĠPy Object
bound s
j l
Oper ations
å¸ Ĥ
Ġch at
der ive
ĠH ost
Ġs urface
Ġh alf
d ummy
Ġfile Name
ver ts
lear ning
c as
Ġl in
ansp ose
à§ ĩ
Be en
R M
Ġph ase
ch rome
Ġe p
ĠThe y
Ġwe ights
message Info
V T
inter section
ĠD oc
second ary
M ult
éĶ Ļ
Ġweb pack
LIN K
co ped
Ġd rag
cogn ized
Tr a
re store
ĊĠĠĠĠĠĠĠĠĠĠĠĠĠĠĠĠĠĠĠĠĠĠĠĠĠĠĠĠĠĠĠĠ ĠĠĠĠĠĠĠĠ
Combo Box
Ġex clude
U INT
G C
ï¼ ģ
s ources
to uch
C ASE
ĠR O
OK IE
upload s
k b
le c
ĠSer vices
Ġlo cale
grad ient
çĥŃ åº¦
æį ¢
Ġr ank
Ġinter rupt
I ssue
qu es
A ML
Ċ ĊĠĠĠĠĠĠĠĠ
P N
z i
PR INT
Ġm r
pt s
Ġyear s
B ut
V I
Ġs lide
table s
ar ound
Ġsign ed
Ġfin ished
h b
ĠEd ge
ìĹĲ ìĦľ
Ġme d
è¿ Ĳ
æĿ ¡
AR B
Ã¡ l
er ator
Pro cessed
atis f
Text Box
enc rypt
è® °
Orig inal
Ġc ity
ĠD b
font s
h p
è¯· æ±Ĥ
h our
Ġla unch
Ġ( <
Ġw indows
Flow Direction
Dis k
ld y
Ġre store
$ ('.
æī ĭ
S ING
ĠL ast
plac ed
T ON
int ro
Ã ¢
Ġ ri
Ġin voke
ĠH E
m atic
Ġre try
Ġli braries
] <
ĠPl atform
Ġp ress
allow ed
ĠValid ation
æµ ĭ
Util ity
ur er
am d
fin ish
P references
ĠCOL LATE
[] []
Ġtr ansport
ul se
Ġd p
Dest ination
Ġl gl
For ward
Cl aim
O cc
Ġto String
åı¯ èĥ½
ĠĠĠĠĠĠĠĠĠĠĠĠĠĠĠĠ ĠĠĠĠĠĠĠĠĠĠĠĠ
ĠMem ory
, .
Ġp ending
Ġpro duction
ĠPo inter
Ġlik ely
sc ss
M obile
NE W
h it
leg end
[ _
EXT ERN
Ġfin ish
it el
Ġ' --
Data Frame
ap ro
Ġab s
Block s
r atio
Ġa us
ut ation
let ter
ak t
ä¸ ļ
man y
FF F
n ix
tr an
get Attribute
LAB EL
H X
H orizontal
an alysis
sm art
v l
Ġs y
ach ines
M ust
æ¯ ı
ig rate
ers hell
C LO
y o
Sk ip
C annot
AD O
C lock
b es
ĠTest s
éķ ¿
url s
Ġmod ification
tr avis
$ _
R ew
ìĦ ±
ĠT YPE
åĪ ł
ĠLay out
ĠEn ter
Ġrot ation
w ire
Ġc sv
B S
= ['
Process ing
a ux
ä» ¤
Ġc art
ĠEd itor
Ġtarget s
Ġ* _
CONTRO L
ĠQ ue
ACT ER
Ġres olved
Ġf old
é ĵ
C over
view er
button s
ex change
activ ate
å¾®åįļ çĥŃåº¦
S cheduler
Ġs al
Tip o
ĠUn iversity
Not es
ĠS cal
G U
č ĊĠĠĠĠĠĠĠĠĠĠĠĠ
Ġa ge
ĠRe al
Type Name
Red irect
With out
cho ice
te le
et y
ĠFrame work
Ġpro cessed
exception s
Fore ign
Un marshal
qu ad
ldy tsch
ĠĠĠĠĠĠĠĠĠĠĠĠĠĠĠĠ ĠĠĠĠĠĠĠĠĠĠĠĠĠĠĠ
part ition
Ġremain ing
Ġ ing
it ute
ĠB ind
ĠV ert
z oom
å¤Ħ çĲĨ
\ -
p us
\\ \\
xy z
Ġlook up
Ġes pec
é» ĺ
ĠìĤ¬ ìļ©
Ġpro t
ĠHOLDER S
comp lex
Ġ' __
ĠCar bon
ar se
à¦ ¿
Art icle
G A
V IEW
Se ed
Ġpred i
AT TR
Ġp c
erc ise
ĠB ar
= ="
] /
Ġcon v
H S
Ġs lice
Ġgr anted
Grid View
f iler
l uc
car bon
ierarch y
': '
G T
d h
Ġpro c
ir v
Spec ial
art icles
Ġt aken
Ġis set
Ġhow ever
) _
Re gistration
è£ ħ
back ends
j or
ĠEn abled
åħ Ī
is i
ID s
ol er
ĠiÃ§ in
Ġlo ader
ãĥ ī
mut ation
Dispatch er
ĠRequire d
/ ************************************************************************
r ay
æĶ ¾
ĠM ove
< >(
Cl one
ĠSte p
reng th
set Value
H Y
ĠB o
Ġun e
elastic search
ĠIn ternal
record s
p al
Ġ à®
Ġ[ ])
ìĿ ¸
Th an
Record s
Ġs ensor
Ġattemp t
Ġapp s
ĠH O
ãĤ £
FR S
j p
! "
Button s
Ġpos itive
Cal cul
por ation
str a
g ular
Ġ Ã¶
De ep
u med
è¡¨ ç¤º
Ġret rie
ĠR ES
Ġi OS
ĠR ight
Ġ" *
p ulumi
ĠA cc
or se
ri st
D emo
get Data
ĠA re
ĠTh ank
ĠĠĠĠĠĠĠĠĠĠĠĠĠĠĠĠĠĠĠĠĠĠĠĠĠĠĠĠĠĠĠĠĠĠĠĠĠĠĠĠĠĠĠĠĠĠĠĠĠĠĠĠĠĠĠĠĠĠĠĠĠĠĠĠ ĠĠĠĠĠĠĠĠĠĠĠĠĠĠĠĠĠĠĠĠĠĠĠĠĠĠĠĠĠĠĠĠĠĠĠĠĠĠĠĠĠĠĠĠĠĠĠĠĠĠĠĠĠĠĠĠĠĠĠĠĠĠĠĠ
m ic
Ġext ensions
æĶ ¶
Ġlay ers
P res
ç Ł¥
ivers al
ĠLe vel
Ġfollow s
Ġb lob
}} "
F un
re ject
op ens
Ġconst expr
Ġk lass
")) .
Ob servable
po ses
arg er
ĠEn able
ĠS IZE
xf d
B P
bus iness
ame l
Not ify
Ġman ifest
Ġ" (
P at
Ġto day
^^^^ ^^^^
qu ences
integr ation
åĬ Ľ
Ġbound s
ĠDes cribe
ĠIn stance
M Q
r ating
j b
ĠL ear
:: _
D U
Link s
åĵ ģ
Ġm ar
ab a
conn ector
l ated
Ġb a
Ġm ix
Ġh ours
ĠTrans form
">< ?
ĠQ uest
ic ing
ic io
Ġd ummy
ĠA mazon
get C
Add itional
h dr
P OL
l gl
= _
er as
ĠSty le
Ġcal c
s id
per cent
La unch
D ocker
b all
Ĩ Ĵ
Ġch oice
Ġpre pare
entic ate
Ġ( []
Ġkey word
ad as
ag en
Ġprint ln
Git Hub
Ġpur pose
Ġre duce
ge ms
par agraph
Ġon es
Back up
ToolStrip MenuItem
Ñ Ħ
ed ges
Ŀ ¼
<? >
ff e
d on
ç³» ç»Ł
P ES
D N
Ġst ub
Ġno except
org an
Ġ Ø§ÙĦ
Element Definition
Ġwarning s
Ġre start
íķĺ ëĬĶ
t ls
P lot
Ð¾ Ñģ
S afe
Ġlet ter
G l
dim ension
INTER FACE
b abel
Mod ifier
Pre vious
SY MBOL
Dis abled
Ġj Query
di ctionary
or row
L T
; ,
ĠP e
ut ral
Ġpar sing
Ġen counter
i br
f act
LA UL
ĠT uple
Re ceive
Ðµ Ñģ
Ġso on
De coder
ë© ´
c id
qu ential
Ä± r
in formation
Get ter
Ġe en
ĠTrans action
M ultiple
are n
get Key
å¯ Ĩ
Ġconf lict
es cape
ĠCon nect
L U
/* .
e z
Ġm ag
M X
at ural
j av
Ġent ities
Ġcon version
åĪł éĻ¤
on ed
Ġì ĥ
Ġgener ation
~ /
pp ing
Ġnot ify
clus ive
Ġ// !
h am
ĠRE G
auth entication
h ar
ĠDes ign
sig ma
èī ²
Ġattr s
Ġb ash
Ġtri m
ĠP lay
Ġ ../
Ex ist
Ġexp and
a utom
ĠCh rome
éª Į
Ġm u
Step Shape
Ġt i
Ġbl ank
remove Class
v w
inherit doc
G V
n io
Rel ative
è¯ Ń
T MP
į °
Ġs om
Ñ ĸ
Filter s
duc es
G N
ĠR o
ç´ ł
on line
AT URE
q s
à¸ Ń
Ġqu eries
ĠInt ent
copy right
Ċĉ ĠĠ
pop up
as p
æĪĲ åĬŁ
ä¸ ¤
é»ĺ è®¤
ĠL E
$ ('#
Ġn ice
AspNet Core
ãĥ ¬
Ġhe alth
C riteria
Ġpr act
G H
S ensor
ãĤ ³
C fg
Pop ulation
t ake
Ġn ested
O rient
ìĭ ľ
ëı Ħ
Ġ& =
as ci
b readcrumb
at able
Ġb eta
n ers
Ġl ua
bit r
ĠNo thing
Ġf p
Group Name
Ġen coded
parse Int
coord s
Att achment
. ')
CO RE
VER T
Ġp ayment
M Y
G INE
Î ±
block List
F W
çĬ¶ æĢģ
CONT ENT
ë ²
rot ation
Ġpair s
end section
ens ors
sec ure
T yped
Ġm iddle
Document s
ĠC lick
ĠW idget
Ġman age
åħ ·
ĠSH A
D oxy
=" [
çº §
elli j
com munity
an ia
ĠA LL
ll a
De code
language s
pict ure
Ġconsider ed
aw esome
ï¼ ¯
å¤ ©
Capt ure
Ġview s
Ġp ÅĻ
Conn ected
Fix ture
fail ure
Ġv k
c irc
ĠS ort
Ġle ave
M ount
Ġin crement
C AP
ĠN ON
Ġlocal Var
ec es
ec ause
Rad io
CF G
per missions
ÑĤ Ð¾
ĠB SD
Ġcom munity
Ġcan cell
ĠF inal
Ex change
op acity
at i
p ared
Ġevalu ation
M vc
w alk
Ġm id
å¿ ĥ
D er
Ġc ut
ĠC lose
Ġse em
Config ure
Ġfl at
Ġdistribut e
} -
RE EN
b ench
) },
riter ion
Vert ical
Ġm x
ĠE D
class List
ĠRes erved
out er
Ġsend ing
S PI
Z W
ĠM aterial
employ ee
Ġ( @
Comp letion
ĠP osition
Ġal i
Ġpar allel
Ab out
log ies
Un iform
sort ed
åŃĹ ç¬¦
j oint
out line
è¯ ¢
Ġt t
Match er
D ays
ver ity
UM N
fin ite
ĠO peration
Art ifact
? (
Code s
dis miss
ĠÑ į
p le
get Time
bo k
se to
. ');
mo ji
Ġh ook
ĠExpect ed
u z
de leted
vide os
>> >
') [
Ġc as
Ġf riend
Ġ?> "
S ig
cover ed
í Ļ
Ġ) );
ĠA tom
ĠW ait
xf b
types cript
IC ES
fl ux
:: __
oc used
}{ \
ĠM eta
pol l
Ġindic ates
F K
G UID
W H
IT LE
ĠS ince
Ġtyp ing
L ow
Ġb oot
ev t
Ġp an
un def
es p
ĠHel lo
ament e
ĠT ensor
W ITH
(" ./
Ġder ived
b anner
Ġp ulumi
Ġa way
ent a
d type
ĠâĢ Ķ
ĠW indow
Ġvol atile
Un able
Ð¸ Ð½
ov ed
à¹ ī
c umulative
P riv
ĠC ase
Ġh our
ãģĹãģ Ł
cont rib
AL IST
Ġ ĊĊ
B M
ancell ationToken
View s
ĠD on
Ġarg c
Ġ% >
] "
Ġbutton s
Var s
widget s
S F
. **
ĠT w
ĠD ES
ph ase
Ġed ges
l ator
Ab solute
Ġm ultip
Ġd ark
Ġv irt
Ġreg arding
Ġxml ns
ertific ates
A IM
Ġarray s
Ġp p
C SS
Li ke
Ph oto
éĹ® é¢ĺ
Ġ= ================================================================
is er
ĠF unc
resp onsive
leme try
Man ifest
we ak
Enumer ator
Ġ", ",
Ġres olution
M igration
ãģ ı
Warning s
Ex press
mal ink
ĠVer ify
ĠOff set
Ġf our
Ġin crease
re gist
Ġt d
» åĬł
me asure
Deploy ment
an im
TRAN S
Ġorg anization
re cv
un used
Ġfull y
Ġeas ier
il led
p ause
I o
resh ape
str cmp
æŃ ¥
w ind
s ites
Ĥ ĺ
')) .
Ġex tern
C ulture
C urrency
Ġstr ong
f ect
Ġre act
ĠF uture
Cur ve
el if
ĠDO M
w b
Ġse d
------------ ---
RE AM
Ġrel ationship
ç´ ¢
ĠNOT E
âĶĢâĶĢâĶĢâĶĢ âĶĢâĶĢâĶĢâĶĢ
KNO WN
b id
h int
in crement
un a
Ġan s
ĠCl uster
Ġparse Int
al gorithm
to oth
å¹ ³
C ircle
un nel
) <
d up
W allet
'] :
ob s
ĠS ample
ab bit
à¹ Ī
ĠIllegal ArgumentException
Ġhe t
ĠEX ISTS
ìĬ µ
ĠCont act
q p
( |
V IS
I ES
PRO JECT
Track er
åĪĹ è¡¨
al ways
Ð¾Ð ·
CON SP
ER Y
ë °
brid ge
st roke
ide d
{ '
as sed
MA IL
å ĥ
" =>
layout s
Ġthrow n
{ -
åĪ «
èµ ·
Pl us
g ate
l ations
Ġ ess
ok u
m ust
od d
s lf
ĠB G
B ank
Render ing
im ize
ym m
De vices
ĉĉĉĉ ĉĉ
inst ances
L inux
ĠCon s
BE GIN
ĠS olution
add itional
åĪ Ŀ
ÑĢ Ñĥ
Ġr t
pro duction
th ree
ìľ¼ ë¡ľ
= \
G PIO
de velopment
') {
Ġm m
ä¾ Ľ
F ast
int ellij
Ġin ject
éĤ £
Ġm ind
Ġdis claimer
R ank
åĳ ĺ
grad le
Own Property
SCRIP T
Ġd x
` ),
M ARK
R pc
Ġconnection s
Pri mitive
ĠDocument ation
Ġelse if
get User
list en
Part ial
CL K
ient o
Ġhigh er
ate ly
æĽ´ æĸ°
al so
ĠF ailed
ĠÐ¾ Ð±
Ph ase
f ade
U V
R A
Ġdef in
éĢ ģ
d ns
. (*
AL IGN
get Item
Per cent
am an
Module s
post gres
Tab Index
ÑģÑĤ Ð²
Ġ/ .
Ġqu ite
Ġlink ed
P F
Ġ** [
ĠCON FIG
COMM AND
ĠM atch
book s
Exp and
host name
à¸ ģ
card s
ĠPar ser
Ġgo al
et ime
man aged
Ġ{} ",
at ype
ĠI E
Ġge o
Comp lex
Ġperson al
S i
Ġof ten
Le g
I CT
ativ o
w allet
EX P
Over lay
Ġeas ily
art ist
soft ware
C ent
âĶ Ĥ
Ġn avig
Log ic
ip pe
ĠS ql
Ġc lip
d to
ip v
Ġf ade
IC K
P aint
ĠC UR
E m
ens us
Inter faces
Ġë ª
Ġ( /
img ur
red ux
lin eno
thumb nail
| \
åı Ĭ
Ġ' '),
ĠS top
ir y
ĠLe ft
f v
Comp any
æĺ ¾
TYPE DEF
ç¡ ®
ho od
ä¿® æĶ¹
PROPER TY
ge om
vert ices
b m
Sl ider
Ġ roll
Part s
åĨħ å®¹
D WORD
g uid
mark et
uf act
me ter
Ġes lint
h ooks
Ġocc urred
get Current
std io
ĠD est
plan ation
S ur
v nd
Ġ} .
Rel ation
ADD RESS
al bum
INCL UDING
if rame
ãģ £
DE SC
ann ed
ph ere
Code Attribute
íķ ł
F ault
Ġm ajor
Ġset Timeout
SD L
i w
t id
Re try
Ġn or
') ]
A ge
Ġext end
read only
n ÃŃ
f m
å®ļ ä¹ī
T CP
p v
æ Ł
Ġi i
ĠV ol
DI F
? ;
Key board
LOB AL
Ġu id
Ġch anging
Comp ute
vis or
å½ĵ åīį
Ġ" \"
ĠS ingle
Gu ard
Ġwer den
A nt
Instance State
ĠS PE
æī ĵ
Ġatt ach
ir med
Ġconst ants
Ġcell s
( ?
Man aged
Ref lection
wik ipedia
e per
ĠLo ader
èµ Ħ
go ing
Ġne ar
Ġ{ ...
ĠP rivate
am i
ac l
Ð¾ ÑģÑĤ
Ġin struction
S uc
ctr ine
p aper
py test
Ġex perience
us uario
Ġident ify
In ventory
æķ ´
Ġc urrency
proto c
Fl at
ĠO per
k ota
ĠF low
s uffix
Def ined
Spr ing
Ġequal s
Ð¾Ð³ Ð¾
S N
ĠA tt
St mt
Ġdep ends
ĠM o
Ġt ill
å¾ Ī
ĠIn clude
ĠRE ST
GEN ER
ĠT erm
sem antic
ĠIn fo
Ġv ers
Off ice
Ġt alk
ĠS l
Ġart ifact
target s
Or Empty
an alytics
ci ence
comp ress
b az
be an
ĠS ymbol
v et
INST ANCE
V P
: ',
ACC ESS
[ ^
j dk
æ »
an ches
Ġg lob
k ube
Ġclient s
Ġp ure
D ROP
k v
is ing
to c
ĠM T
lap sed
Sm all
Indic ator
Ð° Ñģ
Ġcon sumer
load s
w ater
ĠÐ² Ñĭ
( <
c g
Ġinc orrect
Ġe mp
e quiv
acion es
= ',
tr ait
Ġpre cision
ĠQ String
i ot
Ġr atio
ail ing
oh n
ĠX ml
; "><
pect or
Ġ Ċĉĉĉ
ĠN on
b ing
Ġp id
ĠS W
FUN C
Ġmat plotlib
ac ement
V o
Ġap lic
Com ments
man ual
View er
' ><
T ax
ì ĥ
Ġst ride
SY S
TR A
Ar row
ì ²
ĠT ab
={ '
Ġp aper
ick y
åķ Ĩ
or al
con cept
Ġm igrations
Implement ed
bet ween
up dates
ĠB us
ex ist
ĠST AT
Ġan im
j k
Ð° ÑĢ
Ġstd out
è°ĥ çĶ¨
p romise
Ġl ife
Ġ& [
s urface
éĿ ŀ
ri al
n ombre
=" ./
W ill
ĠN G
Ġf f
ĠB ug
Ġrelease d
P i
ific ant
d os
C AL
TI M
| ,
Ġs printf
Ġresp ons
Byte Array
% ,
C U
gre es
Ġcl aim
} (
q t
Ġn Ã£o
om ial
Ġ** /
m ultiple
Display Name
A udit
Ġloc ally
A INT
Ġcontrol s
A w
ĠP assword
( ',
uss ian
H i
ĠL ess
ĠTr ack
åİ »
d g
f re
w est
={ ()
æł ¹
J ust
Ġcon tr
Ġb log
ĠM P
li x
Ass ignment
Ġbus iness
ig u
apt ic
K B
ĠDep end
se p
encode d
Dis able
éģ ĵ
LE ASE
ãĤ¤ ãĥ³
s ensor
cam atan
;;;; ;;;;
. {
(' -
Ġp g
Ġnull able
Cre ation
x cc
rel ation
F IN
shot s
Â ·
=" ,
ĠL ook
ites pace
msg s
b ib
ĠC ould
m ak
ĠU SB
Ġus ize
c redentials
Ġon line
ÐµÐ½ ÑĤ
co v
deploy ment
z t
qu id
ĠM ore
IC AL
O G
ĠS uccess
)) ]
d ater
ent ly
se parator
feed back
$ /
Get Value
ĠTe am
Serial izable
Ġp andas
BY TE
g ulp
log out
Ġd ados
ĠC lo
Ġre striction
è¿ ŀ
Ġcoord inate
Ġtip o
x fa
Ġm iddleware
with out
å®ŀ çİ°
Number Of
| :
iv ery
e ction
ST AMP
C OR
U nt
(' --
} ).
ri ends
ke camatan
Ġcode s
He ap
Ã³ w
ĠGener ic
=" $
ient e
\ ,
ĠS DL
Definition s
Ġr Ã©
ĠType Error
Trans lation
ĠVAL IGN
Ġrepresent ing
ĠN UM
Ġup on
ç¨ĭ åºı
word press
č ĊĠĠĠĠĠĠĠĠĠĠĠĠĠĠĠĠĠĠĠĠĠĠĠĠĠĠĠĠĠĠĠĠĠĠĠ
Ġde precated
Pred icate
> .</
Ġ Ã¼
att le
< %
y g
fire base
K AN
over lay
Ġm ass
Re ceiver
h n
be at
Window Configuration
Ġlimit ation
L B
con straint
@ {
Ġdef ines
get Property
org anization
N AL
de cimal
front end
un gen
Depend encies
H D
c are
ater n
google apis
yy yy
P ressed
ÐµÐ ¹
C Y
NS String
On ClickListener
ex isting
name of
Max imum
¬ ¸
ĠA pr
le af
B Ã¤rndÃ¼tsch
h ind
dim s
R D
AT T
PR IV
Z oom
Ġassert False
Ġnum eric
B et
ĠĠĠĠĠĠĠĠĠĠĠĠĠĠĠĠ ĠĠĠĠĠĠĠĠĠĠĠĠĠĠ
Ġserial ize
Ġm igration
ĠH ooks
SER VICE
end foreach
ĠÐ´ Ð»Ñı
W L
he st
Ġ"' ",
l m
ĠP ub
on ic
Ġsome one
ĠAr ch
enc il
, (
en viron
ct ype
Allow ed
ĠRedist ributions
b io
Th rows
Ġjupy text
change s
v h
y ield
Ġcome s
çĻ »
M UL
Ġc ategories
IF Y
ãĤ »
ĠNS String
eb p
Ġinv est
æķ Ī
velo pe
Version s
ĠOther wise
Ġback up
ĠU sed
code c
C atalog
S RC
Ġconvert ed
ĠREAD ME
web site
Ġsimple IndexQueryParserTests
off ice
ĠS V
? "
r as
Ġto uch
L ang
te in
Text View
Ġ{ })
Ġs udo
ĠÐ °
an onymous
ĠDe v
Ġl s
me the
ide s
Step s
av id
Org anization
Ġprocess or
Ġs uffix
b ias
ch ant
SE L
sp y
è Ī
ãĤ ¦
ĠSe q
bu ff
a que
ë ŀ
', ['
Ġlicense s
Ġ*/ ;
Sh op
cont ainers
HAND LE
**************** ********
Ġdocument s
rupt ed
CT OR
ens ure
ĠPro file
ĠCON TRIBUT
}` );
ð Ŀ
ĠCon structor
ĠComp ute
ore d
cos X
Ro les
ĠPRO C
Ġs cheme
Ġo prot
Ġd uplicate
g olang
ç» Ļ
Ġ% %
Ġcapt ure
as px
Bl ack
Ġbro ken
Ġs il
Ġman aged
sol id
] </
ĠCO OKIE
u zz
Ex cel
= </
t ro
ant lr
List Item
fl ater
å¤ ĩ
err no
m bok
p ur
Ġt p
sp in
ãĥ§ ãĥ³
Ġp kg
cont ribut
Ġframe s
SE C
åį ³
ãĤ¹ ãĥĪ
pow ershell
Ġtemp lates
lapack e
æĸ Ń
A m
par sed
SY STEM
methe us
aly ze
w c
an i
Ġst ar
ĠValid ate
Ġt c
le ave
CODE C
account s
} [
ĠDo es
mov ie
ARG S
k ing
Ġ ic
Ġs low
Tool tip
H L
po graphy
ĠR ights
Ġt ick
Ġm i
Ġsanit ized
Mut able
P AGE
i ation
e es
M ay
è ¥
DA O
æĶ¯ æĮģ
Un der
Ġprevious ly
cy cle
Ġ Ï
Ġin te
fe e
E mployee
Ð°Ð ¼
co pes
b one
ĊĠĠĠĠĠĠĠĠĠĠĠĠĠĠĠĠ ĊĠĠĠĠĠĠĠĠĠĠĠĠĠĠĠ
Ġvo or
Ġde m
ĊĠĠĠĠĠĠĠĠĠĠĠĠĠĠĠĠĠĠĠĠĠĠĠĠĠĠĠĠĠĠĠĠ ĠĠĠĠĠĠĠĠĠĠ
Ġappe ars
Num eric
graph ql
ĠIm mutable
> *
Ġdol or
Ġe ase
box es
in ventory
Al so
Ġn b
fix ture
") ),
)? ;
ĠF L
normal ize
ĠU tf
Ġlog ged
Ġsw ap
å±ŀ æĢ§
block quote
pre di
µ ¬
æµ ģ
Ġmaterial s
Ġs af
Rect angle
St amp
Ġip sum
Ġnum s
ĠI Enumerable
<< <<
Ġs on
Al t
ç µ
CK ET
è Ļ
Ġh r
as ons
ĠCon struct
ÐµÐ½Ð¸ Ðµ
P ad
ĠS em
b untu
". $
distribut e
! </
Ġê ³
var char
E A
cal culate
Ġm a
List s
Ġde cor
SE QU
Ġocc urs
. ";
s By
Ġcon c
en ance
th ough
Ġqu i
P TR
ĠĠĠĠĠĠĠĠĠĠĠĠĠĠĠĠ ĠĠĠĠĠĠĠĠĠĠĠĠĠ
H H
Ġst ock
author ized
L AP
~~~~~~~~ ~~~~~~~~
Ġs izes
Ġ` --
char s
PASS WORD
Ġd os
err a
dig o
ĠExec ute
di ag
c ms
ON LY
\_ \+
A ux
Ġc n
Ġpro mpt
Ġge ometry
Ġt utorial
atter y
ul ner
Qu antity
C ourse
Data Set
Ġk on
Ġlevel s
Ġcompat ible
en coder
ACT IVE
Des ktop
f ish
ĠG UI
ĠÐ½ Ðµ
Ġa k
ĠH tml
è¯ »
ãĤ Ĥ
cap s
Integr ation
ik a
rot ate
č Ċĉĉĉĉĉĉĉ
Sc anner
ĠJ OIN
Ġg amma
An notations
' ",
D ashboard
Ġ' ;
} `,
bu y
Ġro bot
ĠGener ated
scal ar
istr ator
Comp act
F ollow
æİ §
C ross
ĠU Int
()) {
C LE
ser if
M gr
Ġm ysql
pan ic
f k
Ġs heet
op eng
Ġ energy
ĠM A
Start ed
re load
F i
ĠR ET
à¸ £
\+ \_\+
EMP TY
ty p
sess ment
Ġatt ached
Ġaccount s
DEF IN
x sl
st udio
dist ribution
Ġv a
XX XX
Ġw arr
Ġd an
ter ms
Ġof fer
ĠP op
ĠA T
Ġqual ity
ĠR ange
Ġpy test
/ ',
(" '"
us b
Ġwork ed
Ġcall er
Ġx xx
Key word
Ġrender er
CI AL
ĠO ct
> ().
å°± æĺ¯
Ġ ĊĠĠĠĠĠĠĠĠ
Ġp ow
Ġgo es
Un lock
avor ite
b j
lo quent
Opt s
t ures
åĨ į
w y
Ġro unded
M icro
Ġcon straint
> -
Un its
Ġt ax
Ġpers ons
ĠN ative
ac ao
v d
std lib
ĠMod ified
bitr ary
) ">
v n
ass oci
åı °
Cap acity
Ġsk learn
Ġdim ensions
ĠMan agement
s at
] ])
ion i
åĲį ç§°
re name
IL L
Ġstr len
Ġclean up
Ġscal ar
x er
ma jor
ON Y
C WE
ber n
V K
Ġrecomm end
om as
decor ation
Ġme chan
Ġz oom
( .
í ĸ
ĠSym fony
ativ ely
FFFF FF
re ceive
per m
Ð Ł
ĠSh ared
el t
ck s
ĠV K
ST REAM
sw agger
M F
Code c
Ð½ Ð¸
Ġsc enario
Rel ationship
st ride
Ã© e
Ġtrans lation
Ġjob s
ĠCor poration
P B
Ġ --------------------------------
Ġdefinition s
SP ACE
Ġpro cesses
red ito
TR ACE
ind ic
Ġ"/ "
F ake
Meta Data
limit er
o ct
Ġk Ã¶
FO UND
Ġd y
Ġopen ed
Ġ' [
ĠInter face
Ġe ine
be am
in tr
Ġt ail
dev ices
de m
, :
í ĺ
Ġo c
unc ated
Ċĉĉĉ ĠĠĠ
åĲ «
l ify
ĠM is
ith y
Ġw s
bl k
FR AME
char ge
Mut ex
****** /
Ġc Ã³
El se
tensor flow
eng er
ra ise
Ġactiv ation
é ¦
Ġvert ices
g allery
l ig
x ef
pro mpt
xb f
Ġre search
cip ient
A UTO
ĠG PIO
M AT
Ġpe g
åĿ Ģ
key board
ãĥ¼ãĤ ¿
ann o
Ġman ual
ĠBO OL
in et
Ġre dis
Ġlo mbok
ĠUtil s
and atory
è¥ ¿
Get String
pag ination
ĠD irect
Ġhard ware
Ġpass ing
M aybe
ro zen
ĠA ng
Ġl and
sched uler
Ġa u
hl js
Ġs uite
è¾ĵ åħ¥
Ġunder lying
")) );
h c
Ġw allet
Bus iness
ighb ors
( ::
D r
Ġ( __
L ess
Ġc ps
ĠB OO
/ ).
Ġv ous
ĠF UN
D UCT
Ġimmediate ly
[ @
Ġup dating
g lob
="<? =
id ing
Res olution
OB J
ĠDown load
US B
Ġqu ant
x p
ang les
Ġnav bar
Ġmac ro
åĥ ı
ï ¸
`` ``
Card s
PAR AMETER
St udio
Pro t
un ion
Ġpre view
F ooter
Group Layout
G D
EN S
FAIL URE
cycler View
ĠB inary
Ġab ort
Ġin tern
oc Ãª
Ġnormal ize
Ġdecl aration
exp anded
Ġ[] *
c sharp
P ull
Ġwh om
ĠBG COLOR
Att ack
åŃĺ åľ¨
ĠH igh
ge m
Ġa ffect
Ġo der
Ġiter ation
v y
JS Import
i B
Ġn om
Ġdown to
$ ("#
ĠB ook
IN LINE
l k
z illa
Ġi NdEx
Widget s
Foreign Key
Ġg ives
å¯ ¼
re cipe
L wjgl
co p
C od
ic ed
do i
ar ity
Ġ' ');
N EL
ĠC he
') ),
OP ER
car ousel
Ġcontribut ors
High light
jack son
W ire
Ġs ock
Ġcomp letion
SE CON
Log s
Min imum
æĥ ³
le e
Sw ap
< >
) ");
AP H
now ledge
cl uding
et ur
åĲ ¯
ĠW in
Ġì ĺ
Ġ ur
RE ST
att achment
Ġcon straints
Sample s
ãĥ ¡
ĠRuntime Exception
FIL TER
t u
Ġposs ib
Ind ices
lic h
ĠLi brary
Ġa met
un i
Util ities
Ġevalu ate
èĬĤ çĤ¹
Ã ¸
ĠP ATH
ĠT ypes
ĠCON NECTION
å® ¢
ĠA udio
ĠT EXT
Ġ$ ('
Bag Constraints
N P
Ġw ater
ĠP attern
f h
re vision
RAN GE
Ġexplicit ly
Arc cosX
t ower
ĠM S
ĠAPI s
Ġlearned at
++ ]
Ġvalid ator
Frame s
æ £
Ġdef er
, </
file path
an Ä±
Ã¼ Ã¼tsch
çĶŁ æĪĲ
f ly
ver b
} ),
Å ¿
is Valid
rit Ã¼Ã¼tsch
Ã¼ ritÃ¼Ã¼tsch
Ġsynchron ized
ĠW IN
Non null
fp ArccosX
fpArccosX Test
Cell Id
åģ ļ
w l
Ġre ceiv
ĠO B
ĠÃ º
â Ĥ
an ty
par allel
Ġ čĊĠĠĠ
sub section
ĠR ad
ip y
w ant
gu ild
andid ates
P ause
Ġh y
åĪ ©
List View
p ref
Ġh uman
Ġval or
translation type
Ġ[ :
emo ji
ĠV ideo
åºĶ çĶ¨
"> '
rig gers
loc ations
Ġf requency
tr aits
map per
. &
å¸ ĥ
âĸĪâĸĪ âĸĪâĸĪ
c z
Ġro les
n es
ĠAct ivity
p rom
B ridge
end en
H ide
ĠE C
Stat istics
vis ibility
Ġex c
hand off
Ind ent
ä¸ ²
am in
**** *
limit s
B AR
s ales
è¯ ¯
Ġ ĊĠĠĠĠĠĠĠĠĠ
o ss
Ġp ode
es lint
Ġw alk
h its
Ġus ually
p on
cont rollers
ĠW ill
sw ers
Ġ ----------
Ġr w
for um
ĠText ure
B IND
S ol
ĠA utom
\" \
> ");
st ory
e le
Ġde ad
Ph ysical
if etime
ãĤ µ
à µ
ľ âĶĢâĶĢ
MO VE
ĠMet adata
ĠF ull
, _
Ġp ipe
Ġtr ansparent
Ġsubst ant
Ġhere by
ãĥ ¥
Fin ish
l ace
Ġl d
Ġt ar
Ġ* ************************************************************************
Ġfor k
äº §
B ro
V enta
git commit
ORM AL
server s
st ation
le et
ĠCOMM ENT
S ch
ro tt
if ference
P icture
Ġper formed
IMP ORT
Re gist
re try
id ence
let ing
we i
Ġwant ed
Ġw ays
Ġre ceiver
ĠDet ails
Ð°Ð ·
Z ip
Ġo d
ĠD NS
ir ing
Ġwork space
VO ID
al a
ĠN ormal
Ġs cheduler
De leted
Ġinitial ization
work ing
open locfile
source gitcommit
openlocfile hash
to Have
ri a
Th umb
... "
to k
Ġtemp erature
ĊĠĠĠĠĠĠĠĠĠĠĠĠĠĠĠĠĠĠĠĠĠĠĠĠĠĠĠĠĠĠĠĠ ĠĠĠĠĠĠĠĠĠĠĠĠĠ
q r
Ġx y
ĠP ER
Word s
Ġc mp
im o
Ġrender ing
, &
Ġse ss
Check Box
f riend
Ġarch ive
ĠRem ote
Ġserver s
it ed
* }
ING E
client s
aptic Population
tp l
Ġab ility
track er
F oo
Ġt ro
ĠUp dated
Con struct
fore ign
Ġ èİ·åıĸ
R x
è´ ¥
x de
`, `
g zip
ĠI ssue
last handoff
C losed
Ġcollection s
} ");
sche me
S olution
is a
ĠSe ction
ë Ŀ¼
Ð°Ð ¿
R B
Ġtech n
se quent
th ere
Ġ'/ '
Ġas sets
Ġmov ed
: =
ar ations
Or Default
================================ ================
[ \
č ĊĠĠĠĠĠĠĠĠĠĠ
ag o
IN FR
x z
H z
Ġhandle s
In to
ag a
ay a
content locale
Ġcons ult
ĠCONTRIBUT ORS
ĠCon f
L ite
T urn
ig hest
ë ¶
ĠV irtual
Ġ ht
ç ¦
ĠM achine
Te ch
ĠF ace
Ġown ership
row n
ĠV ER
Ġl azy
Ġbegin ning
Ġd amage
c ite
Ġr v
© ëĭĪëĭ¤
Ġh i
cl aim
ç§ »
AD ER
LI MIT
ĠY ii
ust ed
Ù ģ
Ġ! (
U C
ĊĠĠĠĠĠĠĠĠĠĠĠĠĠĠĠĠĠĠĠĠĠĠĠĠĠĠĠĠĠĠĠĠ ĠĠĠĠĠĠĠĠĠĠĠĠ
STR AINT
Ġstr ategy
up on
Ġ[ **
(" --
TH READ
h aps
ĠD ialog
Ġwh ose
evalu ate
ĠRe st
ynam ics
! ",
Ġ" ]
Ċĉĉĉĉ Ċĉĉĉ
N ER
($ "
an de
up iter
re pr
ĠR ule
ro pped
Ġbel ieve
L ex
ĠIN C
![ ](
Ġo ps
cl usion
G ood
Ġê° Ģ
d rive
Input s
Ġper cent
ed a
Par allel
ĠS M
ĠÑģ ÑĤ
Y X
ĊĠĠĠĠ ĊĠĠĠĠĠĠĠ
B AD
à¹ Ģ
Ġk B
qual ity
ĠO rg
an ie
et o
Ġclo sing
Ġ ÑĢÐ°Ð
Ġn x
get Default
g ender
Î ½
ul ia
Ġe quivalent
artifact Id
I ss
Ġhand led
re cognized
L ab
u y
(( *
ìĬµ ëĭĪëĭ¤
In itialized
ret val
Ġport ions
P t
ĠAL IGN
ht docs
level s
Ġto do
Pl ane
S ince
Ġre peat
Ġth umb
v in
éĶ ®
Ġb old
az e
ĠRun ning
C redential
ad just
H idden
m alloc
Ġret ain
Ġfont Size
IN TEGER
De c
report s
P unto
T ITLE
ì Ĩ
mit ted
lap se
L aw
Ġv el
ĠPro b
Inv ocation
C ategories
ot ing
b ur
Comp ile
AAAA AAAA
are st
Ġocc ur
Ġpot ential
R ay
Y PT
ĊĠĠĠĠĠĠĠĠĠĠĠĠĠĠĠĠĠĠĠĠĠĠĠĠĠĠĠĠĠĠĠĠĠĠĠĠĠĠĠĠĠĠĠĠĠĠĠĠ ĠĠĠĠĠĠĠĠĠĠĠĠĠĠĠ
lo od
æĮ ī
Ġsupp lied
ç Ī
ot s
ĠSh ort
Ġcap acity
WE B
Dis pose
Arch ive
s cores
Ġass ignment
amazon aws
> ?
Base ldytsch
C orre
t age
M OT
ĠO pt
×ķ ×
R ating
In crement
ĠM PI
Ġ ].
ist a
os h
do es
ab et
/ (
re pos
ch apter
INGE MENT
">& #
AT IVE
f aster
Ġcomp iled
al one
Ch o
R aise
ist ed
ched ul
re main
Ġ' *
Ġu k
Ð¸ Ð²
j q
call s
Ġj ump
col Last
Ġt m
il ities
:: ~
Inter ceptor
e h
ĠA C
w m
Ñ Ĭ
oc r
mar shall
if o
Ġput s
ĠA li
ìĿ ¼
Ġas sembly
Ch oice
ng inx
ar ia
ac o
ê² Į
Y G
re nd
Ġì §
ï¸ ı
ç Ŀ
ĠI o
File System
Ġf amily
CHAN GE
up grade
atern ion
RE SET
rec ip
å¢ ŀ
Ġde tection
aj e
ĠBl ue
Ġpro duce
do jo
Ġw ird
rg ba
cap acity
Ġwire Type
DI V
pro viders
cl ine
ĊĊ ĊĊĊ
à¸ ±
Ġcontribut or
Ġ\ '
BO O
WIN DO
D W
Ø ¨
US H
Ġf re
ĠÑ Ħ
èĢ ĥ
Spec ification
A Q
Ġw y
g ap
ĠNot es
ĠM erge
E moji
b z
c ing
start sWith
ĠJ o
çİ ¯
Ġc i
Ġexec utor
get All
| :-
ĠK ubernetes
Ignore Case
H o
Ġsp aces
xb c
View Controller
ĠEn try
CUR RENT
inter est
Emit ter
Ċ ĊĠĠĠĠĠĠĠĠĠĠĠĠĠ
Ġal ter
pre dic
e quation
open api
Ġobt aining
ĠLine ar
ĠR ole
V i
ĠP ut
ĠIn ternet
ĠV S
g amma
Ġser ve
à¸ ĩ
c orre
g m
BO X
Ġmk dir
op enc
ĠG PU
" <
FFFF FFFF
CONT EXT
+- +-
xe a
Ø ³
con verter
ĠS ite
Ġì ľ
; ",
av ity
(" ",
ĠDep loy
Ġbuild s
ĠV k
temp t
require s
S ym
t icket
Ġext ended
v im
ak a
da o
Ġev t
anti ate
WR AP
M ixin
Z ERO
Ġbe haviour
ect l
Orient ation
' ></
ì Ľ
d as
Ġo m
ĠÐ¾ ÑĤ
y i
str ategy
ook ies
ĠMem ber
Tri m
int ent
æľ ª
Ã¡ t
b k
di gest
Ġfilter ed
sp irv
ĠAuthor s
ç»ĵ æŀľ
sp rite
åľ° åĿĢ
Ġa ch
Check er
a ud
Î µ
: <
INFR INGEMENT
IN S
I K
br ains
Ġfl ash
Ð°Ð ¹
ĠChange s
Ġun set
As sets
Ġtemp orary
Ġauthor ization
z ed
Ġst and
Ġdat os
Ġlist ed
Re vision
x dd
AR M
Ġb alance
ol a
Http Servlet
dat as
(` ${
ĠP C
Ġh a
sw ift
UM ENT
Suppress Warnings
ĠIN TEGER
")) )
Ġb ene
MI ME
Home brew
D rive
å £
è Ħ
H ot
æĭ ©
ĠE ns
k ill
ub ectl
Sto ck
Config ur
ĠâĢ ¢
ri ed
** ](
Ġsh ader
ĠDef ine
fin ity
locfile id
ĠVAR CHAR
s ap
S uffix
ÑĢ Ð°
áº ¡
i lo
ĠD omain
Ġe ff
oper and
E val
Ġ$ (".
Ġ// $
F it
Fin ished
ĠW hether
On line
æŀ Ĳ
ffff ff
ĠCON SP
Ġc nt
ĠConst ants
C rypto
J oint
UN IT
am ar
EN SION
cre ts
ĠBe gin
Throw able
Ġre distribute
br u
Ġdrop down
Ġmov ing
ab b
Ġinter faces
ĠB undle
Ġre v
Ġpred icate
ĠI R
ĠP ack
w ave
Ġde tected
æ· »åĬł
Ġb and
T HE
as List
Ġor ientation
Î ¿
ĠD rop
ĠC lean
sql ite
Ġg a
good s
work s
col First
ĠPro vide
N ested
ĠC enter
éĢī æĭ©
Ġreturn ing
capt ure
x ec
m oment
se udo
Ġre vision
Pre v
f tp
vid ing
PH ONY
ĠU SER
LE T
ad r
Ġkey board
Ċ Ċĉĉĉĉĉ
ĠP ass
æĸ¹ å¼ı
j upiter
// *
oler ance
c make
FILE S
]. [
IS H
New s
( ["
Ġ ill
Ġw ave
SUP PORT
l ined
th ird
find ViewById
C at
ĠM ov
To Int
ĠS i
A Z
end a
Tool bar
) ],
ĠS SL
g ro
Fac ades
ãĥ¼ãĥ «
ĠL ight
ĠB rowser
con sumer
ê³ ¼
ĠE st
Ġnew s
ip is
bo ss
[] {
ĠCon dition
æĺ¾ ç¤º
Ġre placed
ST D
Ġg rep
UN KNOWN
x ee
graph ic
Ġan chor
({ '
aC redito
INST ALL
v x
:% .*
ENC ES
ud get
Un ion
Ġformat ted
Ġalign ment
Ġl ab
Ġex plain
Ġindic ate
Ġ<? =
ot ed
Ġm Ã©
ãĥ¼ãĥ ī
åĿ Ĺ
Ġy ang
åį ģ
B oot
ĠCO MP
Product s
Ġreport s
Ġdiscus sion
aCredito Punto
] -
d z
? ",
ion al
Ġb s
ĠRe pository
Ġ/** <
prob lem
Ġint ended
V m
Ġ à¤
ĠS creen
ãĤ Ń
ĠUs ers
TH ON
Not aCreditoPunto
x ed
DE C
Ġacc uracy
St roke
Ġspec ification
ĠAg ent
Ġsubstant ial
Ġp refer
UD A
P D
Ġh int
ì Ļ
Ø ©
Ġt id
Ġc u
om an
Ġw ent
Ġd ashboard
Ġa f
}, {
text bf
UT TON
å¤± è´¥
f av
Ġl inux
pos ing
Ab s
TIME OUT
Ġ" &
ĠC C
cs rf
Ð ¡
Ġcomplet ely
ME D
ME TA
Poly gon
spec ified
æĢ »
">( </
g st
ĠHash Set
H AL
ë Ł
EX IT
Content Type
sk y
ĠEN GINE
"] );
det ect
Ġmean ing
V s
IG H
Name Link
ĠV ue
Ġmap s
Ä±n Ä±
n m
ĠS yntax
Ġr x
#### ##
ich er
Pr incipal
B N
a id
Ġ čĊĠĠĠĠĠĠĠĠĠĠĠ
G LOBAL
ãģ§ ãģį
k afka
art ment
Ð¸ÑĤ ÑĮ
Ġlo ve
ĠIn tegr
ĠLear ning
Http Request
ĠU UID
et er
" </
play ers
a verage
Ċĉĉĉĉĉĉĉĉĉĉĉĉ ĉ
Ġserial ized
Ġ) }
Ġresult ing
Ġph ysical
b rowse
p res
S ink
q li
then Return
Ġh ot
ĠÃ ¨
K L
r hs
highlight er
Ġcon cat
To Array
as sembly
Serial ized
D AY
pe ction
to Array
A ff
å± ķ
ĠQue ue
Ġl arger
Qu ick
ta iled
Ġwarr anty
ĠJ an
Det ector
Att ach
sche mas
æİ¥ åı£
ĠM ed
ĠL L
Ġas pect
ud ge
d id
ur y
Un defined
ippe ts
g cc
Ġcol s
Ġdefault Value
he ap
ats by
ĠP ol
Ġloc ations
AL E
PRE SCRIPTION
Con version
! \
| ()
ĠS ync
ll vm
add Column
sect etur
po logy
è¿ °
per i
ĠSt atic
Ġpre c
tip o
Null Exception
Ġc m
E LEMENT
S lide
ëĵ ¤
E loquent
ĠM IN
è¨ Ģ
P reference
let es
N orm
Ġ/ =
pl ane
Autom ation
Reg ular
L AST
{ :
Ġrender ed
Ġrecomm ended
s rv
az or
Pr inter
ĠEvent Args
Comp osite
has OwnProperty
de legate
Ġde veloper
greg ation
éĶĻ è¯¯
Ġâ ľ
Ġlicense d
current Time
ah o
ĠNot ification
åł ´
ir q
Ġinter pol
æıĲ ä¾Ľ
S UM
n est
Ġ ud
Ċ ĊĠĠĠĠĠĠĠĠĠĠĠĠĠĠĠĠĠĠĠĠĠĠĠĠĠĠĠĠĠĠĠ
order By
ENT IAL
ĠP red
see k
st ell
ĠC RC
ak i
æī ¾
per form
Ġi prot
H our
ĠÂ ©
EXTERN AL
ys qli
SA MP
ãģĵ ãģ¨
ST ACK
Ġimport s
Constant es
NE CT
hes is
F G
V EN
aint ext
ĠCl one
è§ Ħ
jo urnal
ìł ľ
ĠAuth entication
r ink
ild card
IC S
source Line
Ġëĭ ¤
ri m
ĠU ri
cc ion
Ġpl ane
bern ate
ĠInstall ation
ç« ĭ
ac cur
Ġvar s
Draw able
ject ory
EN AME
) ")
- }
ĠT CP
st or
Ġo ch
M er
Ġsim ulation
hand lers
p ot
per f
Ġcal endar
ĠM ET
de ad
il it
Ġy aml
ar ante
å½ ¢
Ġplay ers
ic ient
sp rint
Ġposition s
IB ILITY
ĠArray s
g un
ĠCL AIM
Ġm ong
Error Message
AV A
F ee
A ir
mis c
semb ler
MODE L
y an
Ġ( #
Ġcur ve
:" -
Ġcons istent
Call able
Default s
") {
ì ĺ
Red is
ig ure
S dk
fr m
cogn ition
P ART
w as
ate ver
D a
Ġâ Ī
Ġe ver
Mod ify
Ġgr pc
Ġ!! }
B LE
Job s
hyper ledger
asci i
Ġ` -
pear ance
Ġde gree
quip ment
di an
Rout ing
Ġh over
ser de
ick ness
Response Body
ĠDE AL
Cell s
irm ware
Ķ Ħ
Icon Type
Cache s
Ġreport ed
ps i
ok er
num s
Ġmention ed
Ġl p
ĠCom ment
è§ Ĩ
****** *
SET T
Term inal
ãĥ¼ãĤ ¸
Ġre gistration
Cache d
+ (
ans ion
Se g
Ġdiff icult
ĠB ody
He ading
M LE
format ter
Ġcontain ed
cover age
Ġ Ùħ
download s
Ġset Up
pub lished
ï¼¯ ï¼¯
Ġc rypto
iv ation
ĠST ATE
x eb
ĠO rig
Ġ__ ('
Ġh aven
Ġbound ary
Ġstat istics
b ert
OP T
Ġâ ĨĴ
åħĥ ç´ł
ab i
qu ared
Tag Name
o a
Ġs uit
á ŀ
Java Script
pe aker
s pect
vision ing
é ł
ĠD ict
P V
ent ially
ĠÐ ³
ĠPart ial
). __
z k
ĠI L
<< "
Ġ' :
é¡¹ çĽ®
O s
j d
h an
CON F
ĠThe me
ĠObject s
Acc el
t ol
z d
compat ible
Res ize
SY M
Ve locity
ãģ ¤
( **
PL ICATION
ĠAl loc
Ġe u
Ġk an
å¼ Ĥ
me ss
d og
=" '
ĠVal ues
çī ©
Fatal f
/ <
Q Q
n ight
Ġn y
ĠIn sert
Ter min
e ast
z f
ãĢĢãĢĢ ãĢĢãĢĢ
Ġav g
Ġs quare
Ġfollow ed
en ÃŃ
Ġê ¸°
List eners
cell s
H W
Implement ation
v v
urn ished
ãģ¦ ãģĦ
NotaCreditoPunto Venta
m ime
ì ¹
er os
Ġimpro ve
Z Ã¼ritÃ¼Ã¼tsch
ĠS up
pro vince
M ajor
t g
v ement
> }
ĠW R
bu d
D en
er min
Æ° á»
uc ation
: [
iffer ent
ump tion
åĳ½ ä»¤
th rift
ne utral
Ġauthor s
oper ations
Rout es
V B
Ċĉĉĉ Ġ
Ġax ios
Ġcop ied
:: <
> @
alloc ator
Ġde mon
STAT IC
Per formance
Ġcompat ibility
Ċ ĊĠĠĠĠĠĠ
ĠW IDTH
ĠCON T
' </
Ġst e
Inf os
? </
D MA
is ions
ĠEx port
P ick
status Code
i ans
ĠMon o
s am
ip h
Ġc line
My SQL
Ġn py
Ġan notations
ĠGL Constant
Ġtool tip
Par a
Ġb al
oint ment
y arn
is EqualTo
Ġs atisf
comp leted
( ...
Ġsec ure
Ġ eng
re ach
ãģ ł
Ġs ca
j dbc
Ġd d
Ġ} \
Ġdepend ing
(" _
Ġl on
ven ue
ĠDI RECT
mer c
ĠCall back
Ġred uc
b ag
į° ìĿ´
Ġsign ificant
£ ¼
ub ble
o sed
(' _
×Ļ ×
ĠAUTH ORS
n os
get Context
ç ¥
lab or
Ġexception s
Ġt icket
B g
åĪ ¤
B and
Ġm apped
ĠR oot
ãĤ ģ
ĠIter ator
k k
ĠIn v
ĠDe ep
^ \
ey e
ĠFunction s
ãĥ Ĳ
re comm
åĽ¾ çīĩ
file Path
U U
Ġcover age
ĠDEAL INGS
ãĥĥ ãĤ¯
C ss
Bl ank
Ġan gular
Ġ -------
let s
Ġsmall er
Prob lem
Ġpost s
Ġ{{ --
out ine
cond a
EX EC
Ġc ycle
Ġs pl
Ġrel ation
Ġh orizontal
Get Type
Index ed
[ <
Ġar row
æŁ¥ è¯¢
Î ¹
sp ro
assert NotNull
Value Pair
H I
ve hicle
Ġtensor flow
Ġmut able
ac cel
AB ASE
ĠA P
ĠD ynamic
ĠCarbon IconType
L atest
U ML
ass ignment
UL KAN
) &
| ::
Drop down
N avig
C li
Ġf ol
ĠH yper
ĠDE LETE
Click ed
åĬŁ èĥ½
ex c
Ġ onto
Operation Exception
Ġs ans
Ġn h
ä» Ģ
Ġresponse s
S ources
Pro ducer
Request ed
å¤ ´
i ostream
Ġa go
G I
p ix
Ġlist ing
Ġread s
f ar
list ing
init ely
> #
čĊč ĊĠĠĠĠĠ
Ġcomp arison
) ])
f printf
æĬ ¥
con c
( --
ç Ł
ĠS ocket
C MAKE
S ales
Ġshow ing
ãĥ¼ ãĥĪ
S IG
Ġs f
built in
R obot
Ġport s
B log
assert False
Ġar m
ĠAp ply
Te le
ĠCustom er
Ã ¦
re y
Ġs ublic
Ġcom munication
Num bers
er ical
hard ware
de coder
IS O
L R
Ex tended
ret ch
G reen
Ġtrans actions
Ġcr ash
Ġst udy
DO C
h ance
Ġm g
ĠNON INFRINGEMENT
G PU
/ ><
ĠE m
ÑĢ Ð¾Ð²
ĠP L
çīĪ æľ¬
Unt il
Ġsublic ense
C orrect
TIME STAMP
Ġst ri
ĠB ootstrap
ĠCal culate
Ġlist en
ber g
EX PECT
Ġmin or
Sim ulation
íķľ ëĭ¤
ãĥĹ ãĥŃ
" '
Y O
ĠE mpty
right ness
Do es
H ours
Re store
åį Ĺ
ĠG R
ed er
C b
ms dn
Rel ated
Ġdirect ories
C ACHE
as se
Ġin vol
Re v
v ault
ĠM ongo
ĠSp an
ĠG uid
Ġt ot
j it
sh ake
it t
Ġpl ain
? ></
M i
w ell
con tr
ĠMethod s
Un icode
To List
Ã¤ n
A O
cc cc
dis cord
reg s
W ER
ED IT
Ġimp act
Ġex emp
ve locity
__ ':
Ġ? ,
Ġopen ing
Ġm l
alloc ate
è¨ Ń
], [
Ġag ree
Ġlimit ed
" }}
O MP
k ar
Hash Code
hash Code
Ġs sh
a Ã§Ãµes
num bers
ĠCol ors
P ipe
B SD
Property Changed
Ã© r
res ume
ib ling
áº £
P DF
Ġin coming
User Name
App Compat
scri bed
ĠS PI
Ġth us
Ġser v
Mov ie
(' [
y ellow
Ġformat ter
I FI
im ator
x r
ĠB ool
ke eper
Ġbas is
N eed
Ñģ Ð¿
Ġdata Type
fer red
ĠCont ribut
è® ®
RE SH
Res ume
So ft
n ick
re ci
Transform er
el i
h ours
M IC
W all
Ġt v
Ġmat ched
Del ivery
Red ucer
Ġpur poses
Ġgrad ient
HE IGHT
B UTTON
h ist
em b
... </
Ġc ircle
fe at
no v
Build ing
fin ished
Ġpermit ted
Ġ[ $
Ġexec utable
QU ERY
ÂłÂł ÂłÂł
C a
H ard
c ategor
æİ Ĵ
ax es
In voice
Comp arison
ĠConst ant
strict ed
AA A
Ġalloc ate
As String
Im mutable
D amage
up les
define Property
ç® Ģ
urren ce
V ue
m ass
ĠF IX
B est
Ġsp ell
To ast
è Ĥ
de precated
ĠChar acter
Ġfl ush
Part icle
æ¶Ī æģ¯
b od
-- }}
pixel s
Res olve
fort un
Ġes c
Ad just
G Y
Ġex change
ĠRe view
ĊĊĊĊĊĊĊĊ ĊĊĊĊĊĊĊĊ
Ġp icture
Ġâ ĸ
Ġlo st
Exception s
l j
ĠC ent
(" {
à¯ ģ
ĠP arent
Ġmap per
Ġdebug ging
ANG U
Ġ& '
æ Ĵ
ĠU SA
jsp x
f und
ìł ģ
publish er
áº ¿
faster xml
Ġs ist
z o
En cryption
è º
er g
ĠP ush
åĢ Ļ
Ġ_ )
Ġbad ge
ĠSe cond
ç ħ
ĠNOT ICE
met ic
v ote
ĠConfig ure
l hx
å ¡
ph abet
Il legal
al gorithms
add resses
Ġhand lers
Unexpected EOF
Di gest
l w
Av atar
Ġpattern s
SCO PE
ĠL ock
con straints
ĠE S
EX CEPT
No Error
Ġph oto
Ġlanguage s
å¾ Ħ
è¿Ĳ è¡Į
n ome
åħ ±
age m
}/ {
Track ing
" })
add All
Ġhe ap
Z Q
r ho
Ġfix ture
dig it
åŁ Ł
Ġf und
Bu ilt
Ġ čĊĉ
in der
no logies
Http Client
Ġc andidate
Or den
vs code
ãĥķ ãĤ
Ġt aking
ex cel
ĠCN W
om b
Ġk ull
ch i
ãĢ Į
prec ision
** |
I H
T ASK
Ġ -------------
Ġel it
min us
pop over
ãĢ į
çĶ¨ äºİ
ĠST ART
ä¸ ľ
LE X
Ġany one
à¦ ¤
rel u
S leep
f ab
Ġf aster
Log o
ÐµÐ» ÑĮ
> >(
Ġagre ements
Ġrefer enced
N u
Ġ( **
ĠO PT
Ġ íķĺ
Ġcount s
Ġres ize
T LS
q ty
"> .</
Ġmark ed
G M
cl ause
t im
unc ate
Out er
data sets
Icon s
Ð¾Ð»ÑĮ Ð·
Ã °
ĠG OO
z A
stream s
ĠSc ene
ĠSt at
pro cessed
mod ify
author ization
å± Ĥ
ĠQuest ion
Ð Ĵ
ier en
check out
ĠLay er
Re gression
c up
í ĥ
as er
AN Y
s uggest
get Num
exec utor
String Utils
class ification
Ġs ob
cal cul
ten ant
hand led
e asy
w ide
Ġs impl
ĠEx tract
a ver
ĊĠĠĠĠ ĊĠĠĠĠ
FO L
Ġ uc
Ġh yper
Ġme ss
è¯ Ŀ
h ero
l h
Ð½Ñĭ Ñħ
é ©
Ġg row
. %
an ies
Ġre cipe
Ġun ion
we apon
Ġmat ter
c redit
ĠA ug
ĠH andler
um ulator
sc all
~~ ~
åŃĹç¬¦ ä¸²
Ð ļ
char set
Ġv tk
ĠS L
serial izer
|- :
ĠR uby
sh oot
Ġstate ments
Ċĉ ĠĠĠĠĠĠĠĠĠĠĠ
k el
Ġremov ing
S uggest
Ġst ory
Event Type
S Q
m agic
Ġc riteria
PRO P
Ġp ause
ĠTo ast
re gistration
({ },
h ack
DI O
ĉĉĉĉ ĉĉĉ
Ġpart y
uff icient
neg ative
ĠG iven
X aml
AT TRIBUT
clean up
Pro vide
Ġcom munic
Ġcomp uted
Ġindic ating
ar an
Ġloc ated
å¼Ģ å§ĭ
ON ENT
sw ith
p wd
ol lar
Window Listener
ĠE ST
Ġin cre
Ġn icht
é Ł
Ġcontain ers
arg c
Table Name
Ġìł ķ
activ ation
U uid
ist ency
Ġcl ause
Work space
PL ACE
s ynt
Ð¸ Ð»
ìļ Ķ
Ġa ir
Ġpl aces
Err UnexpectedEOF
Ġm ais
ĠP olicy
ĠF e
def s
Fl ash
RE LEASE
ast ype
Grad ient
Ġas ynchronous
Ġt b
Ġcomp act
Ð ŀ
Ġst ores
Detalle NotaCreditoPuntoVenta
Ġs un
c ertificate
al ic
éĵ ¾
M V
E r
g able
ed or
et e
Ġs ocial
ĠR GB
ĠBOO ST
s izes
ĠD ie
Ġob s
um l
(' %
il le
ĠP DF
ĠID s
L im
Ġ ãģ®
ad b
inter rupt
Ð¾Ð ¿
yn omial
to List
re presentation
al am
Y E
-- )
un ct
; //
Ġmod ifier
ke leton
Ġqu ote
_ :
Ġno ise
Ã© m
à¦ ®
ĠExt ension
H C
() >
ä¸ Ķ
sub title
Mut ation
Ġed u
Ġbackground Color
ĠV R
Ġun expected
Feed back
Associ ation
P ref
Ġe ps
n ested
sp arse
Ġn d
:: :
sp here
(" ../
` ).
Link ed
Ġp iece
ĠGener ator
De precated
ĠEx pr
Ġsc r
Ġun icode
vid ence
V y
ad oc
Ġfloat ing
Collect or
Ġw p
Ġd ire
å· ±
get Int
Double s
Class ifier
serv ations
VAR I
un pack
ìļ °
Ġcancell ationToken
m oney
ãĥ ŀ
Part y
C nt
Ġy ii
IB LE
ä»Ģ ä¹Ī
else if
ME DI
bar s
fl u
ĊĊ ĊĠĠĠĠĠĠĠĠĠĠĠ
ãĥ ĸ
Ġare n
CHAN NEL
N R
Ø ¹
Ġ ãĤĴ
Ù Ĥ
Public Key
agr ant
am os
el d
Ġsent ence
H y
Tree Node
Ġdemon str
D ump
] ()
is Array
Ġn ome
ab ling
\", \
//////////////////////////////////////////////////////////////// ////////
Ġ' &
Ġh w
Ġpro jection
ĠW rit
ãĢĤ </
pro g
Out Of
ĠSet ting
ĠU S
ĠAdd s
ĠJSON Object
Channel s
ĠACTION S
ĠEx it
Ġs ymbols
SH ORT
: .
ic ion
Ġa mb
str len
a el
Ġde velopers
ĠCom mit
an co
Ġ` @
Ġ{ !
ex plo
Con cept
gr af
Plugin s
Ġutil ity
åħ¶ ä»ĸ
ul ong
ï¿½ ï¿½
opens ource
=" {
Ġformat s
flat ten
éĩ ĳ
deli very
S el
ĠGu ide
F old
Ġpro viding
section s
ĠØ ¨
tr action
Ġarch itecture
f Ã¼
get ting
in ity
Up grade
anc ial
D on
F M
ĠCollection s
$ ,
end o
Ġme as
Ġdata sets
Ġshould n
N B
Ġt ex
st o
Ġ` "
å° ĳ
Ġb ank
ÃŃ a
ĠâĢ ĺ
Op acity
} ";
Ð°Ð ´
d ma
n ik
Comp ra
F s
Ġfind ViewById
Un ary
s en
({ "
Ġsection s
predic ate
j j
Ġre interpret
ĠL IB
"> #
null ptr
ĠPower Shell
Ġaltern ative
ĠP rep
èģ Ķ
Ġp en
mock ito
Ġdi ag
Ġc oin
un ity
Or d
Ġ Ã§
user data
tri p
çĽ® å½ķ
) ";
X P
"] [
ĠEns ure
att ack
Ġspr ite
O i
f hir
id u
upy ter
JSON Object
S Z
com merce
Ġtrack ing
Hand lers
writ ten
Loc ations
Ġte le
l il
Un ityEngine
Ã¡ rio
tern ational
Ġend s
Temp lates
Account s
C AT
Ġoperator s
Qual ity
Ġg p
Ġen coder
inf os
Ġcor ner
ĠF etch
x aa
inter p
A wait
B ootstrap
r ar
| `
CON TRIBUT
Å¼ y
an imate
Ġ' (
Call ing
asset id
us hed
Ġe qu
jet brains
Ġc atalog
ĠSum mary
res olution
ĠTest ing
ĠĠĠĠĠĠĠĠ ĠĊ
ERR UP
ĠCurrent ly
SPE C
c wd
ĠC SV
ĠF actory
ĠPro gress
à¦ ¨
\ <
n od
em ale
Ġb ias
ĊĠĠĠĠĠĠĠĠĠĠĠĠĠĠĠĠĠĠĠĠĠĠĠĠĠĠĠĠĠĠĠĠĠĠĠĠĠĠĠĠĠĠĠĠĠĠĠĠ Ġ
Ġbit map
Ġ iv
DIS ABLE
char At
ĠDe velopment
li me
Opt im
dir s
Ġb ootstrap
cur ve
A ws
N L
c ps
ifi able
ĠM ust
ĠÐ Ł
Start ing
H ASH
U K
e very
re ceived
Type Id
TY PES
ĠApp le
Ġp ou
ĠC EL
o e
ĠT ools
not ifications
ĠPro xy
åł´ åĲĪ
S py
Up dates
- \
Ġve locity
HO W
N ORMAL
Date Format
è¿ŀ æİ¥
ĠPar a
:%.* ]]
Ġun used
Ġp m
Ġ{ -
Ġto ok
Ġre member
ĠB atch
res olved
Person al
bu ffers
LE AN
_ "
ĠProto col
Refer ences
Ġh older
Ġcause s
../../ ../
serial ized
Ġalloc ated
ĠVert ex
w heel
Ġre ach
ĠNot Implemented
sprint f
Ċĉĉ Ċ
S al
vo y
tool bar
èĩª å·±
h ib
res olver
M ass
er d
Ġs pect
Ġst able
__ );
Ġrun ner
A verage
ĠC RE
ĠE qual
filter ed
UT C
R W
not ice
mong odb
GR AM
display Name
ĠH RESULT
MEM ORY
sp awn
âĢ ¢
part ner
Ġmov ie
k al
St e
ãĥ³ ãĥĪ
ker as
bas ename
Pro jection
ST OP
member NameLink
ãģĵ ãģ®
f requency
Ġp ref
Request Mapping
Ġë ĮĢ
Ġqu antity
ĠREQ UIRE
ĠC S
ĠL P
Http Response
pattern s
pro vide
L ua
Sign ed
G ap
m box
** /
Ġwork around
v an
ĠPro vider
Ð° ÐµÑĤ
R AM
Ġ{ !!
Ġfil led
Coll ision
ĠEL SE
p urchase
ap id
av y
fe cha
Code Dom
Ġconn ector
m usic
lic ity
Vert ices
x df
ag ue
Non User
sch ool
F ULL
ĠM L
/ \/
x i
config s
ro uting
Per formed
] },
T icket
Gu ide
P URE
Ġc x
find One
Ġhel ps
sv c
ĠSw itch
Ġde signed
pro f
ĠÐ µ
Ġuse Effect
è Ń
Ġp k
T mp
ol t
ä¸į èĥ½
ĉ Ċ
Ċĉĉ ĠĠ
Debugger NonUser
à¸ ¥
al tern
pl aces
k es
Ġ/// <
DO UBLE
ĊĠ Ċ
Ġal le
æķ° ç»Ħ
cent ral
ĠP ull
AL LOC
Ã ¬
he art
Ċĉ Ċĉ
set Name
: $
f ork
ĊĠĠĠĠĠĠĠĠĠĠĠĠĠĠĠĠĠĠĠĠĠĠĠĠĠĠĠĠĠĠĠĠĠĠĠĠĠĠĠĠĠĠĠĠĠĠĠĠĠĠĠĠĠĠĠĠĠĠĠĠĠĠĠĠ ĠĠĠ
amp p
v ia
me ga
Ġunit test
p ent
Ġë ¶
IST ER
arg a
ĠLOG GER
Ã Ł
Ġse l
ĠP oly
ĠU rl
Ġen crypted
ĠArgument s
ar th
PACK AGE
RE SP
g iven
v tk
om a
AD MIN
z ione
Ġhapp y
ĠF ail
Ġes cape
et te
Ġspec ifies
comp ressed
cl ang
comp letion
D ark
æ Ĳ
æ° ĳ
c ube
B ug
c ampaign
s uc
style d
Ġge m
AT TER
Index Of
} ')
>: ]<
or i
Url s
Result Set
ST ORE
ar ily
Ġoutput Id
C AR
Ġlog o
ag g
go al
ular ity
čĊčĊ čĊč
!!!! !!!!
d atab
Ġw ish
ee ded
es is
ãĤ ¸
EXT INF
ln k
we ather
" %
/ '.$
Ġt vg
Ġf am
ode ga
ET CH
Ġexpress ions
æł¹ æį®
Th ank
èº «
ÑĤ Ð¸
Ġhost name
Ġre cur
Ġnot ifications
à¸ ¡
æĶ ¿
ë ª
us pend
ĠA RE
Lay ers
u o
ĠP ORT
Fin der
Ġear ly
M otor
par s
i OS
pro cedure
build ing
Sp acing
ĠS UM
St rict
j Query
ĊĠĠĠĠĠĠĠĠĠĠĠĠ ĊĠĠĠĠĠĠĠ
ĠMy SQL
M ATCH
è·¯ å¾Ħ
M PI
Object Type
ĠId entity
Med ium
IsNull OrEmpty
B G
Ġjupy ter
N om
ache s
į°ìĿ´ íĦ°
' {
] `
Ġre placement
bind ings
l isp
clo sure
/ -
ment e
que e
CH O
pret ty
r n
ĠC amera
min i
ĠĠĠĠĠĠĠĠĠĠĠĠĠĠĠĠĠĠĠĠĠĠĠĠĠĠĠĠĠĠĠĠ ĠĠĠ
ĠRed is
P an
accur acy
D ock
el le
Ġjava fx
af ari
xd c
ĠAs set
d ie
Ġs cores
Ġad apt
host s
M K
Ġs ays
Sm art
ĠF ast
="{{ $
æ¡ Ī
Ġcon ver
Ġtr ait
contains Key
ĠD er
Ġreport ing
g id
ic er
Ġg ap
Ġr an
ĠExample s
:"- "`
ĠOn ce
Ġproto impl
Map s
Pointer Exception
M ess
Ġa o
ĠF ORE
Or ders
Ġr f
Fl ush
åĨ µ
pe m
no ise
require ments
as ide
åĲ Ħ
S ingleton
ĠSt Object
Ġd rive
">< !--
x ampp
è§ Ĵ
Ġg t
Message Type
TO OL
Ä± nd
Ġ< %
OPTION S
) %
! ")
/ `
Ġf ooter
ĠRE FER
ĠB L
Ġmark et
Ġeffect s
æ Ĥ¨
st aff
start swith
n th
Sub scribe
åĭ ķ
Ġinter action
"> =</
Ġle ading
Ġsecond ary
Ġm ot
ANGU AGE
n ic
ĠAl ert
åĩ »
tod ay
S uch
er en
Package s
åĨ ³
ä¼ ĺ
D V
ĠDefault s
N X
f ault
Ġbe an
Res er
Ġsv g
W ater
alo ad
openg l
W P
Ġl hs
EN ER
no DB
ç ¢
PRO DUCT
çĽ´ æİ¥
> ');
l hs
ar avel
cor por
stack overflow
Ġprogram ming
Ġlog ical
c amp
x ab
ĠO f
Capt ion
Int ro
Ġact or
Ġv ocÃª
æ£ Ģ
ĠS uper
ibr ation
D EN
Ġmin ute
h ang
č ĊĠĠĠĠĠĠĠĠĠĠĠĠĠĠĠĠĠĠĠĠĠĠĠĠĠĠĠĠĠĠĠĠĠĠĠĠĠĠĠĠĠĠĠĠĠĠĠ
Ġrep lic
ĠSpr ing
Ġd ur
") [
j wt
Ġ@ "
type param
} ".
op code
Det ection
Ġbox es
Full Name
s ass
Ġ` [
) (((
spec ifier
T s
util ities
ĠGraph ics
äºĭ ä»¶
F x
enc ing
chart s
ak s
L orem
Ġr ay
lock ed
Ġc ri
Des cri
Trans late
Br ush
Ġ= ~
ĠCh art
sh utdown
---------------------------------------------------------------- ----------
gre y
F requency
ĠC ALL
Ex act
Byte String
V w
g an
g ene
ĠCh at
Ġ lic
ĠF ri
Ġp Ã¥
UST OM
ĠA ST
ph rase
re ceiver
ĠG ithub
static method
çº¿ ç¨ĭ
---| ---|
i y
ul us
ĊĠĠ ĊĠĠĠ
Ġdig its
ĠL imit
CRE T
t alk
ase d
ib m
Ġro utine
Ġc t
Oper and
ole c
iment o
r ails
Ï Ħ
je kt
ä» ĺ
mut ed
bit map
"> ,</
==== ==
Ġ\ (
Ġ% .
c rop
u is
C ycle
ch rom
ãĤ ĵ
fortun ately
å¿ Ĺ
n z
CON NECT
ol ate
L arge
V ICES
li ze
æĬ Ĭ
d raft
ĠWh ile
c andidate
per malink
Ġre name
Ġl ate
Z Z
Ġ: -
åı į
SV G
im s
. },
æĻ Ĥ
L ambda
Ġst derr
ĠC r
put s
pos able
MLE lement
cess ary
b ul
} %
Ġout er
à¸ µ
nÃ© es
in itialized
ĠM X
Ġor d
è® º
Ġí Į
Bet ween
ÅĽ ci
Ġ` $
Ġcontribut ion
Sw ing
Ve hicle
Ð Ĳ
IN C
ä¸į æĺ¯
Ġtab index
Ġsc en
çŃ ¾
Ġj oint
Be atmap
Ġest e
E p
t ap
Ġaccept ed
COL UMN
ĠĠ ĊĠĠĠĠĠĠĠ
Ġle ad
O ID
x af
ĠAtom ic
s ong
Orden Compra
er gy
Mat ches
Ġc f
čĊčĊ ĠĠ
root fs
æĹ¶ åĢĻ
O ct
g od
Le ave
è¯ Ĩ
ĠUp load
ä½į ç½®
ĠW idth
ĠAr row
openc v
] $
ĠCON STRAINT
und o
| <
Ġr pc
ĠÐ¿ Ð¾
ĠAc cept
Dist ribution
S andbox
de e
DI M
ribut ed
db g
Background Color
Wh ile
Ġê² ĥ
sl ash
CC CC
ch en
ĠR T
j shop
Ð Ŀ
ĠE lastic
add le
è®¡ ç®Ĺ
ĠLess er
Ġt abel
Ġe j
ĠWh y
getElement sBy
ĠB ound
trans actions
f lip
Ġf urnished
Mon o
ĠHe ight
Ġd c
:\ /\/
] ',
js x
ar ange
ĠÐ »
ãĥĥ ãĥĪ
ĠExec ution
Alloc ator
n im
per formance
AP PLICATION
M G
Ġcomp ilation
æĪĸ èĢħ
M otion
un safe
Ġw ide
åĪĿ å§ĭ
çĶ µ
Ġcl ang
Ġcause d
icip ants
OVER LOAD
ch ip
Ġlist a
Ġz a
ĠM ouse
Re cipe
č ĊĠĠĠĠĠĠĠĠĠĠĠĠĠĠĠĠĠĠĠĠĠĠĠĠĠĠĠĠĠĠĠĠĠĠĠĠĠĠĠ
Ġen viron
Ġ/* !
Ġbreak ing
Ġcommit s
ĠGe o
ãģ§ ãģĻ
Ġwr apped
r sp
ĠIN TER
Ġcard s
Ġgu arante
un s
ĠR aw
J O
ĠH ave
vers al
C oin
insert ion
Ġsolution s
æ´ »
ac s
Ġe g
Ġest Ã¡
DB C
Ġcallback s
Ġoptim izer
Ġc amp
čĊĉĉĉ čĊĉĉ
LIST P
s alt
"> {
ĠCHAR SET
P en
ĠI DE
c red
Ġp referred
ĠTr ace
Ġgu ard
S izes
Ġmark down
mat ched
Publish er
itel ist
ex am
Id le
pag ation
(' ');
Ċĉĉ ĠĠĠĠ
č Ċĉĉĉĉĉĉĉĉ
gov uk
ĠDoc s
ĠA ut
ĊĠĠĠĠĠĠĠĠĠĠĠĠĠĠĠĠĠĠĠĠĠĠĠĠĠĠĠĠĠĠĠĠ ĠĠĠĠĠĠĠĠĠĠĠĠĠĠ
Ġcon sectetur
Ġb io
ĠT imer
ĠAdd itional
/ ,
_ %
it i
Ch anging
Min utes
å¢ ĥ
per c
ĠL D
å® Ł
reg ular
Ġcoord s
k h
ë Ĥĺ
æµĭ è¯ķ
çħ §
on us
ĠC apt
out il
çĶ »
xb b
Vis it
Ġsig ma
Ġprob ability
Char Field
åĳ Ĭ
Ġstart up
Ġde tailed
bo th
Bu y
æİ ¨
Char s
Sp awn
Ġjo urnal
g w
q i
__ ()
fil led
Ġin dependent
Ġl bl
Ä± ÅŁ
ins ic
é £
ĠA nt
S yn
v ements
Al ready
S pl
Ġnew ly
Ġmem cpy
CONTRIBUT ING
s ink
ad j
ãģ ¿
Ġad ipis
Ġro uting
Ġsome times
ĠOff ice
Ġtra ffic
n ex
è ©
ĠI C
é¡µ éĿ¢
M ongo
m gr
Ġg round
ĠG er
Ġkey words
Ġno qa
Ð½Ñĭ Ðµ
Ġv endor
Ġthere fore
uplic ates
: \\
Ġget Name
ax i
Ã¤ nd
x da
ver sed
d ar
v ocab
................ ................
moz illa
r ich
cre ator
rows ers
Ġbefore Each
er able
has Next
æľįåĬ¡ åĻ¨
effect s
ĠUP DATE
ĠCO DE
Ġg uid
Ġnumber Of
p ane
ĠDef inition
Ġhold s
onom y
l ite
Ġ ä¸Ń
[] >
Cover age
_ '
SER IAL
Sort ed
Access Token
lar avel
çİ ĩ
ulk an
f its
al ty
Ġh ack
i ate
env s
')}} "
T ES
At trib
{{ $
spec s
Ġcalcul ated
REG ION
x db
Ġb es
lat itude
Ġpur ch
Ġedit ing
AC KE
Ġë Ĳ
th ink
ide os
Loc ator
a es
} &
Ġon Create
ķ Į
Ġst rip
======== =
time line
T od
il on
NN NN
D ie
In c
RE L
ĠU int
theme s
Be arer
T V
ĠV ULKAN
Ġun iform
}/ ${
Dim ensions
>{{ $
(' :
Not ifications
ĠS ide
Ġsub sequent
j c
open ssl
ç¾ İ
u h
Ġstruct ures
Ġover lay
H over
og en
Ġyour self
Ġpro duced
Ġ ĊĠĠĠĠĠĠĠĠĠĠĠĠĠĠĠĠĠĠĠĠĠĠĠ
re nt
Ġcl azz
ĠCo ord
Ġr a
I VER
IM G
ĠFORE IGN
Ġ' =',
ĠT wo
Ġel im
Ġstudent s
ĠU buntu
E poch
ret ty
min imum
ĠComp any
ac ute
s nap
ed x
Ġle af
chedul ing
[ !
x cd
O ffer
Ġcon d
set ter
d pi
Ġ{ .
tr ust
Ġ{} ".
g lyphicon
Ġre spond
pect ive
Ġëª ¨
or ientation
max imum
Ġmedi um
Ġsub process
Ġvector s
Re presentation
=> {
M g
ok emon
ĠUn ion
P AY
tr anspose
ĠH o
ĠN ov
sub scriptions
Ñĥ Ñİ
Spec ific
ro te
Ġch ance
LI BR
pl ate
res a
sm ithy
Ú ©
Ġa zure
Ġm c
St ation
ãģ Ĭ
pair s
ma int
ox el
Ï ĥ
ç ı
ĠS n
ol lo
With Context
åĮ Ĺ
p it
Ġinter ested
y label
ut m
ut s
'] ),
Ġcombin ation
comp act
Rot ate
C ENTER
DEF INE
Ġ ####
ĠO FF
Ġ} ))
Ġw orth
ĠP air
è® ¿
IO S
ĠÐ¸ Ð·
LAP ACKE
o ffer
er ase
L and
i ar
ĠA PP
UN USED
Ġpro pri
ĠCal endar
Ġc uda
Sec ure
à¸ ļ
uro pe
acon da
Q String
pe ople
Cre ating
h q
Ġc trl
Ġsp awn
Ġatt achment
IR Q
Ġserial izer
Ġbind ings
Ġbig int
ww v
ub ic
ĠE valu
align ed
inger print
åı Ĺ
==== ===
Ġcon ven
======== ===
az ioni
G iven
in el
sp lice
ãĥ ł
. [
n of
over n
get Content
Lo ss
Ġacc el
Ġver w
ĠMon itor
g as
be e
Ġinvok ed
Ġapp lies
ĠSt udent
x cf
Ġmin imal
aa a
Ġpop up
optim izer
Ġbecome s
ĠSTAT US
K eep
che my
Extract or
> ".
m igration
Ġchar s
Des cript
Ġm alloc
è ĥ
In flater
Ġme s
add on
æ¨¡ å¼ı
çĿ Ģ
Image View
Ġd m
cc c
apro ject
p olicies
as hes
ch k
Ġarg parse
Ġre ached
ĠC ap
View port
a udit
Ġapp reci
Sub scriber
stat istics
AB C
u je
Ġcho ices
è¨Ń å®ļ
Ġst mt
ĠD uration
Ġg ateway
Le an
`` .
x path
is co
mem cpy
it Ã©
è¾ĵ åĩº
ĠD one
ĠRe place
Ġe le
Ġ?> ">
ov y
åıĺ éĩı
ut c
Ã© n
åŃĹ æ®µ
ãĥ ĳ
ci Ã³n
un ix
Ġ* );
lect ric
ra ises
Ġvis ibility
Ġ åľ¨
Ġs d
ane ous
Ġinterest ing
Column Name
ÐµÐ ³
S y
connection s
WA IT
Ġtr ade
Ġtrack er
Ġ# -}
J NI
>> ,
x cb
ang an
Ġu v
ç ª
) ];
ĠÐ Ĵ
Co lour
S CHE
m irror
å ĸ
ĠO perator
Ġget All
ĠSe quence
position s
B ulk
ĠT IME
Ġ}} >
Ġwon der
Ġinvest ig
ĠF ore
port folio
Tr ade
Un supported
Inter action
g row
Ġ čĊĠĠĠĠĠĠĠ
Per fil
st a
Ġ} ]
ĠW HEN
dis count
it r
Ġappro x
æı ı
INTER NAL
ãģĭ ãĤī
% ^
ac a
Screen shot
Ġ'../../ ../
Ġg er
Ġfile path
ĠInt el
BU S
ìĻ Ģ
V ED
PE G
nd array
BIT S
ĠBit map
âķĲâķĲâķĲâķĲ âķĲâķĲâķĲâķĲ
åĪ ĩ
éĥ¨ åĪĨ
cre ation
ĠDes criptor
CON NECTION
util ity
RGB A
g old
Ġso ft
Ġê ·¸
ĠL ength
=' #
Man age
ëĲ ĺ
PROTO BUF
ric ao
Ġtrigger ed
Power Shell
Ġqual ified
E mp
è Į
Connection s
Ġ ign
ug i
DO MAIN
Ġbug s
Ġll vm
Ġr ating
ant ics
Ġgl m
} '.
ĠC annot
Ġnot ebook
âĶ ģ
Ġoptim ization
x sd
un set
ĠO Auth
// #
Al location
B i
ST IT
Add resses
Ġpr incipal
C AN
table Name
Y P
% \
G LE
u u
Ġch osen
we ep
ĠIn dic
Ġfail ing
Ġoper ating
ĠP IN
Ġcons ume
Ġt en
gin x
Ġre peated
B old
ĠT LS
R ing
FI RST
| }
B K
G est
s ale
Ġf all
ĠD ump
pro files
Ġcom bine
Ġ} ],
The se
ç« ł
b idden
=" +
Ġan no
Ġpri me
ä¸į åĲĮ
bud get
PRIV ATE
ia o
qu er
agn itude
é¡ »
Ġpredi ction
x label
Ġest ab
Ġ gest
Ġn ombre
Ter ms
ĠA SC
ĠW arning
SEQU ENTIAL
Ġf o
ag ers
Draw er
xa e
Collect ors
lcs Status
l ane
m aybe
and ra
igu ous
Ġp aint
os c
AC L
Ar m
COMM ENT
k m
* )(
Al tern
l x
st ere
Ġport al
çķ Į
ac cord
ãģ Ŀ
ç ģ
Ġin strument
æĥħ åĨµ
T enant
X L
IC O
ĠBe fore
ĠHel p
A ES
ib us
h ren
Ġj ed
EN U
C irc
ĠN av
ps z
ĠBuffer ed
Ġr ing
toHave Been
top ics
term inal
Ġquick ly
te ams
C y
ĠCon tract
å¿ «
npm js
T rip
j ump
Per f
Ġexec uting
ex act
Un safe
Upper Case
Y S
ĠF I
ĠG ood
ance led
Ġar bitrary
SP AN
] **
str y
Set ter
match er
BO DY
Ġ ----
Ġme ant
ãģ ĳ
Tr ait
draw able
Document ation
il a
and a
ĠEx ternal
RE SOURCE
Contract s
r ices
Ġg c
cus sion
={ `
ĠAn alytics
J T
mail to
Ġvis itor
dump s
P ose
ë§ Į
E G
Ġcom bined
}` ;
Ġa i
Ġl v
ĠM obile
no op
Ġbu y
Ġknow ledge
li e
Ã¡n ÃŃ
A ck
ell ig
Ġwas n
Ġde serialize
Test Method
e ah
ow l
est er
Ġbe hind
pat ient
st reet
Ġgraph ql
sel ves
Ġ å¦Ĥæŀľ
Rem oved
ìŀ ¥
ĠT X
dd y
ĠPar am
å·² ç»ı
Assert ions
ĠS ound
Ġdig it
W HERE
ad vanced
qu it
ĠPl an
ĠFeature s
å®Į æĪĲ
B roadcast
Ġt abs
es i
å¼Ģ åıĳ
è¶ ħ
P iece
Ġp ing
cor ded
CR IP
åıĳ éĢģ
============ =
de serialize
Ġwh atever
e i
| {
Ġmechan ism
č ĊĠĠĠĠĠĠĠĠĠĠĠĠĠĠĠĠ
NA P
b irth
g uest
Ġ" ."
m ongo
Ï ģ
DE L
æ¡ Ĩ
tr ade
Ġal s
Ġk h
vi ation
ali ases
RE N
ĠTh u
LOC ATION
Ġc ame
Dis card
un ge
Ġe mploy
Ġ"# {
Pers istent
ufact urer
Ġin ventory
ext ended
ä»» åĬ¡
æĬ Ģ
A sc
How ever
ĠREFER ENCES
ĠC P
Ġun able
b roadcast
Ġw elcome
ĠD ay
rupted Exception
Ġg as
sol ver
pl at
ve al
Ġsq rt
D lg
ame s
pc ion
Coord inate
å®ī è£ħ
E V
c ab
pro duce
Ã ²
ble ms
ĠAss ign
ac ji
uto ff
Is Valid
P ID
T abs
Ġh ouse
ĠOR DER
ĠP a
Ġre load
(' @
__ /
Me an
Ġí Ļ
Ġear lier
" };
s is
Ġt enant
Ch an
à® ¿
r h
Ġr u
Mock ito
N g
Ġs aving
(). __
track ing
ĠSte ps
j en
Ġsub str
check er
>> >>
ĠA x
á» ĩ
Ġdecl ared
COM PI
ĠSPE CIAL
View Holder
inter active
Change Listener
ah a
plo ts
Xml Element
Ġan t
play list
Qu ant
ĠSe gment
å Ĥ¨
Ġp df
ĠC ity
ĠB ot
Ġen c
PR I
n fs
train ed
> $
ĠR ot
Ġk o
App s
Ġorder ed
seto f
on a
Ge om
x ac
æ ¥
Ġco efficient
Ġup stream
Ġseg ments
aaaa aaaa
Qu ote
Atom ic
k kit
check point
Ġco uple
TEMP LATE
len ium
éĢ ł
definition s
C X
Ġpri mitive
âĢĵ âĢĵ
__ |
T B
Neg ative
Sh ip
sing leton
long itude
ab y
Ġassert NotNull
ĠCh ild
Ġres olver
book ing
Ġw arn
Pro viders
Ġf allback
ter ra
c ion
t ac
ĠB US
Ġse aled
ith metic
iv a
Ġpro viders
ere quis
Se quential
ç¼ ĵ
Hash Set
Ġk otlin
æŃ ¢
éªĮ è¯ģ
Ġr is
Ġpl aced
ĠCon n
à¸ Ķ
å Ķ
me l
ue de
ĠS TY
State Exception
Ġdon nÃ©es
P NG
T odo
ĠC G
ĠDIS CL
x html
mp i
ĠS park
In noDB
ĠU TC
ĠC OT
ve z
Ġdec ision
x fer
Com bine
Le af
CA DE
Deserial ize
est s
¹ Ħ
Direct ive
ar is
Ġthe ta
Ġse quences
Ġle d
format s
AT OM
Ġindex es
Q R
ĠL eg
Ġc am
mp eg
sh ipping
ĠSk ip
PROC ESS
O Auth
d an
P referred
ĠG rad
ĠS K
čĊĉ ĠĠĠ
currentTime Millis
Ġ* >(
BIND ING
ĠH ead
Ġper fect
WAR D
WAR N
Ġdown loaded
Ġspecify ing
Ġìĭ ľ
W AY
Ġal gorithms
mit ives
ìĹ ¬
R oll
T re
b ulk
Ġ' {}
Ġhelp ful
c in
ĠSh ape
. `
ro b
SE CRET
Ġk ube
è¿Ļ éĩĮ
id l
;& #
ç ²
ph y
Ag gregate
r ss
v f
sp h
all Emoji
F lex
ĠBus iness
T xt
W ave
Ġoff icial
Ġobtain ed
C VE
ĠN A
Ġsub set
ĊĠĠĠĠĠĠĠĠĠĠ ĊĠĠĠĠĠĠĠĠĠ
document s
ipel ines
Ġ' \\
j f
Hand ling
ĠCheck s
ĠBig Decimal
Ġm agic
ãĥ Ŀ
Ġdetermin istic
M usic
å½ ±
Compat ible
ç ĭ
re views
Ġs ites
ĠRe fer
c les
ĠR PC
Rec order
íĻ Ķ
Ġs r
Ġu u
é¦ ĸ
Ġsob re
D ummy
is Required
hyper link
m ay
Ġ" $(
ell a
b ill
Ġ$ @
Ġ[ ![
Bu ffers
ado res
Ġsl ug
Ġt a
ct ree
k d
Ä Ĺ
Back Color
x or
co t
Ġlocal Storage
%%%%%%%%%%%%%%%% %%%%%%%%%%%%%%%%
l am
in ja
as a
Dis covery
DebuggerNonUser CodeAttribute
Iter able
GR APH
Ġ( ~
un recognized
Target s
T OT
| "
at en
il ine
") ->
Ġgener ating
Ã§ o
An alytics
Action Listener
Gener ation
Ġfind ing
PARAM S
F AT
tr ansparent
Table Row
ic he
Ġman ip
ĠH ub
is Null
semb le
toHaveBeen Called
ro utine
id os
Con cat
ä» ·
Ġde coded
ç» ľ
Go al
Q P
Ġ' ,'
register ed
D st
S ampler
x ce
um ing
ST OR
linked in
Match ers
C MS
P rom
Ġì ¶
local Var
Ġfunction al
Ġbu ffers
ĠP ers
as is
set Title
ĠN eed
Service Provider
è®° å½ķ
u w
ch oose
FO RE
ĠA RR
ĠH and
ãģ Ľ
pri m
pk t
ĠURL s
Ġ ĊĠĠĠĠĠĠ
ĠS ent
ĠD irection
ĠInt ro
Ġg ui
aur ant
r at
Ġal most
Bind ings
CR YPT
ĠI T
OR IZ
ĠBind ing
est ing
fl are
æł¼ å¼ı
èĩ ´
F oot
ort e
ĠPRO F
ĠIP v
Ġol der
b enchmark
An alyzer
Ġbu mp
ÃŃ c
$ \
D H
ĠDim ension
Ġê µ¬
pa lette
Ty pography
è®¿ éĹ®
ĠAn alysis
z el
Ġo g
As pect
Ġdocument ed
an h
Ġn u
Ġg lyphicon
ĠL ooks
id le
åĽł ä¸º
- ${
s bin
assert That
FE ATURE
Not Empty
C ube
qu eries
x j
ab it
ĠL ib
stand ing
ĠD r
vert ed
ĠD emo
ĠM ail
ĠF AIL
py plot
D NS
Ġimplement ations
au ge
( #
/ </
b w
c w
Ġe fficient
sim d
Ġb er
Ġob server
Object Name
We ather
Ġim ag
Ġ ><
ĠkÃ¶ nn
ĠCHAR ACTER
Pres enter
Ä ĥ
Ġpro f
ush ort
à¦ ¬
ç½ĳ ç»ľ
temp erature
(& (
AG ES
Ġm ul
Ã¼ n
Ġax es
Coord s
ul ations
cri min
? **
f our
RO LE
è§ ģ
bro ker
Ġk ill
Ġtrans formation
ĠĠ č
ĠC ASE
Ġme mo
ĠId ent
èĩª åĬ¨
ren a
Ġfilter ing
ĠâĶ ľâĶĢâĶĢ
Ġregist ers
Ad vanced
ĠDE F
ee e
Ġa mp
Ġ* __
Ġplatform s
Ġinter act
J ul
re start
lo dash
dat ac
S q
Ġre asons
as n
Ġ$ "
DE SCRIPTION
set Property
u arios
re spond
el apsed
ÐµÐ ·
W s
ĊĊ ĊĊĠĠĠ
Ġb enchmark
Ġm usic
ĠPub lish
Tr aits
L d
ĠLo op
Register ed
C s
de velop
stri ctions
S aved
Ġend points
Example s
Prot otype
re search
ĠD iv
ak o
Ġre curs
Ġen cryption
Log ical
ä¾ Ŀ
Activ ation
H old
i ri
} ],
st m
Ġgover ned
od a
ĠP at
ĠN u
Tr uncated
INIT IAL
Condition s
unknown Fields
éĸ ĭ
P ager
ENABLE D
Ġstart Time
K V
st yl
ĠUn ity
Ġt reat
De ad
Ġm oney
è¾ ĳ
In strument
AS C
Ġform ula
ê ·¸
ĠP UBLIC
å¿ħ é¡»
n at
id ades
ac i
app y
Ġiter ations
re moved
ĠA rc
system s
Ġa udit
E s
Ġb le
author s
Ġsepar ator
j u
ad c
Ġespec ially
Ġor ders
URE MENT
orre nt
Sc enario
pth read
gp io
ass istant
ĠM sg
Ġav atar
E v
ON SE
ma le
g ar
çĻ» å½ķ
Ġ/ ^
Blue print
pent aho
'] )->
ma z
ĠInt Ptr
Decor ator
z ax
Ġ" {{
sp ath
Sup plier
Ġh l
class method
check s
ĠDis able
Bl ur
AS CADE
TO M
limit ed
k at
Ġa ck
ĠCON SEQUENTIAL
éĢ Ł
CA ST
ed i
lev ation
Ġsubmit ted
n ie
gr p
è į
n py
Ġ[ <
L j
Ġ------------------------------------------------ --------
Ġs orry
get Resource
am en
æīĢ ä»¥
ĠE very
se par
unc heck
ĠIN DIRECT
å¤ ī
ent r
ä¿Ŀ åŃĺ
merc ial
Ġf loor
! .
t it
ĠM esh
Buffer ed
Value Type
å± Ģ
Cap abilities
Ġl n
čĊč Ċĉĉĉ
Pro cedure
non ce
Ġam ong
ĠField s
() -
Let ter
Ġf requ
ĠE igen
Ġnormal ized
a ug
d ro
Ġ-- ></
æķ°æį® åºĵ
Assert ion
G reater
Ġs ong
x ca
Ġcon verter
ĠB en
å¾ ħ
= `
Ġnetwork s
Play ers
un o
ce il
on der
get Path
ep s
Ġcalcul ation
Ġg ender
Ġany way
sk i
al an
ge l
Ġsh ip
Ġ" ,"
pt ime
Run nable
Re verse
ĠRes ources
ĠPl ace
get Node
IN ESS
UI RED
Ġgr up
Ġembed ded
ĠH AL
Ġcom ing
l ng
Ġr sp
Ġre gression
PI X
write Field
Int Ptr
Ġtemp or
Cal c
h ikari
Ġth ank
imp licit
Ġclass ification
Ġrepresent ed
ĠP ayment
pri me
ec c
Ġper centage
Ġmonth s
Ġtr an
From String
wei bo
ĠS SH
Ġf c
Ġsh op
åĮħ åĲ«
ST M
Ġbel ongs
work ers
raw l
Ġsql ite
Ġ á
un ing
epoch s
ĊĠĠĠĠĠĠĠĠĠĠĠĠĠĠĠĠĠĠĠĠĠĠĠĠĠĠĠĠĠĠĠĠĠĠĠĠĠĠĠĠĠĠĠĠĠĠĠĠ ĠĠ
Ġlimit s
M N
ff i
Cont inue
Un ity
Ġ{{ $
++++++++ ++++++++
ĠFUN CTION
() ">
Th rough
bit Field
](../../ ../
Pixel s
as pect
Ġb c
è® ¢
æ³¨ æĦı
s he
Ġhost s
é¢ Ħ
Callback s
get Parameter
e o
CHAR ACTER
ĠEng lish
min or
S olver
Ġcover ed
ĠBad Request
T AC
tr ap
Ġaccess ible
Ġhash Code
ut a
PE D
Post s
ĠAb out
al ter
Ġs sl
åĵ į
ĠL ive
pro be
< _
Ġnew Value
ĠAuthor ization
unt il
Check box
Ġins pect
implement ed
ĠLE FT
Ċĉ ĠĠĠĠĠĠ
x ad
im ag
EX PR
ĠFix es
I Q
Ġus uario
l ag
× Ķ
CS V
è¾ ¹
bl ur
å®ŀ ä¾ĭ
Th ree
L n
Ġg ene
game s
ĠSTY LE
sc atter
Ġdi agnostic
Ġreg ions
ä»¥ ä¸ĭ
âĶģ âĶģ
ÑĤ ÑĮ
ic an
is se
Ġinsert ed
Ġent re
Work ing
Mac ro
V ault
Ġsol ver
è´ ¹
K R
e j
ĠSh are
FOR CE
å·¥ ä½ľ
s an
æİ§ åĪ¶
åĪ¤ æĸŃ
x ls
j est
Ġch an
ìŀ ħ
Ãª n
Ġre ward
ĠF ill
Call s
ĠkÃ¶nn en
B id
Descript ors
ĠL ED
ãĤ §
ĠTrans fer
ft ime
Ġconc ern
ATE G
æĿ ¿
me th
Ġp oll
Ġm v
Ġen s
ĠComp uter
Ġf rag
ine se
ĠEST ADO
coord inates
Ġ' );
Ġo dd
Suc ceeded
J ump
ab ort
git lab
] ].
Ġsh utdown
Proto s
serial ization
ĠReg ion
luc ene
en ate
Ġ* ****************************************************************
log ged
RT C
ĠHttp Response
Â· Â·
quee ze
Ġ@ {
ĠA DC
å¯¹ åºĶ
ĠD ig
sc enario
ĠStart ed
B enchmark
li o
ĠĠĠĠĠĠĠĠĠĠĠĠĠĠĠĠĠĠĠĠĠĠĠĠĠĠĠĠĠĠĠĠ Ġ
ĊĠĠĠĠĠĠ ĊĠĠĠĠĠĠĠ
× ľ
Ġdeli ver
l abs
ĠP od
of s
vis ions
ĠEvent s
xxxx xxxx
P ur
Ġstop ped
build s
ĠLO SS
du k
Source File
Ġc ool
Ġf ood
SE ARCH
Start Time
BIN ARY
sh uffle
AS F
Ġpop ulation
ĠDepend ency
¡ °
Î »
Ġas c
se qu
ic ast
bin s
e lectron
Ġ" :"
Ġin i
(" :
Ġan aly
ì² ´
ĠA rr
Res olved
Ð¸ Ñĩ
zax xer
"> )</
ĠUn known
stri ke
ĠPROF ITS
p ure
he size
ãĥ¼ ãĤ¹
Ġa j
Ġpro posed
distribut ed
b und
k on
| =
re me
Ġs alt
AT FORM
Ġend block
IG ENCE
FA CT
E MAIL
ĠĠĠĠ ĊĠĠĠ
ask et
Ġformat ting
Mark et
D LL
N eeded
Ā Ā
App le
c il
Tr ain
LC J
ëĲ ľ
sc aled
čĊč ĊĠĠĠĠĠĠĠĠĠĠĠĠĠĠĠĠĠĠĠ
in strument
Version UID
Position s
Ar n
Ġhel lo
vari ance
multip art
To S
Ã¤ t
Ġ* .
os ity
> (),
re ceipt
B X
Ã© c
Work s
ĠProb lem
V oice
Ġ' .$
($ (
dig its
ĠSpec ial
Ġa vec
W ay
Ref lect
',' ','
COMP ONENT
(" ")
ĠF oo
Ġcomp ut
No thing
Pos itive
GL IGENCE
Ġs rv
Ġdo or
åľ º
ĠOr acle
U tf
ãģª ãģĦ
Nav Bar
en umber
Bl end
Ġb ring
pl aintext
AL I
ĠCON ST
short cut
ĠGame Object
ĠĠĠĠĠĠĠĠĠĠĠĠĠĠĠĠĠĠĠĠĠĠĠĠĠĠĠĠĠĠĠĠ ĠĠĠĠ
________________ ________________
' /
oo g
D ll
in n
de velopers
C os
Media Type
D uplicate
__ ":
Ċĉĉĉĉ Ġ
inter op
img s
Sp ell
anno unce
C ut
Ġ[ %
se ctor
ile ge
Ġpat ient
à º
En ergy
ĠAS F
UT ION
M z
DB G
ar able
err er
cont inu
'] ]
ĠÑģ Ð»
Ġmaint ain
ìĿ Į
Ġw all
ĠN avigation
ĠRe gex
Ġder iv
s anit
ch allenge
Ġfile Path
Ġí ģ
iver se
Stream ing
el a
Ġgener ates
Ġmov es
ĠC alled
os o
Tr ust
ceed s
T AB
En coded
æĺ ĵ
Ġb odega
Ġcl usters
á ¹
Ġgl sl
ĠC V
Ġìĥ Ŀ
C redit
w f
Ap pearance
Py x
>( <
èµĦ æºĲ
Ġtr ust
Stream s
* </
č ĊĠĠĠĠĠĠĠĠĠĠĠĠĠĠ
---------------------------------------------------------------- ----------------
Require ment
ĠE r
Ġallow ing
Type Error
az el
Ġë ı
O U
P ATCH
ĠB order
k et
to UpperCase
C amp
a W
first Name
AD C
ĠUn supported
Second ary
in ated
vent a
Ch rome
Ġcheck out
(_ .
pr ism
ĠP K
YY YY
Rew ard
Ġwe ak
èĩ ³
sent ence
Ġide as
ĠRect angle
ä½Ĩ æĺ¯
í ģ
es ian
Ġx mm
sub st
ĠRed irect
ĠF F
Comp ound
F LOW
Ex isting
Ġal location
Ġinstall ing
Ġclose st
ĠDep rec
ĠNE GLIGENCE
g atsby
r us
Ġp om
Ġan not
Ġsp ot
P WM
ĠD AT
inst alled
xb a
Pattern s
Ġexplo de
C riterion
R U
s andbox
in verse
ĠB lob
OP S
SH OT
' })
E very
W C
Ġf name
Ġ% (
ymb olic
Action Event
driver s
ĠM icro
Sk ill
p aint
Ġ] ];
in er
con om
Ð° ÑĨÐ¸
Thread s
ar ter
id en
Ġper m
N IL
Ġ" ~
Config s
PI PE
oc al
Ġpar ame
ÄŁ Ä±
Ġrad io
M ix
u art
ĠA mer
che mas
MUL TI
t ang
le a
AL PH
ĠIN DEX
è® ¸
) ((
iv al
arn ess
T ap
h uman
ĉ Ġ
Ġun pack
text Content
Ġover write
Ġactiv ate
dat at
ĠBU EN
') }
I Enumerable
| ',
Ġv ot
ĠS orry
ĠAt tributes
Ġdeli very
íĸ ī
Ġp asses
P urchase
l Ä±
ist ance
UR ATION
Ċĉĉĉ ĠĠ
Ġmin im
ĠÑĢÐ°Ð ·
Bound ing
b box
read able
/ ****************************************************************
ãĤ ¨
Per centage
Ġtyp ically
â ľ
çľ Ł
N F
time zone
Ġver ification
Ġì ĸ
Ed ges
è¾ ¾
ĠW AY
ĠK B
M oney
Ġtable Name
ĠLink ed
het ic
P LI
de ed
Ġcom ma
set Visible
remain ing
ĠEx plorer
dis connect
ĠWAR NING
}} },
ĠGL int
Bro ker
- $
get ter
ist ration
User Data
leg acy
her its
operator s
U id
W F
Pro mpt
REG ISTER
N ombre
n ost
Ġimport ed
ung s
éĹ ¨
ĠĠ ĊĠ
Ġe th
Ġpointer s
ĠðŁ ĳ
METH O
sw ig
] '
response s
ĠB C
Ap is
Ġcod igo
user id
åŃĺ åĤ¨
get Field
"] :
ĠBE GIN
C XX
z w
Ġsub mission
Level s
Ġ" ).
åĩ Ĩ
= ["
d ensity
ĠM er
Ġch allenge
Port al
ĠSY S
} ));
te e
ĠU NS
Ġel s
Ġmy self
Trans actions
files ystem
ìĥ ģ
Ġ= "
Re peat
SH ARE
t Ã³
Ġel apsed
ĠD jango
De veloper
Ġle x
à® ¤
à¦ ķ
Return Value
T ake
Ġ" .$
ĠO ur
G ender
Ġgraph ics
Execution Context
G ate
sim ilar
] []
Ġf ee
Ġb t
il s
Ġpro d
Ġph i
chron o
ĠMar shal
re peated
ME T
vir t
è ı
ĠS S
um a
Ã§ a
++ ,
ç« Ļ
F req
Ġdefer red
Count s
Ġdeploy ed
f aker
Ġcon j
ĠF eed
Ġpro grams
Ġsuggest ions
L ifecycle
Ġc red
Ġlocal host
ST ER
add Component
raw ler
L ng
T i
Õ ¡
Ġm ime
ĠT S
pkg s
regex p
in struction
Ġs light
Output s
Ġconfigur ations
indic ator
Ġìľ Ħ
Method Impl
ĠFIX ME
M iddle
Ċ ĊĠĠĠĠĠĠĠĠĠĠĠĠĠĠĠĠĠĠĠĠĠĠĠĠĠĠĠĠĠĠĠĠĠĠĠ
Ġout come
ë³ ´
WINDO W
N LS
} ))
fo od
ĠWh ere
tr on
Un signed
ĠB ecause
Dir ty
ãĤ¤ ãĥ«
ient ific
uncheck ed
S quare
Ġp al
Ġl int
ĠM aster
ĠTime stamp
ĠS ur
Ġany more
Schedule d
SECON DS
Ġlist eners
Ġindic ator
ĠSU CH
E PS
lo pe
ri bu
ĠN T
Place holder
VIS IBLE
Ġrespons ible
Ġstream s
ĠBy tes
ĠSTR ICT
ìĨ Į
ATTRIBUT E
r type
Ġh ighest
Application Context
Ġve hicle
ĠFire fox
par ame
M a
ge bra
Ġs ink
ĠM OD
Ġpr incip
C ampaign
ĠCal cul
AC ING
Par cel
Property Name
Ġsc ipy
æ¸ ħ
DEP TH
= <
IN K
Ġeff ort
i ator
al go
Ġf t
ĠM ult
ì Ĥ¬
ĠP ay
ĠP i
AL LOW
Qu ota
Bin der
ĠAng ular
g am
ĠE E
arb age
======== ==
Man ual
ĠPO SS
ph otos
AB I
ert y
V OL
var int
UT IL
ĠP lot
==== =
ĠV e
inherit Doc
STIT UTE
w av
ĠE VEN
Ġme et
Se ek
Ġdig ital
T yp
Ð Ķ
se en
ĠT IM
Ġrelease s
ĠðŁ ĺ
vet ica
et ched
min utes
ne ver
Log ged
="../../../../ ../
quant it
lo om
ĠAp pro
Ġicon s
toggle Class
( ?:
Ġch apter
APP END
Ð½Ñĭ Ð¹
Ġ" \\
ĠP ipeline
set Window
ĠIo T
* ;
ĠF A
Ġask ed
à¸ ª
number Of
K P
W alk
j ni
og n
============ ==
IDENT AL
` *^
p q
Ġ' .'
ĠDe cl
Pa lette
VI SED
de partment
Type Of
Ġcould n
vis itor
Ġc arry
ord inal
Ġindex ed
posit ive
ĠQu ick
ĠÃ¼ ber
@ "
c annot
re h
or ient
St ory
SIGN ED
à± ģ
ĠS at
ĠMessage Box
Ġadv ance
Ġw ar
ĠL A
emp lace
Ġ... )
ĠText View
M appings
ph an
anc ing
Script s
SY NC
ĠE F
ĠY ear
çĦ¶ åĲİ
M ag
ili ar
H ikariConfig
M ul
b ow
g f
j as
or ange
ass oc
UI Kit
m w
use package
ens ive
LO PT
Ġtop ics
a q
č ĊĠĠĠĠĠĠĠĠĠĠĠĠĠĠĠĠĠĠĠĠĠĠĠĠĠĠĠĠĠĠĠĠĠĠĠĠĠĠĠĠĠĠĠ
Ġver b
ĠRET URN
Ġne ighbor
Ġsm art
File Sync
b ullet
ĠR ob
Get Component
çķ ¥
s ay
ê ¸
ĊĠĠĠĠ ĉĉ
de tection
Ġìķ Ħ
ĠARR AY
ĠH AVE
ĠDA MAGE
ĠP os
err ain
Ġhel pers
decode d
Express ions
I QUE
Ġb b
ĠT ue
EN UM
ĠOP EN
Ġpract ice
Ġa kt
Ġm illiseconds
dis p
IC ON
a ight
Ġcheck point
Ġclick ed
m nt
Ġre cursive
ĠM igration
Ġmeasure ment
T cp
EST A
Ġb roadcast
Test er
iter als
Char ge
pers istent
ar x
Ġn i
Ġ/ \
Be haviour
Ġinv ocation
ap ers
To k
Coord inates
Ġto dos
ĠSt ates
X C
Ġclass ifier
ĠB io
Ġsepar ated
Ġchunk s
Calcul ator
J B
U ME
ĠCo unter
amar in
j an
Ġc our
Ġs ends
DE ST
Ã© t
Ġmem set
exp licit
read sheet
ens aje
We apon
b iz
re cent
Ġget attr
Ġinst anti
Ĥ ´
S NAP
() (
ug ar
CT X
åı ³
ç¤ ¾
ome ga
ĠTw itter
S OL
Ġr b
Inter preter
le ad
de termin
Ġtest Instances
V endor
Ġre spon
à¸ ´
=- =-
J AVA
s lots
cogn ize
Ġfold ers
ent es
Ġout line
lic es
function al
W O
ĠN ET
Ġ[ ...
roll ment
æı Ĵ
è ³
ic ol
Ġhappen ed
ĠFace book
U G
Ġst ation
(" $
Comp uter
CONST FN
ĠBo ard
Ġde grees
Ġro ut
éĸ ¢
Ġinte gers
ul d
ch er
Ġrange s
ĠRun nable
ĠSER VICES
Ġdis pon
Ver bose
li a
Ġpredi ctions
ĠVol ume
b h
r ain
urn ament
comp oser
r df
Ġm n
ĠF ragment
RE AL
ĠINT ERRUP
ĠMax imum
script ors
ĠZ e
EMP L
"/ ></
ĠS chedule
Ġret val
ins pect
P UB
ĠRe search
Comp arator
ens it
H A
SI X
æ ¼
Ġinst al
sd l
Ext ent
ĠìĿ ´ë
Ġë į°ìĿ´íĦ°
ĠINC IDENTAL
ĠName space
ah oo
index es
Ġover lap
F REE
T icks
] >
al ax
Ġd ates
Con current
Ġcomp uting
Ġë ķĮ
det ach
Attr s
ain ter
Ġcomp ression
Pl ain
! )
ĠS ol
ĠP acket
uble shoot
Sp ot
ĠMod al
Ġsit uation
p ac
ĠE SP
ĠAD VISED
parent Node
R AD
en de
Ġm Ã¡s
get S
Ġ ĉĉĉ
in str
Fore ground
terra form
H ouse
Watch er
re ed
=" @
ĠIn s
format ted
åĽ Ľ
Ġf req
ĠC ancellationToken
ĠF ollow
lo ut
ve edor
ìķ Ħ
ĠS IG
Ġê² ½
P x
r q
× ¨
Ġde sktop
($ {
Ġup loaded
set Data
`` ,
Ġ Âł
com bo
Ċĉĉĉĉĉĉĉĉĉĉĉĉ ĉĉ
CLO SE
Pat ient
ĠM AC
Ġres ol
AT ER
Ġj avascript
d aily
sess ions
ĠSP DX
G a
ENT ITY
ĠSub ject
åĬł è½½
¯ ¸
In jection
Ġ` _
get Parent
Or Null
ç» ´
Ġs ix
Ġo mp
ĠM ask
Ġfr action
Ġsl ider
red ient
{ };
Ġex planation
assert Null
do or
Ġaff ected
Ġre nd
Ġcap abilities
ĠC riteria
cl usters
REF ER
Ver ification
C am
AI MED
File Type
ĠED IT
HttpServlet Request
Ġ# '
å¦Ĥ ä½ķ
Ù ĥ
get X
ãĢ ĭ
config ur
SM ALL
Ġrecent ly
ãĥĨ ãĤ£
åĪĿå§ĭ åĮĸ
ãĥ ģ
Inter op
f y
Ġb und
ĠR aise
FIL ENAME
Ġf ault
Re ject
WE VER
in p
Ġw ants
k p
set Enabled
ĠG O
class ifier
å®¢ æĪ·
ĠPOSS IBILITY
code gen
align ment
L azy
an ion
Ġc ipher
Al ter
Ġgr ant
M j
ĠSm art
ĠSU CCESS
Ġk om
Ġpar agraph
An not
ä¸Ģ äºĽ
Org an
Ġn ie
ce an
Qu ad
Ð¸ Ðº
ĠFl ag
m ol
Ġ* )(
L IGHT
Data Table
ĠSub scription
åİ Ĩ
ass andra
Tr uth
Ġover all
=> '
install ation
Ġdescri bes
F riend
d bo
re ward
al arm
ĠComp are
- &
M aker
bound ary
P ARE
ĠI I
ĠF ake
Ġen crypt
Ġatt ention
Ò Ĩ
ĠP ur
Ġget User
find All
ba idu
Ġident ified
ĠByte Array
æĿ¡ ä»¶
Ġa ug
ĠP TR
Ġc ritical
z ier
Contact s
* \
s nd
ĠS yn
ĠIt ems
Ġt il
Ġde coder
Per form
W W
l or
commit s
Ġdevelop ed
Ġleg end
accord ion
ĠT ile
ĠAdd ing
ĠS D
ĠAct ual
Ali ve
H Z
Ġpro posal
ĠSystem s
Ġte ams
in form
set OnClickListener
Ġch rome
Un iversal
tt l
Ġcap ital
Ġencounter ed
b v
æ §
LE CTION
callback s
r z
Ġ{ });
Ġa ware
Ġse p
we ets
Require ments
ëŁ ¬
ATTER N
Ġr d
ä¸¤ ä¸ª
m ir
al er
>& #
Primary Key
QUE UE
i ction
o y
q c
ĠM C
çļĦ æķ°æį®
ĠBUS INESS
D IG
f all
p as
ĠV ari
Ġwhen ever
Ġ quest
App lications
ph ysical
æľ ¯
ë ¬¸
ĠL ua
ĠArgument NullException
Ð¾ÑĤ Ð¾ÑĢ
ĠA ir
Ġpop ulate
ĠS plit
ĠPh one
Ġread able
Ġfl ask
fix tures
+ ----------------
x m
¤ ĳ
ĠC art
ĠC Make
Ġinter active
dim ensions
IMP L
ĠAv ailable
éŁ ³
n en
om i
ãģ Ī
unit test
ĠHO WEVER
Ġy o
ãĤĪ ãģĨ
Ġc redit
Ð¾Ð»ÑĮÐ· Ð¾Ð²
F und
ĠS ame
h op
Ġ%} </
olid ay
Ã´ ng
ph en
Ġit k
ĠBe havior
Ġutil iz
æĦ Ł
Ġp thread
Ġb x
app lications
CO UN
lik ely
ĠInput Stream
ĠSpec ifies
f ec
al g
equals IgnoreCase
cour ses
, [
M U
W elcome
ĠL IST
issue comment
a ft
Ad v
ĠBuild ing
person al
' `
Ð°Ð» ÑĮ
j ulia
Ġm Ã¡
ĠH D
ro unded
pr act
ĠBu ilt
reach able
Ġgr am
E scape
st an
Ġc le
Ġe mployee
Ġget ter
temp ts
Ġìŀ Ĳ
stere otype
ud p
ret rieve
Ġeffect ive
Ð ĺ
ĠJ im
t gt
um in
Order By
nc ia
r ng
De partment
Ġsm ooth
Py Object
L ed
ar gest
ĠAction s
E K
En dian
dispatch er
æ¨¡ åŀĭ
ĠGOO DS
us able
ĠDe veloper
Pl acement
ty ped
= []
? '
in ing
=' "
æ ħ
Ġ ĊĠĠĠĠĠĠĠĠĠĠĠĠĠ
ĠSp ace
Ġfront end
ay out
ĠĠĠĠĠĠĠĠĠĠĠĠĠĠĠĠĠĠĠĠĠĠĠĠĠĠĠĠĠĠĠĠ ĠĠ
Ġsch ool
Def ine
ĠSe lection
æł ¸
h z
i ge
ter ior
ĠGraph QL
Ġsuggest ion
Ġmong oose
w k
ĠR ED
Ġdist inct
Ġag gregate
Ġatom ic
C AM
AN GE
close st
C ES
if ace
é¢ ĳ
found ation
EXCEPT ION
´ Ģ
re cursive
ĊĊĉ ĠĠĠ
ì¹ ĺ
SI M
ĠData set
Ġr uby
*/ ,
yp ot
I J
Ġcent ral
& ,
s ymbols
Ġcomp ared
sub set
ĠK eep
rel ationship
Lock ed
s it
me mo
contact s
Ġt iny
ĠÐ ¡
å¯Ĩ çłģ
Ġv y
det ector
á» ĳ
tot ime
Bal ancer
æŀ ¶
Wr ong
& )
net ty
åĨ Į
Ġprom ote
s izing
data Source
a ar
ĠS il
get s
Ġ åĴĮ
Ġsh ot
Ġcomp l
Ġlock ed
Ġob served
Ġ è®¾ç½®
al ive
Pre pare
Entry Point
ĠÐ¿ Ð¾Ð´
Match ing
Pro d
ãĢ Ĭ
ĠP S
Ñĥ Ñĩ
è¿Ļ äºĽ
BY TES
fav icon
R G
Ġcon da
Ġgener ally
ä¹ ł
ãģ§ ãģ¯
) ==
C USTOM
p up
ĠM D
Port s
te acher
tech nology
Ġin str
Ġex peri
>{ %
Bound ary
and er
quantit ativo
H alf
Ġp f
Ġp aste
ĠC ross
à¸ §
è¾ ĥ
Scal ing
ĠSc roll
G ot
D ollar
Ġpan ic
da emon
Ġmac OS
) ')
: {}
ĠL at
={ (
Chunk Name
rott le
EMPL ARY
c ve
ĠB et
Func iones
Ð¸ÑĤ Ðµ
ĠSerial izable
() +
Ġaccept s
Ġnavig ate
Ġhe art
Field Type
ĠTest Case
Ġill ustr
es c
Ġein er
ĠIter able
Ġretrie ved
C ause
Ġn ight
mark up
}} ">
ĠGL enum
Ġbr anches
ĠS A
inal g
ir an
Ġr id
ĠE ffect
! ');
K e
Ġv im
sp ell
field Name
IGN ED
ç ¶
c riteria
); //
ĠD id
ĠD MA
ru it
å¿ħ è¦ģ
Ġview port
Ġoper and
ĠPROC UREMENT
æ ļ
get Column
ist er
Ġgu ild
jac ent
comp iled
ĠSUB STITUTE
run s
sl ack
ĠStruct ure
ĠEX EMPLARY
Ġda emon
bru ik
L ens
h or
ĠC Y
if ul
ĊĊĊĊ ĊĊ
ĠHe alth
PRE FER
ĠA CT
$ (".
Q T
Q i
ĠTHE ORY
' />
J an
ë į
st rength
lic ated
DI ST
Ins pector
Ġìł ľ
Ġt k
Ġdi gest
éĺ Ł
M u
ĠI ss
enter prise
parent s
DECL ARE
K nown
f ord
ĠR ust
ro cket
ro uge
() "
ãĥĩ ãĥ¼ãĤ¿
r an
Ġg ain
Home address
_ |
ut ive
Ġn an
ĠRe ader
ĠUp dates
Ġwebpack ChunkName
Ġc in
ur b
Ġl ap
Form ats
Ø§ ÙĨ
Ġevery one
Ġs aw
Ġl r
fig ur
Runtime Exception
f q
Ċĉĉĉĉ ĠĠĠ
Ġnot iced
plus plus
ä¹ ¦
Over view
â Ĺ
ãĤ ½
ler i
man ent
Ġscal ing
ĠINTERRUP TION
at ches
Ġpacket s
Ġs dk
Ġin tr
initial izer
ÐµÐº ÑĤ
/ \
Ġd ensity
Ġhe ading
Ġhas attr
ìĦ ¸
c j
Some thing
Ġsyn apse
C as
e ql
v iz
=" <
ĠP RE
set Item
Ġtri p
HAND LER
ĠCA USED
Q S
R ob
ĠT AG
ug o
ĠHe aders
Ġrect angle
ĠR AM
Message Info
Ġì ļ
Bad Request
ĠOB JECT
ff t
jo y
F d
Y ES
c ad
Ġ- &
ĠG RO
Ġcheck sum
Ġimplement ing
å·¥ åħ·
.. \
arch itecture
lib c
>{ @
co lo
Ph ysics
Ġfore ign
Ġper haps
ĠAn imation
sv n
Ġ~ /.
Ġside bar
implement ation
% );
Ġf air
err it
NO RE
Ġ čĊĠ
ĠG C
fil ing
{- #
ant age
Ġthink ing
leet code
Ġin verse
Thread Pool
ìł Ħ
In herit
oc c
ĠìĦ ¤
ĠDat en
En crypt
Check s
ĠOPT ION
U IT
Ġ*/ ,
ĠSTR ING
èĮ ĥ
et ic
Ġlet ters
Index es
Ġcopy ing
Ġe ax
Ġorder ing
Ġmode s
TA IL
gener ation
Ġwrit es
ĠÐ¿ ÐµÑĢ
EE E
Ġm as
Temp erature
PL Y
ĠClo sing
S HOW
St and
ĠCont ains
T ail
ATION S
[$ ]
Ñħ Ð¾Ð´
P or
f id
v ui
ĠG ateway
ld ap
ĠDes erial
PLAY ER
Ġ čĊĠĠĠĠ
ĠP Y
Ġsup ply
s ms
Ġ Ã¡
er i
b illing
Ġ" {}
present s
ĠRem ov
Ġguide lines
ĠD ir
ans ible
ç» Ń
Web Socket
ĠImp ro
C andidate
a os
Ġb box
sub mission
Al bum
Ġpost gres
ĠHttp Servlet
USER NAME
S olid
d ca
red ients
Å Ħ
Ġf unk
Ġse ar
VE CTOR
Ð½Ð¾ ÑģÑĤ
Ġw heel
ĠInst ead
mk r
c argo
Ġtw ice
SS H
Ġtemplate Url
('/ ',
I i
ĠH ey
g x
Ġref actor
bc m
N Y
t up
ĠG P
à¸ Ĺ
Tri angle
Ġsol ved
{ @
Ġc ada
ĠW ORK
wh o
ÑĢ Ð¸
Part icipant
ĠComponent s
e in
ine craft
hold ers
ue vo
To Props
Ġare as
Ġerr no
Ġop code
ĠS afari
ãĤ «
Inter rupt
è Ĳ
Ġ ĊĊĠĠĠ
ĠB CM
Ġi x
N m
oo oo
ĠLo ading
se x
ĠS ys
che f
T Z
Ġcon versation
con version
A st
g ain
s int
val or
> ());
z x
ul ary
ĠS cale
ĠS cience
Inter pol
Ġsee ing
Cap ability
Ġp v
duc ing
ĠM ost
ĠValid ator
ĠC U
Ġem bod
Ä «
Ġë ©
ĠCO M
math bf
Q A
S ing
c amel
uc le
inter pol
c rc
d q
t icks
Un ix
H IGH
P al
/ ******/
< &
ĠZ ero
ĠL td
ĠB i
col group
LOG IC
ĠA I
ST Y
Ġ{} '.
Ġ? :
ĠSign al
ĠIN IT
Ġpart icle
B io
que lize
ç»Ħ ä»¶
experiment al
> ):
R ATE
è® ©
Ġraise d
d ur
Ġf lip
Form ation
start ing
Ġtransform s
Ġpick le
: ])
n or
Data GridView
ific ar
Ġfail ures
postgres ql
Ġcomp utation
S phere
="# "><
áº Ń
.| __
A rena
ĠName d
EXTERNAL SYM
Re comm
ceed ings
AMP LE
ìķ ¼
V D
n w
ì ħ
Fac ade
Ġìķ Ĭ
ĠH istory
sol ve
ĠOn Init
Ġunderstand ing
ĠR oom
Logger Factory
S ale
S END
ask ell
py torch
z m
im iento
ĠP atch
ĠR F
å¸ ¦
Conf lict
ĠF FFF
ĠIn f
æĸ Ļ
ĠAct iv
Ġp uede
ing u
æī į
tri bs
user Name
ĠP in
å± ±
ĠD art
ãĤ ª
cip her
d ense
'' ''
Ġreg ard
Ġpag ination
ĠWR ITE
F our
al ib
d ue
çĽ ĳ
Ġdat as
B ill
ĠM Q
Evalu ation
A jax
č ĊĠĠĠĠĠĠĠĠĠĠĠĠĠĠĠĠĠĠĠĠĠ
ver ified
Error Kind
Ã¤ h
Ġalign ed
ĠDISCL AIMED
s imp
y b
ad apt
to ur
os cal
+ \
Ġs at
riv en
start up
embed ded
Ġsuit able
ff d
y k
let able
read s
ĠJ oin
cre ating
get Status
click ed
Ġmut ation
ĠPer form
POS ITION
ALIST P
å· ¦
IFI ER
: ,
Ġd ro
us c
et ype
Mark down
RESP ONSE
Has Been
ĠResult s
- _
co eff
Sh utdown
web socket
ĠCre ating
ĠSerial ize
Range s
Ġí ĺ
ongs To
ĠIS O
à¤ ¾
dig ital
ãĤĬ ãģ¾ãģĻ
C op
el m
J ohn
g v
is sion
ht able
pri mitive
D em
æĢ Ŀ
c err
y ll
get State
get Bytes
={ }
Ġgame s
ĠId entifier
Ġca using
Ġpossib ly
=" $(
New Line
Ġintro duced
Ġin ternet
Ġde limiter
erm ine
Ġexp onent
wr ong
P ic
ĠG od
ant a
yst ick
Ġsp in
send Message
Game Object
ĠScal ar
erra form
Ġshort cut
E le
E lastic
W nd
] ];
re dd
he matic
Ġn l
get Object
De p
gl m
Ġdec ide
âĢĶâĢĶ âĢĶâĢĶ
r k
ck o
ĠF E
Ġcol lapse
Ap ache
Ġsubmit ting
s ampler
Ġl g
sign up
ç» Ĩ
Ġdraw ing
en z
-> "
è¯ į
ĠW ed
what wg
Ġt bl
ĠIn ject
Ġcom m
doc utils
Call er
R V
f ifo
ç ¯
S parse
l ifecycle
screen shot
T ET
w iz
Ġ Ċĉĉĉĉ
get Client
ĠSV G
D G
Ġkernel spec
icult y
§ º
Ġem o
åĢ ¤
pro of
WN ER
ëĬ ¥
á Ģ
Ġt em
Ġwh itespace
ĠCol lect
">{{ $
h ol
(' ../../
å¦Ĥ ä¸ĭ
Ġplay ing
ĠSign ature
è¯´ æĺİ
ut t
ec x
m igrations
TER M
Append Line
dir ty
k ubectl
at ie
Ġ[ @
ĠN a
ãģ ©
ĠRe p
Ġ~ /
æľĢ å¤§
H AVE
h en
match ing
Ø§ Ø±
çĽ¸ åħ³
ĠRet rieve
Ġp ul
Tr aining
Group Id
EXT ENSION
ĠcÃ³ digo
Ġge om
ÑĪ Ð¸
Ġ iz
access or
åĳ ¨
n orth
Cont ainers
Ġâ §º
math bb
L ife
P ing
ĠĠĠĠĠĠĠĠĠĠĠĠĠĠĠĠĠĠĠĠĠĠĠĠĠĠĠĠĠĠĠĠ ĠĠĠĠĠĠĠ
"} ]}
Ġdetermin ed
> ")
ak ed
arch ives
cho ices
W heel
Out come
Start up
Ġpost Index
sub net
war ded
Ad apt
Ġenable s
DEFIN ED
Ġt ries
Ġn atural
ir s
AC COUNT
Buffer Size
ĠVariable s
Ġf avor
Ġj wt
Ġget Id
DE CRE
Av g
A ware
Sp inner
FOL DER
w Y
Ġbro ker
ERN EL
Y ii
ut y
Ġa y
greg ator
Ã ¹
ĠGet ting
ĠBl ack
Ġd raft
ĠB reak
iter ation
> );
re serve
} ${
Ġcl Set
Met er
ich ael
IF ICATION
n k
Cont ain
Tr an
min ute
I j
U ART
w elcome
ĠSub L
cons ume
å¯ ¾
Edit ing
li min
ĠW S
... ");
ĠState ment
Ġì§ Ģ
åı ¥
mac ros
Pag o
Ġcapt ion
S ynchron
S ymbols
a ad
st udy
H K
Ġr isk
Ġcontent Type
åĩ ł
y ond
Ø ´
ĠD T
Ġm achines
Ġap lik
Ġserial VersionUID
Col s
cs i
è¯ ¦
SC REEN
ĠComp lex
Ġsaved InstanceState
lcs Setup
+ $
S ocial
s se
Ġre positories
ĠA SP
per centage
dis pose
ins ide
zz le
ĠMod ify
Ġin ser
Ġg ulp
M ARY
it ar
Ġv en
O m
ĠP anel
æŁ Ĳ
z c
ĊĠĠĠ ĊĠĠ
Ġtr ailing
Pro f
De leg
AN K
fl ight
m apped
ĠEx cel
Ġfl ux
an on
Ġ= ================
Ġb p
**** */
predi ction
erequis ites
Ġs andbox
qu i
Ã© es
es Module
B IG
S OR
SC ALE
aut iful
Ġw rote
ĠL ANGUAGE
Ð½ Ð¾Ð¹
ÅĻ ÃŃ
Ġaff ili
ĠImplement ation
in cluding
Ġw ww
æĹ¥ å¿Ĺ
Ġan swers
ant idad
Read ing
range s
ãģĮ ãģĤ
sil on
h anced
new command
ä¸Ń åĽ½
seg ments
Ġintro duce
:::: ::::
global s
grid BagConstraints
W K
is hes
sp aced
Cont inu
Int Array
ĠErr Invalid
Ex clude
Ġurl s
warning s
d uplicate
g son
| '
Ġdata Source
export er
è¿Ļ æł·
ro g
ĠD ashboard
po ssible
Ġac cessed
entic ator
poly gon
ë ĮĢ
Ġst ay
Ġoverride s
F UL
Ġto k
ID X
################################################################ ########
m ate
(/ \
deb ian
read ing
ne cessary
ALPH A
LIBR ARY
b ab
ĠB log
ĠVR Type
Ġl ift
æ¡ £
Ġwe ather
ĠZ ERO
Rem aining
k bd
it Ãł
ense mb
atom s
normal ized
ĠG ENER
ĠPro ps
ile stone
Ġ\ <
Default Value
?> "
Ġextract ed
Ġbu ff
ffic i
! ',
P oll
l us
fa q
½ Ķ
ĠR UN
ĠEx change
Ġtool bar
Initial izer
<! ---
H J
Ġsuggest ed
// ================================================================
ep isode
ĊĠĠĠĠĠĠĠĠĠĠĠĠĠĠĠĠĠĠĠĠĠĠĠĠĠĠĠĠĠĠĠĠĠĠĠĠĠĠĠĠĠĠĠĠĠĠĠĠ ĠĠĠĠ
æ¯ı ä¸ª
y u
ot on
p assed
Ġmer ging
P refs
on Change
Ġ" `
d j
St ri
form ula
Ġrequire ment
èĭ ¥
C ool
Ġ ig
ĠÃ© s
=" '.$
Ġsub net
Ġf rozen
ĠR EL
Ġcomp ose
ry ption
re cur
çļĦ æĹ¶åĢĻ
ĊĠĠĠĠĠĠĠĠĠĠĠĠĠĠĠĠĠĠĠĠĠĠĠĠĠĠĠĠĠĠĠĠĠĠĠĠĠĠĠĠĠĠĠĠĠĠĠĠ ĠĠĠĠĠ
Ġremov es
S il
li ers
path name
ÄŁ i
Ġsn ippet
A mazon
Ġenter ed
åł ±
Ġh ub
set Visibility
ĠN V
)) ),
ĠR B
ep silon
J g
ĉ ĠĠĠ
ok ed
Ġconfig s
æĸĩ åŃĹ
x abab
Out line
)\ )</
comp osition
Log Level
Ġí ĶĦ
)* (
ĠUn der
Ġstream ing
Ġdepend ent
BOO ST
mon o
ĠEn coding
æķ Ļ
cor r
Ġdesc ricao
Mar shall
writ ing
E lapsed
m igrate
SO AP
ne ar
ĠFr ont
multi ply
pe ek
om en
Effect s
Ġn c
Ac quire
[: -
Ġattemp ts
ĠÄĳ á»
M ost
Ġg ather
ÐµÐ ²
H j
set Layout
Time line
Request Id
Ġiter ate
æĿĥ éĻĲ
q tt
und red
Ġcustom ers
: ");
_ \
DI P
Ġembod iment
TH RESH
! '
| ----------------
ĠÐ¸ ÑģÐ¿
ĠÐº Ð¾Ð¼
in structions
St encil
Style d
Measure ment
s low
Ġh al
ĠM Y
). </
Ġcont rollers
ÅŁ t
ç¼ĵ åŃĺ
Ġhappen ing
Ġnorm ally
Ð½ Ð¾Ð³Ð¾
Ġproto buf
Ġto m
ĠR IGHT
ĠAn notation
Ġ([ #
Ġconflict s
Ġl abor
Ġad vanced
ĠOrig inal
Ġ* ********************************
ĠP ixel
FA ST
Ġdisplay s
è¯ ĳ
ic ulo
Ġs ynt
=' /
AS CI
EX TRA
Min ute
B irth
G ithub
ak an
Ġob vious
ren ch
ĊĠĠĠĠĠĠĠĠĠĠĠĠĠĠĠĠĠĠĠĠ ĊĠĠĠĠĠĠĠĠĠĠĠĠĠĠĠĠĠĠĠ
Ġintegr ity
fed or
re positories
Ġb ridge
get Last
ĊĊ Ċĉ
ĠF R
Ġval s
"] ').
B AS
k c
s oc
Ð ¢
Ġs ing
Ġn z
Is True
ĠComp iler
com bine
Ġk eras
=' $
Ġest a
ĠHttp Client
Ġ---------------- ------------
ĠĠĠĠĠĠĠĠ ĊĠĠĠĠĠĠĠ
Ġc redential
ĠE P
SE PAR
From File
deg ree
Perfil Usuario
Ġs ensitive
ag gregate
ĠâĶ Ķ
íķĺ ê¸°
bus y
ãĥ© ãĤ¤
M agic
vert ise
ÑĢÐ°Ð ²
R SA
find By
Ġg ro
De velopment
Block ing
home page
ĠTime Span
Ġleg acy
Ġscreen shot
on Create
Ċĉ ĠĠĠĠĠĠĠĠĠ
ĠU ART
ipp y
ĠBack ground
Ġ ÙĪ
alt Color
l ad
Ġpro of
stream er
mer ged
mq tt
Clean up
c it
Ġun ter
item ize
ĠKey s
ĠCRE ATE
t iny
ĠA bs
ĠIn d
new Instance
First OrDefault
Ġp n
Ġl st
################ ########
visit ed
( ())
Ġse gu
Ġpre pared
Ð°Ð ³
Ġgr ay
Ġbir th
ĠA F
Generated Message
C ID
E OL
content Type
ategor i
Ġin finite
pp le
some thing
predi ctions
W X
SE Q
Ġsearch ing
ant om
Ġb rowsers
div ider
last Name
F igure
m int
è¿ ½
< $
J K
P X
Ġa jax
Pro be
W arn
Ġ[ _
qu ares
im m
Ġ-- }}
Ġenviron ments
ĠS IGN
ĠC E
pers ist
strict Equal
Ġv oice
ere f
Ġus ar
ĠAl tern
ĠB LOCK
part icle
å¼ º
hi bernate
Ġmonitor ing
C our
Sub net
Ġp sz
ĠP tr
fl uent
Ġsw agger
Re cent
ĠF Star
ens ing
US D
Tw itter
N a
Ø ¬
f an
ĠL ow
sc anner
B h
it en
ĠRES ULT
ĠS he
ĠC D
ak y
head s
ital ic
est e
vent ure
Ġ( .
ĊĠĠĠĠĠĠĠĠĠĠĠĠ ĊĠĠĠĠĠĠĠĠĠĠĠĠĠĠĠ
mod ifier
Ġco lour
Ġunt uk
ĠT urn
label led
ĠEx press
L int
ense s
Bu ff
SQL Exception
Initial ization
Ġart icles
Ġm ol
ĠGRO UP
u ary
Absolute Path
v at
def un
Res erved
Top ology
< -
Ab ort
ĠReg Exp
R AW
ĠD om
ĠH er
ĠRedist ribution
c js
LE SS
Ġbr and
ĠÃ ª
C atch
Not ice
acket s
VERT EX
ĠclSet q
Ġlong itude
- ">
an z
Ġp ushed
In sets
ĠD S
Ð´ Ð°
Ġpoly gon
id ers
Author ity
de vel
ĠM utable
][ <
ĠìĿ ¸
J ar
FI FO
Pre cision
(* )
Bar rier
A rial
¡ ãĤ¤ãĥ«
at on
li braries
Ġde dic
to ctree
set Color
IL ayout
local Storage
Ġsc anner
ç¾ ¤
bu kkit
à¸ Ħ
agent o
fold ers
P ai
ĠS hell
ĠVER SION
ĠI gnore
ç»ĵ æŀĦ
Pers istence
Ġschedule d
w al
Ġv ote
Ġ` (
eng lish
fin der
SNAP SHOT
H N
>/ <
get Y
Class Loader
ĠPR s
Ġsk ipped
ä½ľ èĢħ
abe led
p aste
y ing
Ġm ist
Ġis Valid
Ġwork ers
Ġver ified
ë¡ Ŀ
pro metheus
mo ke
Ġbound ing
ĠFire base
assign ed
appro x
A utor
à¸ ¢
DIF Y
Ġsp acing
Ġcell spacing
ni ques
Ġr ust
ë¶ Ģ
Ġs en
end points
Ġpro j
Ġin voice
ĠT rigger
Ġ[ ['
im ap
Ġlet s
Ġlook ed
Im mediate
eli hood
re aded
ĠSh ader
Ġcoll ision
In variant
Te X
PROTO COL
Ġk ont
*) &
áº ¥
Framework s
Â »
es m
dd d
Get ting
RO UT
Ġerror Message
str ar
dpi Mode
ach in
Sl ug
ĠPort al
with in
STR ONG
navig ate
D AL
æ° ´
sur vey
č ĊĠĠĠĠĠĠĠĠĠĠĠĠĠĠĠĠĠĠĠĠĠĠĠĠĠĠĠĠĠĠĠĠĠĠĠĠĠĠĠĠĠĠĠĠĠĠĠĠĠĠĠ
le ccion
Ġlist ening
Field Name
Ġë° ©
ı ¬
be havior
Ġ] ]
S at
w ers
Ġs park
Ġar c
Ġs lots
SE CTION
cr on
sn ippet
m F
Tool Tip
Ġ'- '
Ġo ct
ĠC F
Ġend raw
sl ave
hel m
rx js
P retty
j n
ĠE T
Pro tection
}, "
Ġë ĵ
Ġpl ug
DAT ABASE
m ot
Ġre cv
Ġm al
D TD
p itch
File Info
Ġ}} /
Ġvol upt
Ð°Ð½Ð¸ Ðµ
istor ical
P END
i u
ľ ç´¢
ĠB IT
prop Types
r sa
Ġ( =
Ġu Å¼y
ĠWh ich
ACT IV
p ast
Ġ" ...
i loc
ï¼ī ï¼Į
% ',
Ġinter pre
Link edList
} _{
riv ial
tx n
Ġìŀ Īëĭ¤
s ar
Ġdef initely
H yper
T oo
Ġsh uffle
pos ure
pre m
Ñĥ ÑĤ
NET WORK
Ġcheck box
cb c
AX B
` |
z es
ion ic
ĠN avig
ĠR ails
ĠCom munity
% )
c rt
Comp ression
FORM ATION
Ġfire base
arx iv
Ġ{ /*
ĠI p
Ġe lectron
ĠIN PUT
ä¸Ģ æ¬¡
ç» Ī
RI X
å¼Ĥ å¸¸
b ene
ĠApp end
alle st
CONT AIN
ĠÐº Ð¾ÑĤÐ¾ÑĢ
ut ures
Ġs ampling
ile ges
Json Object
Ext end
ĠDis k
coord inate
çİ¯ å¢ĥ
cl r
>> ();
Auto Size
Ġp olicies
ĠT i
ä» ½
Ġre li
Set Value
Ġpublish er
/ "/>
ĠS ans
Ġup gr
ĠAss oci
Ġb ag
ãģŁ ãĤģ
iv os
pri or
tag Helper
dr v
Report er
Pag ination
X O
q b
Ġan v
ffff ffff
Ġcorrespon d
ĠA ws
Ġdecl arations
p lease
enc ryption
ta u
Ġcon vention
Al arm
Ġmatch er
Ġtyp ed
Ġpro duces
Ġlog out
ĠA B
ends with
monitor ing
I de
g ather
Ġv ulner
Ġsub scribe
inf ra
F il
:: *;
Ġconfigur able
l z
Ġdiv ision
C are
ĠC WE
ir us
ĠR NA
}, {"
Ġd AtA
j ira
al chemy
Order ed
Ġali ases
: *
G round
l ife
ì ¶
Ġ ä½¿çĶ¨
Ġf x
ĠArt icle
ri os
son ic
the docs
Ġassoci ation
Ġf el
Ġde leting
lf w
Ġon Changed
c ertificates
(); ");
ĠO verride
ĠW ould
bad ges
à® °
à® ķ
fedor aproject
cloud flare
DIRECT ORY
ig er
Auth enticated
Ġme g
à¸ «
ĠQ ual
Ġcall able
spec ies
synt hesize
L V
Sh ard
Sub string
am il
Ġk ter
>( &
Ġë ¬¸
f lix
=" ",
float ing
First Name
Fr action
åŁ İ
embed ding
xabab abab
Client s
gin a
ater al
ĠĠĠĠĠĠĠĠĠĠĠĠĠĠĠĠĠĠĠĠĠĠĠĠĠĠĠĠĠĠĠĠ ĠĠĠĠĠ
Ġab c
sk in
Ġsign als
Ġdefin ing
get Connection
quiv o
Export s
Ġpres yn
atic ally
(( -
E t
M IL
Ġch ip
Object Id
ĠAs sembly
Min us
M aint
ĠRe gistry
Anim ator
STOR AGE
+ /
D ense
attach ments
SCHE MA
I k
saved InstanceState
v u
REQ UIRE
DIS PLAY
TIM ER
ir l
Ġload s
ĠWe ight
ĠThere fore
C Q
bug s
PL ATFORM
ĠPr ice
ĠSec ret
encrypt ed
re strict
ĠC md
sp inner
ĠCh ain
Key Down
ĠMe tric
Cal culate
ĠH ard
Ġslight ly
C FLAGS
r ub
M d
P si
et ition
Ġpost syn
Ġest imate
s To
Ġt ur
ĠT y
ax ios
Ġlat itude
Ġcontinu ous
Ġtr ab
% .
Ġs am
bo unce
Ġover view
enum s
ìĭ Ŀ
ĠArr ange
? ',
B anner
Ġd ar
ĠL ET
Ġres ume
XY Z
B RE
m otion
Ġf ive
r abbit
Ġbreak s
dom ains
SING LE
Ġg pu
ST EP
ĠIn voke
Ġdis cord
DI E
ĠSh op
break ing
Ċĉĉĉĉĉĉĉĉĉĉĉĉ ĉĉĉĉĉĉĉĉ
re served
Ġcorrespon ds
m ixed
de part
Ġpres ence
j am
j ure
Ġr ich
og ener
Ð¾ Ñĩ
ĠNE W
ĠP HY
Ġsome where
Get Current
Access ible
_ $
} `)
Ġac comp
zon al
Big Decimal
ĠIntegr ation
Re positories
ther net
è®¾ å¤ĩ
C pu
c plusplus
str ftime
ess ions
assert Same
Sp in
Ġsk ill
ç ¿
z ones
CO ORD
next Int
íķ ©ëĭĪëĭ¤
A k
Case s
UST ER
sp atial
ĠB ro
ET H
ynam o
md ash
OT O
room s
Ġstr aight
Ġqu is
S CH
ad i
com bin
ĠB er
Comp arer
Ġparent s
S ibling
!! !
C e
Ġz ur
VAL UES
Ġreceiv ing
ä» ĭ
Ġ"- "
\+\_\+ \+
ĠMis sing
y ii
Ġt im
TE L
J OB
M ID
Ġinter section
ä¸ĭ è½½
' <
link y
S park
n ical
Ġre cipient
String Builder
Ġpre CellId
ĠSer ies
Ġpost CellId
åĨħ åŃĺ
DECRE F
Ġpresyn apticPopulation
Ġpostsyn apticPopulation
> ${
Ġ( +
Ġg i
çļĦ æĺ¯
start Time
Enum s
mg mt
Ġscr atch
: ${
â Ī
eb ooks
Le arning
P df
ĠT F
Ġse u
av ail
Ġ*) &
Ġsup posed
ĠT M
ify ing
Ġac quire
ĠAR M
H ar
ex tras
ĠT ri
av adoc
Ġcomp ress
Qu eries
ĠPrep are
Ġ ------
is l
Ġexp anded
m h
m achines
X F
Ġd l
ĠIN D
ĠÐ¿ Ð¾Ð»
éģ ¸
Get s
ro st
ent ropy
reg ions
SP ACING
, \"
C i
th an
nu get
tod os
ffici ency
to Int
Ø Ń
ĠP AGE
per l
Ġx hr
Format ted
ĠTR ACE
c q
'] =
Le arn
æµ ·
à¥ į
CON D
ĠTime out
ITER ATOR
ASCI I
E H
re interpret
Ġs Ã£o
Ġg cc
Ġ[] );
) ^
co co
D Q
cl azz
check sum
Ġass umed
Ġdirect ive
Ġels if
UD P
M es
l inalg
} ()
Ġf ocused
An other
wait For
CS R
e ur
ĠB T
Virtual Machine
quis ition
åı ¸
We ak
Ġdec ided
;;;;;;;; ;;;;;;;;
ç¦ »
ĠE TH
ĠRes p
Gr ant
Ġp ivot
ansp aren
border ed
åķĨ åĵģ
ĠEN V
Ġsess ions
{{ --
m V
Ġì °
ends With
å¼ ł
Decor ation
S AL
ĠJ e
Ġdiffer ences
Sk in
Ġo cr
ĠE OF
ific a
Ġgr ab
Import s
H ist
Z F
Ġd up
ĠL ambda
op p
ome tric
it an
ri an
ĠL LC
F rag
Ġde ps
Ġj q
AS M
Ġoff sets
SH ADER
ä¾ ¿
' }}
ap a
solution s
g is
Ġc ookies
C ATEG
d ifference
Ġassert ion
Ġident ical
ĠInitial izes
m ad
s x
ê ±
ch ai
Ġh ooks
name spaces
ĠUNS IGNED
Ġs ont
G allery
ĠMark down
Ġc ategor
à¸ ķ
VID EO
m ux
Ch oose
Ð°Ð ±
Wait ing
Lex er
Ġinvol ved
H V
p ressed
Require s
å¯¹ äºİ
sup plier
L M
o z
å ²
ar Ä±
int el
Ġdis covery
field set
Byte Buffer
Serialized Name
c N
r fc
it ches
sp ital
ĠIn to
'] ->
bl as
å£ °
H B
urn ame
ĠIn struction
ill ion
ĠOn line
ĠG a
ĠLink edList
ãĥĹ ãĥª
i ert
ex ion
Br and
ipher al
Ġa ud
Ġal though
Ġpre ced
na ire
Deserial izer
Ġflat ten
Ġf ich
ĠP review
Ġmost ly
ĠS an
dist rict
å¹ ¿
Ass unto
In ternet
ÅĽ Äĩ
Ġâĸ Ī
is ate
Ġm otion
ĠM a
wait ing
wr apped
cer pt
- '
c redential
gr ant
Ð» Ð°
Server Error
wo od
C NT
List ing
P id
ĠÐ¼ Ð¾Ð¶
ãģ£ ãģ¦
ĠG B
EN O
SE S
cap ed
ĠEnd point
ãĤ ±
Ð» Ñİ
Ġë³ ´
ost on
LI K
Ġsupport ing
ĠTH REE
ĠRef resh
h dfs
ĠM ultiple
os ing
n am
Ġcontribut e
m ero
de sk
OT HER
([ [
Ġdi agram
cap ital
Ġexport ed
Front end
D s
W G
own ed
ãĢ ĳ
Ġblock ing
ĠAL T
ac ht
Ċĉĉ ĠĠĠĠĠ
è¯ Ħ
")) {
R Y
Ġcondition al
F loor
i per
RO LL
Ã¼ m
ĠÐ± Ñĭ
Data Member
read thedocs
Code d
CONST ANT
ĠCUR LOPT
Ġuser Name
ëł ¥
M n
Ġturn ed
V ote
Ġre pl
Con versation
Ġext ent
' )))
G PL
ĠO ld
Ser v
Ġk i
àµ į
ensit ivity
Ġv ary
ãĢ Ĳ
Ġregex p
. :
Ġf resh
ĠK ernel
Ġac company
? \
c df
Ġse crets
om o
Ġein en
LAY ER
j Button
pr inter
Ġcon str
čĊĉ Ġ
enc ent
Or Builder
sourceLine No
ĠT ARGET
M m
M ux
ç ĸ
ĠA lex
iz za
dec ay
æ³¨ åĨĮ
J E
ic ated
ic ken
text s
Gr ay
I jo
Com m
App Data
Report s
H G
H Q
Ġs ind
Ġ& _
Pro pagation
'] ).
Ġm ent
Ġcre ator
ĠNot ice
æ² »
end ance
Ġmet av
Activ ate
æĻ ¯
Discard Unknown
Ġg iving
L K
Ġs Ã©
im i
dd b
AG ER
EO A
Cho oser
t ain
ĊĠĠĠĠ ĊĠ
ĠDis patch
scal ing
tw ig
Ġsem antic
å¡ «
b ird
User Info
Ret ention
P AD
] _
ic as
print Line
tra ffic
Ġfe at
æıı è¿°
q dm
Ġk v
Mov ement
Ġcodigo Assunto
ĠcodigoAssunto Pai
T ube
Z BOT
y ang
=" //
tom l
READ Y
à¸²à¸ £
Ġpurch ase
allen ges
M irror
ob server
eg g
è½¬ æį¢
s peech
Ġv ocab
fr action
ĠWork flow
Ġvisit ed
WH ITE
; )
B CM
n is
Ġh ierarchy
pen s
Ġcell padding
Ġcirc uit
CL R
g ms
de ck
ff ee
list eners
ĠKey board
Ġke pt
Ver b
HasBeen Set
M ime
client e
Check ing
Ġauth enticate
Ġpers istent
åį ı
ãģ« ãģ¯
éĹ Ń
H RESULT
st orm
ĠF S
Up dater
pack ed
ëŀ ĺ
ĠC OR
ĠC ancel
PRE C
E asy
Pro files
ä¸ ĸ
lar Ä±
ADD ING
cook ies
G NU
\ ""
#### ###
Ġk tÃ³
Ġcomp ressed
mov es
M ENU
t weet
Ġh istogram
Ġsist ema
ĠĠĠ Ċ
yn b
Ġcl k
feature d
coll ision
PIX EL
li ps
"> @
F ETCH
start s
Ġreject ed
pw m
X N
ä½ľ ä¸º
uent a
Ġìĭ ¤
Ġv or
Cont ribut
real m
h k
ext ent
base Url
PO WER
Ġsound s
Ġex am
ĠU LONG
Ġdo lo
CO S
emon ic
Install ation
Ġ: ,
Ġcol labor
Ġa ä
.. ...
ĠUn ique
du ino
stri pe
debug ger
Ġclo sure
w end
æľĢ åĲİ
rand int
ab spath
Re peated
Ġl u
ĠÐ Ķ
ierarch ical
Ġgram mar
DR IVER
free ze
J WT
Ġì Ĩ
Server s
H uman
Re cyclerView
DE LAY
Ip v
Ġp ressed
are house
Ġcl EOA
J P
c ate
IN ET
ĠEx periment
/** */
% |
le ge
Ġs ampler
int p
ĠFor ce
Writ able
serv ing
Generic Class
| **
á ļ
ateg ies
gre SQL
ĠTree Node
H AS
Ġ= ================================================
ĠS un
ĠT yped
Ġartifact s
Seg ments
s ynchron
get Width
to ast
TR I
å¾ Į
Ġâ ī
Global s
ĠE ither
PL U
Present ation
Ġt iming
Ġre strict
VE C
RAN CH
datab ind
P olicies
st s
ĠF O
fig size
Ġprint ed
native place
Rep lication
d ol
Ġpro tein
Ġas p
Ġpr zy
source forge
PRO FILE
Ñĭ Ð²
ĠCan vas
ĠOUT PUT
ĠíĮ Į
l Ã©
Ġm ongo
get Config
Ġ$ __
)) ));
op h
Ð¸ ÑģÑĤ
Trans formation
ĠGe ometry
S u
off sets
Ġpost ed
éĩ Ĭ
edit able
ĠÑĩ ÑĤÐ¾
al p
ĠA m
Ġl it
ĠM E
off setof
Ġspecific ally
ac ob
Ġë ²
ah an
Car bon
Ġsin on
ĠErrInvalid Length
q f
ur u
CO VER
Ġë§ Į
< (
H istogram
Ġg old
Regression Test
ellig ence
(" *
mem set
Ġmod ern
Mouse Event
` ?
Ġn r
ĠGL uint
ĠEN ABLE
. ';
× ª
Ġb all
++ +
Mode s
fw link
G ram
J L
Ġn ginx
Ġin fer
ÑĢ ÐµÐ´
mem Item
éĢ Ĵ
Current ly
alloc ated
MEDI A
Ġbuilt in
S vg
un ordered
Ġde lla
ĊĊĉ Ġ
Main Window
Ġtech nology
O A
O st
Ġd aily
AN E
red uc
Success ful
Ġë³ Ģ
à ¶
Ġ& (
und ant
Dig it
æĴ Ń
j r
dis covery
Generated CodeAttribute
qu art
Ġget Value
Is In
ĠNew s
Type Info
Add ing
Big Integer
h g
q w
Ġst oring
add Child
æĿ Ł
BO ARD
; "></
v est
][ :
Ġwould n
Inf rastructure
Ġ</ >
ĠIn ternational
Ġìł Ħ
Ġ Ċĉĉĉĉĉ
Ġd ont
ĠI V
Ġtyp ings
Ġê° Ļ
ãģķ ãģĦ
yout u
Ð½Ð° Ñĩ
ĊĠĠĠĠ Ċ
ĠB ASE
ĠJ ohn
inter action
Action Bar
PO INTER
A pr
d na
ap os
iz en
dat os
Ġ^ =
ä»» ä½ķ
co sm
Ġg uest
R aster
m vc
s ible
im on
ĠD rag
Pro filer
Un authorized
full screen
çĻ ½
Ġcollect ed
P ATTERN
Ġb ulk
end ors
Claim s
N b
al con
Ġ" }
pl ug
ĠRe produce
IC Ag
vid or
Jo urnal
ar ded
); }
ee per
Av ailability
S un
~ |',
Æ ¡
tre es
Ġep isode
ise ase
Global Namespace
DOT OMP
ĠP si
emp lo
Edit able
set Id
ĠInter val
Ġre cover
Ġal bum
ĠClass ification
Ġauto complete
ession al
J U
ad in
Ġd ies
sc ue
ĠR FC
Log out
Ġinherit ed
Y Z
ĠH H
ä» Ĭ
std in
Ġtrans formed
Cor ner
Ð ł
Ġt riggers
RO ID
Ġnum ero
We ights
i prot
Ġn ach
set Font
ĠN aN
Ġ'+ ',
Ġscen arios
in ion
in ode
Ġ* >
il ir
Ġfor got
Ġl b
te k
æĺ¯ ä¸Ģä¸ª
Ñī Ð¸
d ings
r idden
re ement
Ġz e
Ġinter pret
Ġt amb
str Homeaddress
æĸĩ ç«ł
clo sing
ĠIllegal StateException
Ġprot otype
get Active
stri ped
éĶ ģ
ĠÐ¿ÑĢ Ð¾
Ġl ack
Ðµ ÑģÑĤ
Ġhighlight er
contract s
ç´¢ å¼ķ
y un
ig a
t iles
v ation
ĠE mployee
date Time
IT AL
ĠTr a
" ',
co uld
ĠR ate
Ġpage Size
Character istic
lo de
Ġan imated
ĠS can
LL U
Ġagre ement
ĠAre a
Ġ Ã¤r
ĠâĢ ŀ
ĠEqual s
W B
cip es
Ġaw esome
í Į
Ġs ufficient
Drop Down
C sv
E VAL
in de
le ader
Ġv l
CO LL
IP v
{} {
ĠÂ «
, )
æ ©
AL OG
ãģ¦ãģĦ ãĤĭ
w asm
Ġre n
que t
so ap
Table Cell
R ename
n ak
Ġsh aring
Response Writer
Ġacc ur
ĠDES C
Ġvot re
C ERT
K A
ĠP ag
af ety
Ġíķ ´
ogener ated
' %
I ENT
IN TR
Õ¡ Õ
Ġb ooks
ĠT ake
Condition al
scr atch
ĠBig Integer
ãģĹãģ¦ ãģĦ
s us
ĠW rapper
ĠDis pose
Con vention
Ġch r
ans wers
aw ay
back ward
mon y
Ġwidget s
Ed m
ĠPar ams
Å¾ e
ansparen cy
co lour
ĠF un
Request Body
Ġm igr
ĠS afe
SETT ING
just ify
ĠTerm inal
L N
le ter
ĠC UDA
ID S
Sub scriptions
web p
Design er
Ð°Ð½Ð¸ Ñı
Ġi e
Ġmin i
Ref s
ĠDes ktop
ws z
Val or
Method Name
success ful
F a
M andatory
r er
ut ors
ãģ ³
labelled by
C UP
ome ter
Ġspec ies
ĠY AML
B illing
se lenium
og o
âĸ ĳ
S ong
er al
Ġpre g
KEY S
MIS SION
ast a
chunk s
ĠPri ority
S coped
In form
Ġ` {
Con d
Var i
ĠQ U
è¿ĩ ç¨ĭ
ĠOb j
Ñĥ Ð´
); \
h v
Ġc make
Ġre write
Ġd yn
ĠE q
DC ALL
Ì Ģ
OR ITY
exec utable
Cell Value
ek yll
H ero
Ġp Ã¡
ANCE L
ĠLogger Factory
bas is
ĠCUR RENT
o ssible
error Message
read me
ĠIN ST
MOT E
A mb
ew idth
Le ader
m il
as Ä±
Product o
Ġhold ing
Wr apped
N z
Ġpro ceed
ä» ħ
äº ĳ
Ġb ib
... ")
Ġback ward
Ġcons ists
Red uce
Ġæ Ł¥
# >
par ation
add Widget
éĸ ĵ
Args Constructor
æĸĩ æ¡£
Ġbe yond
ĠData Type
Iter ation
get Selected
av our
To Lower
Of Type
Der ived
Ġre mo
(" (
AD S
Ġnon ce
Ġmark up
ced ures
o val
el er
ig id
ĠD iff
eth ere
w izard
Un def
Web View
Mon ad
track s
ĠWork er
s uch
SE rror
éĻ ħ
m z
ind s
Layout Params
ĠSw ift
è®¢ åįķ
achin ery
ie ved
å¤§ å°ı
pag inate
ĠÐ· Ð°Ð¿
b ac
Ġ Ñı
Ġp ic
pt ide
A mer
in ar
ĠL ab
<? =
change log
ĠÑģ Ð²
ĠTech nology
Ġg ate
ä¸Ĭ ä¼ł
Ġtrack s
Aux Int
Ġset State
à® ®
Ġc g
ss a
ie f
P k
X d
urn ey
Gest ure
v agrant
Ġ æĺ¯åĲ¦
ĠP I
Ġpa lette
k Font
Ġt u
f ive
p iece
Ġm us
out file
ĠString Buffer
Dis count
can onical
tool kit
c xx
h line
Ġstr conv
SC AN
background Color
Ġh p
Ċĉĉĉĉĉ Ċĉĉĉĉ
EL AB
collect or
Dat as
G W
Z a
Enumer ation
Ġbasic ally
t an
w ifi
Ġthem selves
ĠD eb
Ġex pose
Data Provider
param name
G ene
Ġp w
Ġa head
ĠI M
Ġnew er
ip ynb
read Op
(_ )
ç®Ģ åįķ
getElementsBy TagName
ĠE mbed
py pi
Ġvolume s
G Q
v ron
ton soft
åĪ© çĶ¨
Ĩ µ
in h
size i
Entity Type
Ø§ ÛĮ
PLU GIN
Ġh um
Ġcan onical
èı ľ
ĠE ven
äº ¬
Ġmac ros
S linky
j mp
Ġb id
è¿ ĳ
PRO GRAM
åĪĨ æŀĲ
I x
h id
h ap
ĠS ensor
Ġend orse
ÃŃ m
crimin ator
Ġdata frame
}} }
Ġqu otes
ĠS TO
vent ions
;; ;
Ġextension Registry
ĠNu Get
M al
W lan
Ġnon atomic
+" /
w an
Ġan ge
ob servable
Key Value
Ã¼ k
nof ollow
~ \
ĉ Ċĉ
inal ity
Ġle ader
ĠDet ermine
), %
Ġg d
Ġfont Family
Ġdatabase s
æĭ ¬
éĿ¢ çļĦ
è Ĺ
ĠCon v
ĠAct or
ï»¿ //
PY THON
sup p
Ġpot entially
SEPAR ATOR
s ns
Ġc rop
co ef
ph ysics
ĠCOL UMN
S peech
ĠC ert
new Builder
Ġurl lib
Open GL
å®Ł è¡Į
Ġr ace
LINE AR
Decl ared
", $
ec a
auth enticate
Ġexp ired
ä¼ ¼
Ġbel ong
Ġto wards
em u
Ġad j
ä¸į ä¼ļ
Ġmov ement
se o
Ġs py
od ata
ib ly
ĠQt Widgets
concept s
Ġc andidates
Ex o
Ġsl ave
ch osen
os a
Ġx or
ro d
ost a
Ġactiv ities
re pl
comp ression
ĠK afka
dev tools
erc ises
strike through
er p
at ched
Ġf w
() ];
ell er
\" ",
ĠDis cord
Ġxy z
ĠLET TER
Ġ[ &
Ġaccess or
"}, {"
è§£ æŀĲ
J J
O ur
row Color
ä»¥ åıĬ
ÑĢÐ°Ð ¼
Raise s
G uest
H ooks
get Date
ens ible
cor ner
ĠNO DE
ĠResponse Entity
yml ink
//---------------------------------------------------------------- -------------
åĲ¯ åĬ¨
Ġm or
ĠT ags
riv ing
request ed
COMM ON
' });
to lower
ang a
Command Line
PREFER RED
K n
M OR
N ov
R IDE
Ġ] </
DF S
Ċĉĉ ĠĠĠĠĠĠ
"> *</
comp uter
Ġtechn ical
Ġë© Ķ
S FD
an an
to Fixed
eb a
Ð¸ Ð·
on Click
Ġm otor
æł ĳ
============ ===
Ġc aching
**** /
ãĥ Ģ
B ias
× ŀ
Ġ' ${
ĠS cope
Ġal g
Ġen emy
Ab ility
Ġtri al
Ġsur vey
éĤ£ ä¹Ī
/ ),
u Z
Ġn ick
Ġtime zone
air s
scan f
h istogram
Î ¼
Client e
Ret rie
Ident ifiers
ITER AL
Ġt ear
out ube
Ġtr uth
inter sect
exp ires
å¤ļ ä¸ª
éļ ı
* :
Th ing
ĠÐ² Ñģ
. -
k ode
re write
Ġl t
pro x
store d
Inst ant
tutorial s
P aper
Ġent ropy
Ġadmin istr
Ġaccompany ing
* "
T alk
] ][
fin ally
åĢ ĭ
interop Require
mov ies
EE EE
ĠDES CRIP
G Z
w oo
. #
ĠÐ´ Ð°Ð½
ethere um
Ġ ile
Ġc z
Ġun specified
Ġend ing
Ġro s
ĠFl ags
Ġach ieve
ĠNotImplemented Error
ĠTh rift
do pt
Ġmulti ply
ac quire
è½ ¦
STY LE
{ \"
in vert
get File
uct or
Com merce
Ġclient e
Ġqu ota
B t
H ierarchy
pre pend
ĠComp lete
LOG GER
Short cut
! ,
J dbc
Ġfile Descriptor
ces o
open jdk
lex er
c ash
Ġpro pag
ip o
Value Error
font size
Ġ Õ
ET IME
čĊčĊ čĊ
íķĺ ê³ł
Side bar
G RE
a head
Ġs pi
String Value
ĠCon current
SO CKET
` },
Ġ -----
Ġf b
ĠÐ Ŀ
Ġcode c
ci pl
- "
[ %
Ġb ench
ĊĠĠĠĠĠĠĠĠ ĊĠĠĠĠĠĠĠĠ
ro ck
as hed
Ġch mod
rig id
n pc
Ġg ov
Ġme eting
Ġoptim ize
P s
_ ${
her oku
F ar
G ain
R uby
en i
St ride
Ġword en
ul i
ĠF C
oc l
ĠG N
Ġcom bo
ĠRe gist
sm ooth
M ER
S ENT
d ag
Ġm ysqli
qu iet
Ð½ Ð¾Ð²
ÐµÐ ±
W U
aph ore
E U
ip c
auth enticated
/ {}
m ysqli
ers core
ĠJ s
AV AIL
ĠTop ic
asp net
j meter
is or
ĠP E
ãĤ· ãĥ§ãĥ³
n ut
Object Meta
Ġsort ing
() )).
(! $
seto pt
N j
W ING
m ist
Ġw c
ĠW ell
Ġp u
def n
ĠJ Panel
pen ded
install er
querySelector All
Dig its
set On
íģ ¬
Ġd ns
os x
new line
Ġíķ ¨
Ġc rypt
ĠC AN
Ġcon struction
param ref
ĠWeb Socket
N M
ĠSt reet
Ġbase line
ä½ľ æĪĲ
M id
x ED
ĠA st
Ġex ercise
Det ect
OPER ATION
Ġt iles
Ġc ube
ĠC y
Ġj ar
mong oose
], "
off ee
sim ulation
Ð¾Ð» Ð½
Ġv b
Ġ($ (
prec ation
h ive
", [$]
qual ified
Ġapp ended
He art
ĠData Frame
åģ ľ
Pred ict
L AT
ëı Ļ
VARI ABLE
DR AW
care t
. ;
er es
ĠY Y
Ġdescri bing
} >{
Do ctrine
custom ers
è§£ åĨ³
Radio Button
get Height
Token izer
Ġmis match
styl us
G amma
ri val
Ġread me
Ġ"\ [
tr uth
Get Object
]) ->
ĠK on
åĲ ¬
ĠNot ify
Multip licity
a str
re ordered
ert ext
iter ations
Ġpart icles
tri al
ĠProcess ing
åŁº æľ¬
Ġid le
ash ing
access Token
Marshal er
Ġf ul
Ġin ference
Ġy arn
ne ighbor
ons or
Ġsub scriber
CK ER
Ġassume s
^^^^^^^^ ^^^^^^^^
it z
base url
Ġo w
ĠÐ ŀ
Ġconnect ing
Ġevalu ated
Ins ight
S ector
č čĊ
om aly
'] [$
Se verity
New object
ĠA w
Ġevent Type
ãģ§ãģį ãģ¾ãģĻ
W as
tr ash
åĩº çİ°
Ġre qu
Ġqu it
se mp
ur on
sk u
æķ° éĩı
MO V
Char acters
éĢ Ĥ
F ade
se cs
ut zer
Ġto pology
import s
not ebook
Element Type
REQ UIRED
ĠSto ck
Real m
al ready
local s
Dis posable
Ġs g
Ġm olec
ard en
pre g
Ġclick ing
H U
Ġa ã
ĠCO UNT
ĠìŀĪ ëĬĶ
ĠíĶĦ ë¡ľ
AD ATA
Layout Manager
SUPPORT ED
: &
lo k
ĠR oll
sy scall
se crets
an to
tri angle
" });
ig s
ĠP ress
Ġ: +
Ġz eros
du stry
call er
ĠTime Unit
ĠM UST
gr a
è§ Ī
Export er
F ood
th m
Ġcon current
Ch apter
func s
éĩ ĩ
T utorial
Ġpro tection
ffff fff
Ċĉĉĉĉĉĉĉĉĉĉĉĉ ĉĉĉ
Ï Ģ
Comp ress
%% %
åıĸ å¾Ĺ
ĠChange d
å®ī åħ¨
Y I
Ġs parse
ĠC ourse
Pro tected
Ġk l
View Group
Ġq s
ĠTe le
recip ient
Navig ator
LE M
pb erry
Ġb ins
Ġwe ird
b atis
de ath
Ġf riends
Ġdynamic ally
ENS OR
ĠB enchmark
data Provider
stream ing
ãĥ¼ãĤ ·
Ġepoch s
ĠDeprec ated
L IT
k ol
ÑĢ Ð°Ð½
BO SE
R N
SI MP
Min or
çĤ¹ åĩ»
h f
ĠD an
ph ys
DO CS
Ġplay list
adv ance
% ",
Ġ< :
scri bers
upt ools
A i
+-+- +-+-
ak si
ĠÐ¾ Ð¿
ĠM c
ĠB ank
string stream
has is
Ġpr ze
pa id
iet y
n j
un expected
)) )))
Ġtri angle
Ġturn s
h um
ri k
Ġhe ld
åĬ ©
ĠA ES
Ġ@ _;
pert arget
open shift
evalu ation
ĠìŀĪ ìĬµëĭĪëĭ¤
jav ase
Ġn aming
ĠT x
am t
to pology
OR G
author ize
p references
est ado
Ġg lyph
ax e
Ġob servation
get Request
gt k
Reg ions
. ](
o ber
o ft
p refs
Ġpro ducer
Action Result
first name
ĠCheck list
Ġweek s
MARK ER
f type
Ġde letion
Sh ipping
trim Data
Rep lica
; ',
x FE
gr up
Response s
Per m
//////////////// ////////
åŃ¦ ä¹ł
Ġ[ \
ĠW atch
product o
Pre set
T im
ĠC ertificate
Ġname of
Ġend for
List en
ĊĠĠĠĠĠĠĠĠĠĠĠĠĠĠĠĠĠĠĠĠĠĠĠĠĠĠĠĠĠĠĠĠĠĠĠĠĠĠĠĠĠĠĠĠĠĠĠĠ ĠĠĠĠĠĠ
ĠMe asure
ä½ł çļĦ
ĠA z
Ġde mand
Ġpro x
cd ot
White Space
ref lection
Ġen hance
R AT
] ==
re covery
Ġ( ^
Ġcon sum
Sk y
Launch er
> ')
L on
ĠMessage s
Ġp ac
ĠY ork
cd c
D SL
Ġm igrate
Ġv ideos
Re start
sc i
Ġshould Be
Ñİ ÑĤ
is Active
ĠB oot
En gl
Ġarea Code
B a
en queue
ĠD ot
IT CH
%; "
CB C
Fetch er
//////////////////////////////////////////////////////////////////////// ////
= #
g db
j on
min der
vo ices
PY R
Play ing
èĩª å®ļä¹ī
m ixin
t ada
ì £¼
acc umulator
Ġupper case
ãģı ãģł
Ġintern ally
Form ula
Ġemo ji
F Q
Ġs oc
ĠI K
Ġpro jet
Start Date
ĠFor ward
Ġserial ization
( ...)
s amp
z p
Ġ__ (
IZ ED
bel ongsTo
In side
Context s
Class ification
Play back
cons ult
Ġinf rastructure
Ġv p
Ġ@ $
à¸ Ľ
à¦ ²
conf irmed
agent s
Appro ved
J C
eb x
game Object
B ooks
C ategor
ĠT Type
list a
Ġauth enticated
writ able
ĠDeploy ment
ĠMongo DB
Ġm appings
to Json
Ġy s
Ġarea Name
Static s
ĠCur sor
Ġs po
ne eded
äº Ķ
rt l
Ġsk ills
Ġa md
St udy
are na
user Info
xls x
Ġê²½ ìļ°
! ')
C ritical
V V
ĠJ un
AD IE
U O
ě [
local ization
* );
E FF
r ace
Ġp itch
sp a
Ġspr ing
A ug
dis cussion
Filter ed
Ġutil ities
Ġê° ľ
at ars
ĠE mit
UN K
ĠRE AL
ðŁ Ķ
ha ust
è´ ¦
ro fit
te er
Ġcont in
æ¨¡ åĿĹ
at trib
Ġ// @
S and
ĠD en
Last Error
BL ACK
S ID
Ġd in
---------------------------------------------------------------- ------
ĠAssert ion
. }
í ħ
Text Color
ens ibility
Ġfield Name
havi ors
Ġrespect ively
Ġa pr
Ġe gy
Ġmut ex
lu ÅŁ
ĠDist ributed
B ullet
Ġf oot
Ġ% {
ĠĠĠĠĠĠĠĠĠĠĠĠĠĠĠĠĠĠĠĠĠĠĠĠĠĠĠĠĠĠĠĠ ĠĠĠĠĠĠ
ah l
cor pus
èĢ ģ
Ġæ ı
Sim ilar
Ġa ê
ĠB I
... ,
real time
ç¤º ä¾ĭ
_ *
int Value
ĠB est
Ġentire ly
() ):
ĠR ich
Op code
Cap s
Ġpredict ed
= .
J Label
INTER VAL
SAMP LE
TOT AL
Ġh ab
qu a
Action Performed
Ġoff line
Ã «
ĠS urface
block ing
SPE ED
N AT
Y aml
ĠS IM
Service Impl
Ġì £¼
Ord inal
K afka
t ros
w get
Ġk ann
Ġus u
(_ ,
Inline Data
ow e
åĨ Ľ
Release d
s ans
is ms
VER B
Ġport ion
cogn izer
ãĤ¯ ãĥĪ
Ġalloc ator
MON TH
Ġreceiv es
Ġsee k
CUR ITY
% >
Ġk n
author ity
ç§ Ĵ
Ġm aj
ĠIN VALID
Last Name
Internal s
Register Type
ä½ İ
mod s
Visual Studio
Ġclaim s
C Sharp
E ven
R ich
ĳ ľ
me ster
Ġl da
(' ',
IN VAL
err ing
Dat um
J OR
} />
× ©
Ã¡ c
ular io
`. `
over lap
Ġpoint ing
ĠSub mit
there um
H F
ĠS R
Re covery
ime d
und a
ne k
Ġgr an
Expression UUID
B V
Ċ Ċĉĉĉĉĉĉ
ĠNS Object
uplic ated
/ __
ĠCh unk
ĠCall ing
Ġcross origin
(" \\
ĠF ORM
ĠF lat
trans lations
> --}}
ĠB ORDER
date picker
ãģıãģł ãģķãģĦ
, #
if ts
Ġl argest
__ ((
Ch allenge
ĠM art
Ġ: ]
lin ing
ÃŃ st
Ġaw k
> )</
L F
o on
an aconda
ĠF ooter
AN A
D ed
ĠPh p
ä¹ĭ åĲİ
optim ize
str n
Ġan alyze
ĠTr aining
sm tp
ĠNot Found
Mark up
Private Key
d ip
Ġstr totime
Members hip
Mess aging
Ġget Data
De gree
Ġì »
Ġes p
pare n
ur t
-> {$
Comp ressed
ĠS core
Ġen ded
Ġsub class
Content View
conf lict
T v
W izard
k le
ĠC AP
To File
lit ude
Message Box
Ġw or
Ġident ifiers
M illi
oo keeper
pop ulate
ur an
åĽ ´
Web site
Ġparse Float
ê° Ħ
ĠFL AG
mess aging
H dr
P g
[ `
ic os
Ġreduc ed
Ġ( ))
ĠV oid
Ġsh util
<<<< <<<<
s ampling
Ġm irror
Inter section
STR ICT
@@ @@
ĠProto Message
æİĴ åºı
b ec
in fer
sp ort
ia lect
EE K
ä¸» è¦ģ
Ġcomplex ity
æĥħ åł±
ĠOpt im
ig t
Ġcon verts
wa res
Ġm andatory
iz aÃ§Ã£o
Ġinter ceptor
Ġa an
ãĥĥ ãĥĹ
Embed ded
CE LL
ĠAR G
Monitor ing
W V
Ġre named
Ġro l
ĠLog ging
Ġconstruct ed
t ier
me ans
ow a
ĠR ound
ĠPer formance
get Next
ast ro
page Size
Pair s
x hr
ĠA Z
ĠG em
emp h
Leg acy
im show
Ph rase
ĠModel s
SK IP
p om
Ġ( ;
Ġe quation
K ERNEL
ĠC ulture
Ġel astic
so lete
Sub st
DB us
GL enum
ĠZ ip
ä¾ĭ å¦Ĥ
Ġocr text
ĊĠĠĠĠ ĊĠĠĠĠĊĠĠĠ
Ġ== >
check ing
M en
Off sets
inv ite
Ġcs rf
nest js
N ome
Ġt ap
enum erate
cons istent
å®¢æĪ· ç«¯
Ġt ak
cy c
rs quo
æĸ° çļĦ
Ġsay ing
pit est
C DR
b or
} ^
Ġb ed
Ġlist Of
CO D
Ġpop ular
Ãª ncia
move To
cs r
Ġfiles ystem
Ġpi eces
Ġre views
rom ium
ref errer
roll ing
item ap
sub scriber
inf late
month ly
b pm
ĠS al
ak et
Ġdisplay Name
Ġtermin ate
W i
v j
ing ress
Ex plo
Se p
Ġli bc
Un less
Run With
c rit
Al ways
ĠRel ated
x o
ç Ĺ
à¸ °
Ġmod ifications
****** */
T p
l ude
Ġw ind
Ġtr ad
Ġro b
Open ed
Ret rieve
@ \
ĠT im
Ġdedic ated
Ġrecord ing
Cancel led
ĠC ERT
qu eda
Ġx fer
UN SIGNED
Ġexpect s
ê² ½
W J
Ġg s
pi ed
Ġinter mediate
an alyzer
Ġd ropped
Ġst ars
ME TR
Ġlast Name
ĠVAL UE
ÐµÑĤ ÑģÑı
ĠP A
ĠP ool
Ġsign ing
éĢ Ģ
åħ ī
Internal Frame
ĠGen Inst
à± į
re ts
ert Ã¼tsch
state ments
sch wiz
Ost schwiz
Ostschwiz ertÃ¼tsch
Ġj a
Ċĉĉĉ Ċĉ
ĠRe presents
Ġdis cover
CH ANG
gram mar
PO OL
End points
l ings
č Ċĉĉĉĉĉĉĉĉĉ
ĠTh us
GL uint
ICO DE
us ive
qu iz
Ġpro g
rol led
ĠMET HO
YE AR
Ġrout ines
Ġr ho
Ex c
ik it
Axis Alignment
âĶĢâĶĢâĶĢâĶĢâĶĢâĶĢâĶĢâĶĢ âĶĢâĶĢâĶĢâĶĢâĶĢâĶĢâĶĢâĶĢ
DEFIN ITION
ãĥ¼ãĤ· ãĥ§ãĥ³
In verse
ĠUn icode
tt f
met al
Ñĭ Ð¹
K K
title s
font Size
Ð°Ð ¶
y ling
åį °
Ġappro ved
Fire base
ff old
Ġsig u
Ġdiscus sed
Ġthumb nail
ac redit
ĠL orem
Ġexp ires
ĠUtil ity
PK G
I STR
ĠP H
Key words
C ash
C ipher
M ont
g ent
p ie
ur ance
if s
Ġsca led
G lyph
end ant
Int Overflow
ra pe
ĠSQL Exception
é¢ Ŀ
ĠNe ither
N r
S SE
pp y
Api Model
g fx
m oid
± Ð¾ÑĤ
Ġf az
pro vision
ve h
Ġë Ķ
ĠNull PointerException
[ +
de crypt
ĠT om
Ġde g
mat ter
en es
Ġan onymous
key Code
Ġso lo
å· ŀ
Ãº mero
ĠD avid
op unto
Ġi outil
bo b
og gle
äº «
Ġapply ing
marshall er
ĠDig ital
acredit opunto
F lip
J et
yst al
Par ame
LO OP
se at
ne o
zu ot
ubleshoot ing
st em
um s
Trans lator
Ġ~ =
an other
Ġs ales
Ġre use
Ġfor get
box ed
Ph i
ĠLoc ale
ĠP ot
Ġit emp
ard own
Par agraph
ĠSt ats
Review er
')}} ">
Ġdiscus s
Ġregard less
Ġ ....
Ġd to
con j
Ġco lo
ĠSubL Object
r ack
get Entity
ĠT er
pre set
ĠBU ILD
Ġ ĊĠĠĠĠĠĠĠĠĠĠĠĠĠĠĠĠĠĠĠĠĠĠĠĠĠĠĠ
ĠD C
RE V
SE TP
aw k
ãĥ³ ãĥī
cdn js
A ud
M illiseconds
VER IFY
Ġt l
Ġ( ),
ĠC M
ĠGL float
ro c
Ġpro files
ĠMap s
Confirm ation
mutation test
t al
if th
ĠA DIE
Ġpr inter
× Ĳ
el en
Ġh ist
Re cipient
sh apes
Ġ! $
Ġdis connect
Com munity
Sp atial
ĠVis it
ĠSm all
Ġpress ure
ĠMov ie
k lass
č ĊĠĠĠĠĠĠĠĠĠĠĠĠĠĠĠĠĠĠĠĠĠĠĠĠĠ
re mark
Ġt gt
Re ceipt
ir al
data Type
cre st
Inst alled
íķĺ ìĹ¬
d ock
Ġc pp
Ġs ich
Ġinterpol ation
ail er
ãģĦ ãģ¦
Ġkeep ing
direct ive
ĠCONT ENT
Ġp references
ĠA X
B ed
ĠW M
Ġ(! _
has il
è½ ¯
Clo sure
ĠDESCRIP TION
d sl
aj o
con struction
Spec ified
att ice
ĠDo ctrine
ĠRead Only
Ä±nd a
Sub mission
replace All
z Äħ
ĠM I
pro blems
Fl ight
DD L
Ġà¦ ķ
FIL L
Ġcomp osite
artifact s
ĠM ut
circ uit
U m
ĠP en
Ġfix ing
dot s
Writ ten
= @
pro v
Ġ*/ }
transform er
Ġc decl
Ex plorer
ĠCon ference
ĠUn able
ĠØ ª
çŃ ĸ
flat Map
Physical Device
Ġan imate
ĠÐº Ð°Ðº
ĠIm Gui
REN DER
i Pago
st ash
out ines
database s
Play list
è¶ ³
alib aba
Ġp reference
os ome
Ġperform ing
Ġdriver s
add To
add ons
ĠK e
CH AIN
č ĊĠĠĠĠĠĠĠĠĠĠĠĠĠĠĠĠĠĠĠĠ
get env
pt ember
ĠC MD
Ġex pl
RO S
As sessment
ĠÐº Ð¾Ð½
flash data
Sem antic
C rypt
us ize
Ġget Current
Ġ> </
Ġz um
Ġprint s
Read able
lat in
è¨ ĺ
Ġtrans lations
ĠPred icate
Field Value
WN D
Transaction al
ĠEnter prise
D ates
_ <
ç ·
sh ard
ç¼ ©
st k
un less
Ġe lect
oo thing
Ġob servable
ĠArrow Box
P ow
m us
p ivot
he at
get By
Ġex posed
Context Menu
S pect
p io
Ġw i
Ġle gal
Ġtre es
"=> "
g rep
Ġb il
get Component
am iento
ww dc
GL BINDING
>` _
ĠÄ į
R FC
ë Ħ
div ision
Ðµ ÑģÑĤÐ²
Layout Panel
To One
base line
default Value
ĠEn v
interopRequire Default
cl amp
Ġcomp oser
LOG IN
Ġcontribut ing
Ġeps ilon
d ac
th y
ĠR ay
ãĥ Ļ
text Box
express ions
P et
Ġde b
'] .'
ĠDet ail
ãģķãĤĮ ãģŁ
ĠLa unch
N an
mp l
ê° ľ
Ġf on
Ġn os
ĠRout es
ĠRequire ments
æ© Ł
: ")
Trace back
ĠØ ¯
ĠDec imal
Dig ital
Lim its
h ore
j vm
ĠP or
ĠM apping
ib il
Ġ>> =
Fix es
iPago OrdenCompra
C MP
Gu ild
èª į
ĠCEL L
N ATIVE
d be
j boss
ect o
j h
o thers
on ym
:: -
à¦ ¹
Float ing
student s
ĠCons ider
re lay
Ġstart Index
á» Ļ
slide s
L AS
Ġs nap
Ġh undred
od s
ĠR obot
Engl ish
f ers
ĠG PL
ell en
sub plot
Code Gen
Ġpo se
gress ive
cert s
Ġs x
Ġ$ ("
ĠB Ã¤rndÃ¼tsch
X G
b cd
ĠI B
qu ir
set Timeout
Ġu w
å¤ ª
ic ia
Ġ} :
clear fix
Ð¼ Ð¸
Program ming
Fact ura
Ġimpro vements
D t
Ġinst ant
Ġreason able
TRANS FORM
ĠT RAN
ĠÐ ļ
ĠStart ing
confirm ation
ap an
Ġde partment
AM ES
ĠAn swer
report ing
Progress Bar
Ġcar acter
ĠOper ating
cosm os
R m
work load
Ġprint ing
Sign er
Ġperform s
å¥ ³
ãĤ¢ ãĥĹãĥª
Ġt icks
ar ner
ĠM TL
} !
Ã ī
Ġh op
sc p
è®¾ è®¡
Wait For
m ical
en ation
Ġb ur
group Box
åĿ ĩ
Ġaccording ly
Ġìĥ ģ
Ġtypings Slinky
, <
ĠM EM
orn ia
REC ORD
Ġbus y
Leg end
g lyph
id ity
end error
Ġi ÅŁ
key Set
Ġk od
Ġblock ed
Ġlocal ized
Ġkull an
Autor iPagoOrdenCompra
p ager
Ġ åĪĽå»º
Ġst ops
ud ies
ĠTr ansport
Ġview Box
graph s
drop out
ol ar
ĠN eg
ĠAd apter
Ġsi ÄĻ
ĠErr IntOverflow
A cl
Ġx x
IS WING
TI F
Ġpers ist
Review ed
En sure
S AN
yg ul
C ARD
y ahoo
id unt
ĠG UID
äº Ĵ
Ġincre asing
Ġv ue
"> "
ĠR C
ob ar
ret ain
Ġpresent ation
imate ly
Ġbene fit
S sl
d ifferent
off line
olic it
aj a
ĠLink s
Ġexperiment al
ĠElastic search
al location
Ġp ert
pro ducer
Ġsp atial
æĬ ¤
Tod ay
R azor
e qu
ay er
><? =
æ ¢
æ ĳ
)) ->
Write String
Ġtx n
pay ments
launch er
- ",
Ġc ook
Ġd B
Un do
Ġart ist
Aw esome
Ġ lect
ĠĠ ĊĠĠĠĠĠĠĠĠĠĠĠ
Ġfl uid
} ^{
il en
array s
red hat
éķ¿ åº¦
! ;
C UDA
ĠĠ čĊč
ĠM AP
Ġ` ,
find ById
á» ģ
ĠĠĠĠĠĠĠĠĠĠĠĠĠĠĠĠĠĠĠĠĠĠĠĠĠĠĠĠĠĠĠĠĠĠĠĠĠĠĠĠĠĠĠĠĠĠĠĠĠĠĠĠĠĠĠĠĠĠĠĠĠĠĠĠ ĠĠĠĠĠĠĠĠĠĠĠĠĠĠĠĠĠĠĠĠĠĠĠĠĠĠĠĠĠĠĠĠ
çľ ģ
ĠSUM MARY
s outh
"> $
RO UND
Po ssible
s j
Ġv it
ub es
Get Name
ä¸º ç©º
Ġgover n
i log
Ġedit able
lo v
il ib
Com bin
alert s
ouch er
X T
ol ated
av ailability
set ObjectName
Par sing
ç§ ĳ
Ġ' {{
Ġth rift
ĠB oth
Not Exist
cord ova
Hard ware
X B
Ġr ng
Pro veedor
Ġlo ops
ĠìĹ Ĩ
z b
Ġde ck
set Up
ĠD ATE
Ġmod ifiers
à§ ģ
ĠBr anch
Ġ ../../
ins n
review er
Evalu ator
çı ¾
: ],
W l
ë £
un link
ĠJ Label
Z e
Ġì Ĭ
ĠM M
ĠSpec ify
Ġvari ants
ition ally
ĠAL TER
RESULT S
Clo sing
flu ence
f atal
Â °
ĠS pl
get Max
åĪĨ ç±»
I r
w ow
} ">
post inc
With Type
pop ulation
des ired
ĠFail ure
Ġauthor ized
Ġimpro ved
ĠC over
up stream
ĠJ avascript
Ġmat rices
f eb
Ġh uge
Ġas m
å· ®
ðĿ ĳ
SECON D
MySQL Parser
Ġfam iliar
Ġin deed
ab ove
ĠW ORD
gu ess
Ðº Ñĥ
sb t
è¿Ľ ç¨ĭ
need s
ĠNUM BER
à ·
Ġd ass
Ġinter preter
Ġfont s
UB E
Exp anded
bro ken
Ġprot ect
P w
Ġd la
List Of
DE TAIL
source Code
ĊĠĠĠĠĠĠĠĠĠĠĠĠĠĠĠĠĠĠĠĠĠĠĠĠĠĠĠĠĠĠĠĠĠĠĠĠĠĠĠĠĠĠĠĠĠĠĠĠ ĠĠĠĠĠĠĠĠ
Ġpri m
ops is
Ġf h
count ries
Def s
"] ))
Wh ich
ãģ¾ ãģŁ
redd it
l te
ç» §
met ro
Ġ× Ĳ
workflow s
ant es
Ġ\ _
SE G
B RANCH
lo p
PRO G
rect angle
ĠOver view
x FFFFFFFF
Ġn ast
Ġevent ually
Build Context
; |
H M
to o
ĠAS N
it as
ĠO h
ale x
ĠĠĠĠĠĠĠĠĠĠĠĠĠĠĠĠĠĠĠĠĠĠĠĠĠĠĠĠĠĠĠĠĠĠĠĠĠĠĠĠĠĠĠĠĠĠĠĠĠĠĠĠĠĠĠĠĠĠĠĠĠĠĠĠ ĠĠĠĠĠĠĠ
ĠWindows Error
Ġfact ors
M GR
T iming
j v
Ï ħ
Key Code
Mem o
License d
se quences
ime dia
has Class
Sup ply
i id
ĠM any
Ġs ua
Ġfor ma
Ġì ²
Ġ[[ `
Ġhigh ly
navig ator
ĠÑį ÑĤ
E cho
ï ½
Me as
æķ° åŃĹ
ðŁ ĩ
Ġembed ding
% '
M apped
Q ty
der e
app lic
AM D
Exp iration
Ġopp ort
T or
from Json
Ġexp iration
çĽ® æłĩ
Ġpod s
)) ).
CLE AR
k f
ĠC ast
assert Raises
y ro
os is
check Box
Tag Helper
program ming
ĠÑĤ Ð°Ðº
Ġtre ated
f df
á ¼
un able
ĠT yp
Ġ'@ /
compare To
Ġph rase
upper case
p db
Ġb udget
T ED
W y
čĊ čĊčĊĠĠĠ
ĠM aven
ĠComp ile
dat um
Te ams
B one
Ġan n
At tempt
Ð° Ñı
appro ved
Ð°Ñģ Ñģ
Undef Or
Ġs nd
Exec utable
Graph ic
Ġre corded
Ġ@ __
En velope
DE S
Ġtest Get
Ġfirst Name
t iming
Ġget Default
Ġsit u
Dot Net
ĠLook up
çļĦ åĢ¼
ĠConfig ur
Ġsum mar
r ax
In g
ĠJ et
HE L
\ )
ãĥ ¢
ĠK ind
Ġpl acement
Ġview er
ĠUN ION
\ ',
a ec
d amage
l ift
t gl
al ing
ri pple
ĠI List
Pro posal
sub s
G REEN
get Result
Ġu it
An gular
inst agram
Ġaccess ing
èĭ ±
METHO DCALL
! ";
; -
en ix
": ["
Instance Id
ĠUp grade
Ġpy game
x v
Ġob serve
tag Name
ĠDef ines
Ġtw itter
F illed
Q E
z s
div ide
ãĥ³ ãĤ°
C red
ê µ¬
Ġ -----------
Ġj et
Api Key
Ðº Ð¾
Q UAL
w v
all a
ĠL azy
cloud front
æĭ ī
Ġìŀ ĳ
luÅŁ tur
ĠC la
Ġ}} "></
medi an
Can onical
ç©º éĹ´
è³ ĩ
METHODCALL TYPE
Y T
l ut
ĠA gre
IP S
ĠFl ask
direct ories
Accel eration
C raft
m ind
ag on
deep Equal
DOC UMENT
in come
mit em
Bad ge
G er
er se
ac ade
ot acreditopunto
Ġ_ $
ĊĠĠ ĊĠĠ
Ġen force
Ġinvok ing
O c
f allback
ĠF older
/* ----------------------------------------------------------------
IM AL
rel lo
æ¬ ¾
POS IT
Ġs an
éĺ ħ
Ġein em
æŁ¥ çľĭ
S uspend
Tr acer
be low
af a
à® ©
decl aration
ĠMon th
allen otacreditopunto
Appro val
H arness
j t
Ġre ly
ature s
Di agnostic
Ġpresent ed
Ġf aces
Ġst aff
Ġpro vision
')) {
ST E
ĠY ES
Ġconfirm ation
S a
ĠC urrency
Ã¨ s
Ġpre serve
Ñĥ Ð¼
ĠSW IG
e of
Ġw ine
ĠTo String
Ġ~ [
ìĿ´ ëĭ¤
ĠDeserial ize
h base
if er
ist ical
Ġspec s
ë¶ Ħ
Ġt qdm
Ġp ain
Br acket
ili ary
pick le
æ ¤
Ġ ĊĠĠĠĠĠĠĠĠĠĠ
Ġw iki
An swers
ĠÑģ Ð¾
Ġw aves
Ġ__ __
ĠEn crypt
Cons ult
) ].
V F
bl end
ä¸Ģ ç§į
less on
q d
min imal
S ynt
ĠN ational
ĠMO DIFY
j upyter
me as
ch t
IG NORE
/ {{
Re cur
ĠE c
Ġget Type
Ñģ Ð»Ð¸
Font Style
P ot
Ġde leg
ĠR ew
At las
Ġro ad
ĠZ one
report er
ĠT E
S lots
c ac
re em
Track s
C f
Ġ å°Ĩ
Ġ[ ](
ĠO s
Ċ ĊĠĠĠĠĠĠĠĠĠĠĠĠĠĠĠĠĠĠĠĠĠĠĠĠĠĠĠĠĠĠĠĠĠĠĠĠĠĠĠ
Ġp ane
get Response
In coming
Ġadipis icing
LE G
PO P
Doxy Compact
f on
Ġo mitted
Ġav ailability
ĠAd vanced
Ġmark ers
Ġsu iv
ĠS y
ä»ĸ ä»¬
ãĥķãĤ ¡ãĤ¤ãĥ«
ĠF lex
ord ova
ĠV T
SA FE
ãĤ¯ ãĥª
ĠPer iod
ancell ation
éĽĨ åĲĪ
P AN
z hi
lin enumber
L ANG
ce m
"> Â
Th ird
m otor
datat ables
" -
P ix
p ul
at las
ĠT odo
Ġh its
') (
ĠText Style
Ġi b
mem name
Ġcy cles
ĠEl se
: _
r aster
Ġ{ //
([ ^
ĠâĶĶ âĶĢâĶĢ
Ġitemp rop
M UX
å ¦
ĠEx tra
lat ex
ĠTemp lates
AU DIO
h ole
z mdi
Ġde ll
Ġsh apes
Multip lier
Y K
Ġpart icipant
ĠCommand s
ĠProduct s
Ġrespect ive
Ġ Ø§Ø
ST AND
(( {
Ġfont size
contribut ors
J e
Application Model
handle s
åºĶ è¯¥
è¯» åıĸ
Ġ ubuntu
get Child
any ch
if ornia
get Code
Par sed
cre ative
part icipant
Ġil legal
å¼ķ çĶ¨
SETT INGS
d ry
Unit Test
Local ized
ĠBase d
M k
me mitem
Ġs coped
Re placement
Pre pared
cap np
Qual ified
ĠHE AD
ro ut
co a
Ġo h
ty Object
exp ire
Ġask ing
ĠSpr ite
éĵ¾ æİ¥
Ñ §
Ċ ĊĠĠĠĠĠĠĠĠĠĠĠĠĠĠĠĠĠ
Ġ è¿ĶåĽŀ
ĠA us
De ath
Ġz ap
Face book
ĠìĦ ľ
Ġmg os
ing en
Ġtime line
IG IN
full Name
Ġkeep s
Ġden om
Mo zilla
intro duction
ensemb le
ĠE asy
Ġy a
ĊĠĠĠĠĠĠĠĠĠĠĠĠĠĠĠĠĠĠĠĠĠĠĠĠĠĠĠĠĠĠĠĠĠĠĠĠĠĠĠĠĠĠĠĠĠĠĠĠĠĠĠĠĠĠĠĠĠĠĠĠĠĠĠĠ ĠĠĠĠĠĠĠ
DOWN LOAD
N im
Ġh ero
ĠD a
As sembler
No ise
guide s
y w
Ġcl ar
Ġdet ector
ĠOrg anization
Iss uer
CATEG ORY
< ::
P ure
U F
co ffee
E c
i op
ob serve
Service Client
BL UE
M ixed
å Ħ
Ġre open
Ġz x
ĠY eah
Ġblock chain
Ġê° Ĵ
hw nd
åħ³ éĹŃ
j in
Ġre ordered
Ġg zip
Ph p
Ġâ ķ
ĠQu ant
V tbl
ur m
lo an
è¿ ľ
Ġautom ated
H ID
æ ¦Ĥ
ĠDE C
ĠPR INT
Tool kit
Ġ< $
ab br
Ġr db
Ġtro uble
çª Ĺ
Ġde sp
Con struction
IC Y
tribut ion
SU FF
Ġcon sequ
Ġk a
Ġany where
KEY CODE
priv acy
D ns
L b
ss i
åı ¦
{} .
c ats
in tern
Text ures
ä¹ĭ éĹ´
ãģķãĤĮ ãĤĭ
C p
sc c
AT UR
bb b
æł ¡
ĠPo ssible
", [
ĠJ Button
ĠSe verity
Thumb nail
t ight
add Listener
D ue
Ġf ly
ĠCon sumer
entry Set
quick start
set String
Ċĉĉĉ ĠĠĠĠ
sh m
lin space
SA VE
H IR
åį ¡
Good s
c db
f usion
al ia
sc m
ĠR OM
mode s
Å¡ ÃŃ
Ã¨ re
ĠDel ay
[ *
pr incipal
start Date
Ġconcept s
Ð»Ñİ Ñĩ
P itch
T unnel
ĠÑģ Ð¿
al d
ĠC rypto
ĠT OP
ĠW r
Ġback wards
SA CTION
Ġdetermin es
g om
ĠApp s
Ġfont Weight
Ġcr Ã©
åŁº äºİ
Ġc wd
Ġë Ĥĺ
Qual ifier
ĠSc anner
num ero
SW IG
A J
é Į
un es
Ġb unch
TH ROW
Ġcount ries
Wh y
rep lic
j m
Ġc ampaign
Ġn ature
eng an
Ġge bruik
Handle s
ĠC as
mat plotlib
ìħ ĺ
ì °
Ġt uples
Ġde ath
ä¹ĭ åīį
Ġ" <<
are as
Ġan alytics
year s
ĠAM F
Ġvirt ue
K h
Ð ľ
ĠA no
oo per
post Index
ĠMan aged
>? [<
ç¢ º
w ap
ÃŃ vel
ĠI EEE
ÑĤ Ðµ
urren ces
star ter
D ash
G J
ĉ ĠĠ
atic s
()) ->
Im Gui
D ifference
ver ification
Ġtrans mit
çº ¦
åıĤ èĢĥ
ĠElement s
Serialize Field
fade In
æĬĢ æľ¯
W IT
De cision
test er
Ġà¦ ª
iz ado
wh y
F allback
ĠA mount
Dis connect
Imp licit
Ġconf idence
SHARE D
p andas
in active
Ġ` \
ĠÃ© t
G i
j w
ĠB in
}} )
transform s
writ el
Ġkull anÄ±
r isk
en ed
ĠT Value
Ġal arm
Ġal phabet
Ġoption ally
Ġword t
Ġreal m
Div ider
" _
P W
ĠE dition
Ġthrow able
Ġext reme
Ñĭ Ðµ
Ġsuc ceed
è¯Ń è¨Ģ
ìĽ Ĳ
ĠC lock
type Name
Ġasync io
æī ©
r pm
Ġs peak
fl t
à¸ Ĥ
dat atype
v env
Ġ æĺ¯
Pro duction
FR ONT
ĠDep artment
ĠBack end
è§Ĵ èī²
B GR
Ġ ãģ«
R en
ëĭ Ī
Di agram
Ġmaint enance
Z y
(' *
ĠW ire
public ation
Ġhas n
ĠRet rie
éĴ Ī
% </
g yp
h ou
in herits
ĠP UT
Test Data
ĠTr ain
åħ³ ç³»
power ed
% =
R c
ĠE FI
add ActionListener
ĠIN SERT
Validation Error
ãĥ¼ãĤ ¶
Priv acy
Q X
il io
ĠS OC
(' $
ĠO wner
comp uted
Ġpop ulated
dv d
ĠãĤ µ
è¶ Ĭ
overn ment
ir it
Ã© g
expect s
æłĩ çŃ¾
H a
Ġin jection
COMM IT
ĠSupport ed
ĠApi Exception
c ritical
Ġne arest
Per malink
([ ])
ĠAl gorithm
b orrow
Ġ( _,
ol f
ce f
out s
lar ak
Full screen
ĠJS X
ĠRad io
\ [
Ġm il
ne ighbors
order ing
acc um
Ġ æĸĩä»¶
ĠT P
ĠJ WT
Node Type
Ġconver ting
Ġì¶ Ķ
Truth y
Î ·
Ġc tr
ate ll
ab er
sc ience
Ġdis p
sn ippets
ÅŁt ir
is im
iz a
Edit Text
ê³ Ħ
Ġsh ard
åģ ı
b ower
i Phone
Attribute Value
Ġnow rap
ĠOrder ed
po i
Ġper f
Ġag g
ĠPart ition
TableRow Color
P ac
W iki
co upon
ĠA ff
"> ';
Con tr
Ġacc um
bucket s
ĠDest roy
Ġ --------
get Size
ĠR x
Ġstd in
ĠPro f
Ġpart icip
ĠÃ ¥
>. <
ĠMin imum
Ġdom ains
O h
R s
Get All
Ġcl a
ĠError s
Ġre build
tr avel
Ġr er
add Item
Ġwe apon
Ġqu ando
éĥ½ æĺ¯
M b
P assed
u Ã§Ã£o
st icky
Ġ| [
ĠU DP
char acters
ĠSer vlet
i om
ar am
ĠP ick
ĠF T
out come
ive c
roll back
ik er
å® ĺ
Ð» ÐµÐ½
QU OT
q n
Ġg Ã¶
unct uation
B TC
S cheduling
ce stor
åħ į
PL US
('/ ')
éĩį æĸ°
B el
me ters
Ġip v
//---------------------------------------------------------------- --------------
Ð¾Ð· Ð´
LET ED
½Ķ ëĵľ
d ire
to Match
Sh ot
ĠSt ar
ĠCh rist
up al
Ġbe i
ĠEx tended
Ã© se
TEST S
Ġsym fony
ĠHyper ledger
Y L
or um
Ġ} </
con str
port ion
desc r
C rop
ĠF urther
no thing
Ġsub routine
lin der
Ġcapt ured
ĠSTD METHODCALLTYPE
I g
Ġm ob
ff c
éĻ ¢
ĠInter ruptedException
' ");
g test
n it
ap r
ĠF IL
Ver ifier
vers ations
Ijo i
F IND
process ors
Ġcorre lation
P b
_ {\
e id
u pe
get AbsolutePath
ĠH z
Temp orary
Success fully
Refer encia
W x
Z m
f en
or ge
AR GE
Ġk ubernetes
ik an
Ġinitial izer
ighb our
MAC H
g wt
w arp
â ī
ed ucation
Ġv r
Of Week
Exp ired
à¹ ģ
gre ater
ï¼ī ãĢĤ
Ġvisual ization
Ġt or
Ġw ildcard
Ġe k
Array Equals
å¤ Ł
ĠpÃ¡ gina
ol v
sh aring
By ID
User ID
rad a
ĠÐ¸ Ð½
De ck
app a
local ctx
oci ety
Ġtrain ed
Ġo auth
Ġw ie
Ġg one
], [-
Or acle
Ġaccess Token
network s
Activ ities
¦ ãĥ¼ãĤ¶
Ġs pe
Ġne ural
× ĳ
ar ak
ĠH ot
len ame
æĹł æ³ķ
fu zz
D yn
S ca
} \\
Ġc id
Ġm eng
th resh
Ġsome how
ĠWh ite
ç®Ĺ æ³ķ
M J
se verity
ing est
ul ating
Ċĉĉ ĠĠĠĠĠĠĠ
Ġy ap
:// /
Ġdir name
Cpp Type
L ITERAL
Ġ` :
ĠĠĠĠĠĠĠĠĠĠĠĠĠĠĠĠĠĠĠĠĠĠĠĠĠĠĠĠĠĠĠĠ ĠĠĠĠĠĠĠĠĠĠĠ
fore cast
Ġswitch ing
æĹ¥ æľŁ
A AC
O d
Ġ čĊĉĉ
str action
Ġdis count
UR CES
trans lator
root Scope
Ġfire wall
ĠSl ack
Ġc up
ad y
In structions
vid ia
S ITE
Ġde ve
Comp uted
ym er
ĠType Script
Ġopt imal
Ġ/*! <
li ant
Ġde crypt
Ġl ifecycle
æĪ ĺ
Ġdownload ing
WAY S
\ ]
set Style
Ġat ual
Tool Bar
_ "+
ill er
IO D
á» §
Ġbucket s
iter ate
à¸ģ à¸²à¸£
BOO LEAN
ãĥĿ ãĥ¼ãĥĪ
FACT ORY
P p
Ġvs code
et ary
ĠL iteral
group by
Cl s
amb ah
Pe ople
K ER
ë ¸
mod ern
Ñĥ Ð½
è¦ģ æ±Ĥ
ĠHTTP S
Alloc ate
ĠMO DE
: |
Pro of
ĠSQL ite
> **
E sc
T om
scala js
Ø§Ø ª
Oi J
U tc
d td
Read Write
i est
p eng
Ġ Ñħ
get Color
Ġtype Name
IR T
åħ¬ åı¸
ë² ķ
ãģ£ ãģŁ
G tk
ĠT EMP
ĠĠĠĠĠĠĠĠĠĠĠĠĠĠĠĠĠĠĠĠĠĠĠĠĠĠĠĠĠĠĠĠ ĠĠĠĠĠĠĠĠ
ĠWeb site
Ġmo Å¼
de limiter
me k
Or Update
spl ash
de pt
Ġh or
valid ators
Ġoff ers
ĊĠĠĠĠĠĠĠĠĠĠĠĠĠĠĠĠĠĠĠĠĠĠĠĠĠĠĠĠĠĠĠĠĠĠĠĠĠĠĠĠĠĠĠĠĠĠĠĠ ĠĠĠĠĠĠĠĠĠ
vector s
Accept ed
ĠMark et
Ġinform aciÃ³n
C u
E mploy
Ġs peech
Ġin p
ĠRe store
Ġcol on
++ );
æľ Ľ
Cur r
Ġdiv ide
(@ "
members hip
+ )
L m
ma de
CODE S
dar win
ent i
ĠF P
Ġi os
Ġmethod Name
ä¸Ĭ çļĦ
ĠÐ¸ Ð»Ð¸
M ULT
r si
Ġs age
(" &
r ut
Re load
Ġ` #
Ġpro be
ĠG reat
aint y
A mp
I gn
k om
** */
user Data
Tag Helpers
ĠEX IT
us a
ans i
altern ate
Ľ i
pe p
DO UT
TE CT
property Name
å¹¶ ä¸Ķ
y z
am o
ord ion
á» ĥ
Ġconf irmed
ĠBe an
Contains Key
s av
Ġf open
co vid
Ġm anner
Ġtag ged
ond on
Ġoptim ized
Ġseparate ly
çĪ ¶
; '
B J
S in
S an
g loss
it os
de scri
Ġ' }
BO OT
Ġser vidor
sub plots
ĠUn ix
cd r
Mod ifiers
Ġadv antage
R K
p ci
v Ã¡
Ġde i
bl ade
ç»ĵ æĿŁ
C LOCK
x FFFF
ĠE MP
'] ],
ĠPri mary
ĠRemov es
B W
[ **
Ċĉ ĠĠĠĠĠĠĠĠĠĠĠĠĠĠĠ
MA JOR
Ã¤ ll
Ġf g
ĠFl utter
æīĵ å¼Ģ
D ONE
M igrations
c ies
Ġaction Expression
è· ³
ĠByte Buffer
N orth
åı Ī
MA STER
ĠLi ke
y f
st en
Ċĉĉĉĉĉ Ġ
std int
Read Line
cr ud
Ġsever ity
orph ic
Tra ffic
or ian
en velope
ER E
act ic
ãĤ ı
HX LINE
I so
N v
T iles
ĠP aint
ĠB oston
Ali ases
f oto
ber os
To Many
Ġtrans lated
ĠInter rupt
ìĬ¤ íĬ¸
f el
Ġ{ [
ìĭ ł
Ġrelationship s
ĠP G
ĠTr avis
Create Info
Option Pane
è§ Ĥ
Autom atic
Greater Than
pl ant
ä¸ ĩ
new Value
Sh a
Ġenum erable
semb lies
ĠFl ash
` ='
ob js
FI ED
End Time
Ġhome page
); </
Ġj j
data frame
text it
cond itional
ĠSelect ed
ãģĿ ãģ®
y ch
sp r
Ġne ighbors
sk ills
quot es
irection al
termin ate
override s
t as
Ġl ig
struct ures
Ġinstall er
Font Size
ĠSpec ific
ĠProvide s
ack bar
Ġun necessary
ĠKey Error
Ġsynchron ous
er ated
ot p
ĠR X
ĠH ar
à® ¾
Iss ues
J Unit
f sm
p ill
s and
Ġn id
lo st
ĠS ocial
OR LD
En emy
loc ator
Ġweb socket
)/ (
Ġ"[ ",
ĠÑģÑĤ ÑĢ
F mt
b mp
w en
Ġobject ive
Ġtmp var
ĠìĬ ¤
B udget
` _
Ġs ingleton
Ġn t
ĠC ircle
ĠE A
op us
struct ured
è¿Ļ ç§į
ĠModule s
Ġaffili ates
w il
Ġ Ú©
text color
CON VER
ITH UB
sell er
è¿½ åĬł
M IB
an alyze
ĠS AP
Key ValuePair
Ä± k
Ġagent s
Ġpol ynomial
ALI AS
Ġse ctor
ĠF our
Ġ` ./
Equal ity
Mod ification
ĠAl ways
Ġwait For
Ġâľ ĵ
or o
Ġch ai
Ðµ Ñĩ
ume s
ĠWAR N
æĽ ¸
W ifi
g k
iv el
ĠF eb
e de
Ġ ĊĠĠĠĠĠĠĠĠĠĠĠĠ
re cover
Ġre duction
ĠS olid
di er
ĠList s
Ġpart itions
mark ers
support s
Rep lic
$/ ,
t unnel
Ġc ro
my batis
jo hn
Ġedit ed
çİ° åľ¨
ĠBY TE
get Simple
Tr acing
Ã¼ ck
Ġer ro
appro ve
T ur
\ (
Ï Ĥ
Ġm iss
ĠT oggle
çĽ ĺ
ç¼ĸ è¯ĳ
ĠI de
ĠD ummy
com bined
po k
ne e
à¤ °
f ono
Ġre pos
ap im
map hore
Ġcontribut ions
associ ation
] )))
f ails
Ġc ertificates
Ġbe am
à¹ ĥ
å¾Ĺ åĪ°
Ġsimpl ify
st h
uc hed
Ġne ither
ca iro
Sl ave
COMPI LER
ĠK er
Is NotNull
Ġus ÅĤ
Ġê ´Ģ
imon ial
K C
us hes
ĠSt ory
}) ();
åĮ ¹
activ ated
? }",
E z
end ers
ĠM ount
Ġ> &
ãĤ Ħ
V N
() ==
ĠC irc
Ġselect ing
CALL BACK
Ġp lots
Ġb d
In finity
ĠC atalog
ĠH Y
Change Event
cap abilities
Ġim m
ĠCo untry
çŃ Ķ
ap k
Ġh on
Ġon Error
Ġcontext s
Ġactiv ated
n al
ON ES
RE PORT
Ġpart ner
ĠHT MLElement
"/> .
d ut
f ps
z sh
** )
ĠP ASS
=' '>
ëĭ ¹
B oost
D aily
ĠP et
Api Client
greg ated
çķ Ļ
æ· ±
Ġw enn
App lic
ÅĤ a
åħ³ éĶ®
uzz y
le cc
TR L
Or Create
Sw ift
va adin
Ġsuc ceeded
ĠAno ther
ĠS napshot
Ġtr avel
right arrow
Ġob servations
Ġsock addr
p j
Ġp name
Ġ\ $
Ġfile Type
Ð° Ð»Ð¸
Ġinter cept
ĠÐ¸ Ð¼
Gr ade
ĠCH ANGE
Phone Number
or ia
Ġ- (
ĠM SG
__ ('
Ex am
RE PLACE
mo j
å¸ Ī
åĲĮ æĹ¶
friend ly
B ene
last name
Ġbig ger
ìľ Ħ
ĠIss ues
Ġc el
Ġa ë
ĠS uite
Ġto ast
Ġset ter
save fig
âĸ Ħ
n P
os it
ĠW ide
ey a
Is olation
ĠFin ally
Y Q
Ġa ì
if ty
ĠI cons
ãĥ £
sub tract
press ure
å° Ķ
ĠRequest s
Ġà¦ ¤
hint s
AB B
ĠCon verts
Ã¡ rios
TH IS
Cent ral
èĪ ¬
Ġthe ory
Ġw get
ON U
En c
Rem ov
Ġk ubectl
Ġ}) }
Format ting
mer ch
ric ht
D raft
Ġs copes
pro tection
auto complete
âĸĪâĸĪâĸĪâĸĪ âĸĪâĸĪâĸĪâĸĪ
ä¸ ¾
AD J
Ġap ache
Page Size
oriz on
Ġp z
ex cerpt
ĠOn Next
Ġconf usion
Ġ' ^
Comp ilation
Ġ~ &
ij n
P IC
c lf
j int
ER C
ãģĤ ãĤĭ
S z
Ġre covery
ãģ °
... \
Column Type
Ġfun ct
Ġâ Ħ
SA ME
schedule d
Ġvirt u
ãģĽ ãĤĵ
Ġanv Ã¤nd
S he
q x
av i
Ġcomp il
field name
reg ar
Author ized
è´ Ł
',[' ../
st aging
Ġe ye
De ferred
ob by
ĠJ AXB
/ ~
W a
ĠT ENT
ĠW ater
Ġli bs
Query Builder
Ġexec ut
uk an
Make file
b ol
j Panel
m ont
Ġ ĊĠĠĠĠĠĠĠĠĠĠĠĠĠĠ
in as
is c
(' ')
ĠE G
CL AS
Ġund o
Ġcommunic ate
ĠV ault
Ġì ¢
det allenotacreditopunto
Rem ark
G AME
get Body
ide a
action Expression
Ġcons istency
ĠMQ TT
AVAIL ABLE
tr uncate
Ġsh allow
ade cimal
åħ ģ
Äħ c
t icker
v lan
ĠL ex
An n
The ta
Ġknow s
åĮħ æĭ¬
ĠIndic ates
z ap
it ched
per fil
à¸ Ī
Ġsk in
è· Ł
sil ent
get M
get Image
H op
get Service
]) ]
Ġview Model
Dat os
EVENT S
Ġtermin ated
P WD
Ġre vert
Ġcreated At
](../../ ../../
nick name
f at
Ñ ĳ
Ġlink ing
coll ate
åĵ ª
çĭ ¬
u ir
Ġf irmware
pro cesses
Ġ\ &
åĽł æŃ¤
P okemon
ag ain
cess o
ec s
gn ome
Ġbit Field
Ġve h
. '.
F ork
X i
Ġ' :'
im en
Request Param
Ġref ers
ĠQu aternion
% "><
id as
Ġo luÅŁtur
ĠM UL
ĠU m
End Point
Logged In
n ÄĽ
comp arison
AS N
render ing
ðŁ ĳ
Ġadmin istrator
men us
< {
C d
D ensity
s lim
av atars
ĠF abric
Ġun lock
'] =$
Test Suite
pass port
ĠConf irm
ĠIntro duction
st acle
an aly
pro posal
Ġnew line
Ġj ak
Ġus ando
dist inct
cha ft
" $
F U
ot ify
Inter est
Dir s
NE G
Ro pe
Writ ing
Ġê³ µ
è§Ħ åĪĻ
èŃ ¦
G row
ar o
ĠG ui
ãģĻãĤĭ ãģĵãģ¨
ĠUN IQUE
ĠScal a
cont ain
du it
Part ner
Ġinform aÃ§Ãµes
ĠA udit
ĠD rive
Ġch i
ĠNew tonsoft
Ġappreci ate
get Source
ãĥ ¯
An onymous
NO UN
ĠAd just
ĠSec ure
shop ping
Ġscroll ing
dh cp
Ġint ention
ard u
Ġà¦ ¸
Ġcancel led
t ions
__ ).
ĠG reen
Ġform Data
à® ²
ent y
Ġo larak
() )));
ĠS ales
et t
ay Ä±
ĠP T
Ġser vi
æĭ Ł
ENC Y
Q Name
fl ake
vari ants
YG ON
S essions
Ġb rief
Ser ve
åĪ Ĵ
light s
Anchor Styles
S IDE
re veal
AR N
sql parser
ÐµÑĢ Ð¶
Language s
ĠHandle s
ê ¹
Ġe a
Ġet t
N ick
scroll Top
ĠM ESS
header link
gen de
ĠGL sizei
Ġ ub
api Key
ĠÃª tre
s lick
on i
Ġin place
ĠRe cyclerView
Ġdir ty
Ġconven ience
ĠìĥĿ ìĦ±
B all
O l
st uff
([ ],
ASS IGN
, $(
Re cv
op lay
Ġlow est
M c
U ses
e ase
Ġa utor
ag le
Ġg tk
ath an
clo ak
Ġpack ed
L java
Ġre scue
ĠF igure
read line
Not ebook
ĠìĿ ¼
Normal ize
R ULE
Pub lished
íĺ Ħ
# __
block chain
è¿ĺ æĺ¯
uzz le
åĮ¹ éħį
P ed
Ġcon duct
") }
Ġcomp osition
comp l
æ» ¡
s impl
Ġ{ #
get First
ĠE B
Ġr ap
Http Status
s copes
Ġ ug
re a
ist e
unt a
èµ ĸ
ĠCN WS
get Block
ĠT or
RE MOTE
ak u
Path Variable
sg i
rid ay
Microsoft Docs
<% @
A j
E ither
Ġp print
Ġch rom
gr unt
pc m
Ġcorre ction
Ð½Ð¾ Ðµ
} };
se a
Ġ" ?
Ġ\ ""
AV X
COMP LETE
Fac et
Quest ions
N y
f ce
Ġt el
ĠI MAGE
ĠI BM
ll d
ĠH ex
Add on
CL USTER
ĠLO CAL
ãĤ¹ ãĤ¿
ĠContent s
ĠJo urnal
G CC
h un
Ġst rength
ĠE s
RO T
åĽŀ è°ĥ
datas ource
, {
Ġr r
âĢ¦ âĢ¦
èĹ ı
N i
S po
t gz
co digo
Code Analysis
Ġ|| =
Web Kit
.* ,
Ġden ied
ĠMem bers
Æ°á» £
P kg
R d
q e
s ia
è ¼
ĠÐ ĺ
ier ung
YO UR
ë ¹Ħ
Ġa á
ĠI sl
Ġel ler
Pl ug
quot a
PACK ET
- [
f usc
g oog
l ands
p ct
re member
to JSON
Ġ<< "
off icial
END OR
ĠÐ¿ÑĢ ÐµÐ´
Ġattemp ting
L y
md b
ian o
Te lemetry
ĠNO MOR
Beatmap Level
/ +
T k
v int
í ĶĦ
Ġl c
Pro j
Ġen im
iler plate
ä¸º äºĨ
ãĤĪãģĨ ãģ«
Referencia Personal
T Key
è ²
get Full
à¦ ¯
Ġvalid ated
Prop Types
W ell
c Ä±
net ic
ĠCh oose
>: <
ĠÐ¿ÑĢ Ð¸
Ġconcept ual
B onus
N IC
z M
ron o
Del im
] ")
is True
Ġp et
Ġh at
IMP LEMENT
J DK
S orry
X M
ì ¦
Ġì Ľ
å° Ħ
ĠLog ic
ĠAs sets
åİ ĭ
Dom ains
C DF
I ID
TO C
Pri me
Ġvari ance
Ġhy pre
Ġrecurs os
it ness
Ġd g
am ond
ĠMe trics
Ġide al
ĠW allet
ĠâĢ ¦
Mis c
ĠUnsupported OperationException
m art
ar cs
lo d
"> :</
Max Value
ĠMan ual
æľ¬ åľ°
intr insic
Intro duction
m aker
Ġn el
Ġtr ap
br ain
ĠActive Record
& );
or p
al ice
Ġse edu
assert Is
åį İ
Executor Service
ĠJob builder
GENER IC
/ ')
A DE
Ġval ores
æĽ ¿
toBe Truthy
Ġremain s
Ġ"_ "
deli ver
ĠTech nologies
Entity Framework
ĠConn ector
G as
w or
pl ural
Ċĉĉĉĉ ĠĠ
Ġ] ),
ik el
Native Api
bat im
Ġg ave
ĠM agic
Get Data
Get HashCode
Ġoff ice
Sc r
PR IMARY
abc def
ìŀħ ëĭĪëĭ¤
æ§ ĭ
ang led
Info List
Sto red
Ġdebug ger
Ġclo ses
f st
OVER RIDE
tol ist
qu am
pars ers
BO UND
Ġrep lica
G IT
co bra
=" ";
\\ .
spec ification
," \
Host name
prop ag
Bo th
> |
In str
fig caption
Ġmin us
EL DS
EM R
Oper ating
ĠBack up
H EX
set Image
Ġjob builder
Db Context
dimension al
Illegal ArgumentException
a ac
as r
Ġhe ar
ng x
Async Result
Ġown ed
Ð¾ÑĢ Ð¼
ĠMenu Item
measure ment
"}]} ],
ĠTENT ANG
b link
Ġpl ans
Resource Group
ĠÂ ·
C n
× ł
ee ee
,,,, ,,,,
SQL ite
ict ures
Ġmon o
breadcrumb s
s ix
Ġt z
im mediate
ĠW eek
pr icing
Override s
Ġ\" %
inf rastructure
Z l
t ie
Ġdisplay ing
n lp
Ġs ale
Format Exception
is is
inter cept
fl d
US AGE
Max Length
Ġcost s
ĠStat istics
) })
F am
w u
Ġ= ================================
Ġm ux
RE MOVE
íķ ¨
ãĤ³ ãĥ³
C CE
D u
get Session
ĠC ASCADE
Ġinter sect
inner Text
Ġhost ed
ĠDet ect
Clip board
Ġ( ($
ĠN g
ĠF riend
pos als
\+ ::
Host s
Ġresp onsive
ĠGrid BagConstraints
Ġdestroy ed
l ens
ĠP ID
ĠM UT
ĠBlock s
k ap
ic mp
ä¸ ĵ
TR ACK
Layout Inflater
å¾ ·
aff e
C IP
F REQ
K on
ient es
æī ¹
ĠResource Manager
ãģĵ ãĤĮ
ĠEdge Insets
T G
ĠS ep
ĠH AND
To Be
Cre ates
Z Y
Not ifier
Ã¤ ng
Frame buffer
Load Balancer
W est
ç Į
Ġb ul
db l
Str ong
ĠTO KEN
Ġcollect or
N W
Ġc types
ĠC our
con versation
fo obar
AS Y
Ġok ay
M W
g op
Ċĉ ĊĉĊ
Ġser de
urren cies
Parse Exception
ê³ µ
Ġcontr ast
B er
ch mod
ĠG ot
data Tables
[' _
ĠCon straint
Sub system
Ġgr ade
Record ing
ĠGener ation
] ::
` <
v or
Ġd urch
N ear
T ang
Ġ rom
Item Stack
Ġz k
ìŀ ĳ
guide lines
Ġmembers hip
ĠProgram ming
MAT RIX
] ').
get Target
Ġim mutable
corre lation
gro ovy
H DR
Ġr ates
Data Array
Ġsh ut
enc i
Inter active
ero us
'> ;
alax y
C ancellationToken
r di
mp tr
api Version
UN ION
Ġreview ed
Ġexperiment s
íĺ ¸
J l
Ġt on
timestamp s
F ly
ĠU ses
Check sum
åº ķ
Char set
Ġalign Items
Direct ories
S MS
=" {%
Ġstr ange
TR IG
ç» ĥ
(/ ^
Ġens ures
GeneratedMessage V
Ġs id
Ġinst antiate
å¾ ª
Ax es
Sim ulator
P USH
An no
æĸ ¯
Ġpe ak
Ġmis sed
Ġthought s
í Ķ
ĠC T
Ġ> -(
ĠSh ift
STAT S
lo ve
ĠB al
Key Event
Property Value
ĠDep th
Ġtech niques
ch n
Ġpl anning
Ġover load
help viewer
Ġ---------------------------------------------------------------- ----------------
Ġgp io
æ£Ģ æŁ¥
ĠðŁĳ į
H IST
par ing
bar ang
Seed er
stell en
Ġíķ¨ ìĪĺ
N PY
Î º
è ħ
um en
Ġr aster
Ġcol lation
On Init
Call Back
Ġcomponent Did
WORK DIR
Ġsem antics
V G
f arm
Ä ĵ
é ¥
ĠS am
æĸĩ æľ¬
( ("
ss on
ĠInst antiate
ĠCl asses
istor ic
v it
Ġb cm
Ġv Ãł
ĠL aravel
Ġ_ ("
Text Input
Ad s
Ġref lection
ĠPh ase
Ġsaf ety
ĠPur pose
" ",
h is
ex plorer
ĠD W
ĠB IG
Ġj Label
arg ar
Ġname spaces
att ention
mov ing
Ġrotate X
ĠUser name
make Text
xffffff fe
Ġkotlin x
' ";
t in
ĠG U
ÑĢ Ð¾Ñģ
ra id
Ġsp ent
ĠForm s
Ġrandom ly
N OR
T orch
b ff
ct s
Ġst amp
err al
ðŁ Ĵ
ĠBlue tooth
M SC
Ġin sp
ap pe
sec utive
log its
mit re
ä¸Ģ ä¸ĭ
Ġoper ands
Acc uracy
éĤ ®
PAY MENT
Ġad ams
ĠEn cryption
ĠSM ALL
Q C
b ecause
on load
Ġre action
ĠP OS
os m
ive au
NA MIC
ĠInstall ing
Own ed
sal ary
ãĤ° ãĥ©
å¢ŀ åĬł
. âĢĿ
a us
Ġv eya
Time Zone
ĠOpen GL
Counter s
en ess
en ne
Ġh ence
pre tt
æĬ ķ
st ores
ar ma
ĠB ottom
Sent ence
ĠDAT ABASE
ment ion
cc b
remove EventListener
F ocused
ar ative
um i
Ġl ub
Ġle aves
Di ag
ĠEvent Emitter
ĠDist ribution
Ġexclude d
Ġfriend ly
/ ";
Ġf atal
ack er
Ġk afka
ld quo
Ġgroup Id
ru ption
baz el
c andidates
an imated
set CellValue
ER A
Ġan imal
Ġmargin Top
">\ (\
A UX
T olerance
h om
s quared
de posit
ĠW riter
Ġtest er
Ġ'\ '
ĠC VE
STATE FUL
ĠCOMM AND
sph inx
f emale
r ical
ri r
pre p
Ġ/> }
ãģ« ãĤĪ
ĠSTO RE
Q g
e os
Ġb ullet
Ġin corpor
ec all
Null PointerException
Ġimpro vement
Ġìĺ Ī
Ð Ĺ
ul ates
ab d
ĠĠĠĠĠĠĠĠĠĠĠĠĠĠĠĠĠĠĠĠĠĠĠĠĠĠĠĠĠĠĠĠ ĠĠĠĠĠĠĠĠĠĠĠĠĠ
Ag gregation
created At
ĠGe cko
c ors
ĠL EN
__ */
BU IL
Ġinit ially
ĠHttp Request
ANG LE
K G
ss o
ĠP OP
ĊĊĊĊĊĊĊĊĊĊĊĊĊĊĊĊ ĊĊĊĊĊĊĊĊĊĊĊĊĊĊĊĊ
or no
ĠC od
dd dd
ĠRe ading
Ġthread ing
capt cha
inv est
ĠMock ito
æĲ ľç´¢
Ġc lic
un ame
ĠS WT
ĠT L
Ġcon crete
De ps
COUN TER
Text String
( \"
; ");
=" .
br az
ĠRe verse
token izer
à° °
ĠLL VM
ĊĊ ĊĠĠĠĠĠĠĠĠĠĠĠĠĠĠĠ
ert a
ĠPage s
l aw
æ Ĥ
Ġ[ .
od ies
ĠP P
ĠB N
ik o
Ġnum erical
ane se
Ġwrit able
Ġrep lication
sur f
æī¾ åĪ°
R NA
Ġ ä¸į
text tt
URI Component
built ins
Ġp wd
ãĥ ĭ
Set Name
Get Instance
man de
Ġborder Radius
ĠPAR AMETER
h on
Ð ķ
in flux
Ġ" ><
list dir
Com munication
Exp licit
Ġæ Ľ
Ġcoefficient s
V H
at tribs
No Such
Ġinterval s
Sn ippet
Da emon
åħģ è®¸
n ement
y x
ì ¡°
ED GE
Ã¡ z
è§ ¦
ĠSub st
ĠContribut ors
J R
er ce
ol i
Ġì ¤ĳ
Min i
Ġoper ate
] ')
Ġs vc
Ġbase s
current User
ĠRem oved
ĠLD AP
separ ated
f ocused
v ens
Ġtr acing
ven ance
Ġacc ident
Att ached
ĠRuntime Error
Factura Proveedor
G auge
ĠĠĠĠĠĠĠĠĠĠĠĠĠĠĠĠĠĠĠĠĠĠĠĠĠĠĠĠĠĠĠĠ ĠĠĠĠĠĠĠĠĠĠĠĠ
=' ',
DO CKER
Sp aces
Top Level
,, ,
ç¬¬ äºĮ
Configure Await
Ġmeas ured
azel cast
REFER ENCE
K T
Ġp icker
comp ound
S outh
f ib
č ĊĠĠĠĠĠĠĠĠĠĠĠĠĠĠĠĠĠĠ
at l
ap ollo
Ġh dr
Ġcustom ize
SY N
Ġinc ident
([] );
e or
ĠĠ ĊĊ
Ġt olerance
Ġh ay
Ġ// }
Ġcom ando
âĶ ľâĶĢâĶĢ
ĊĊĠĠ Ċ
æľī æķĪ
Ġinit i
concat enate
GRO UND
ĠDepend encies
B s
Ġn v
ly n
ĠRe ason
ĠUn fortunately
Sch ool
ãĤŃ ãĥ¥
lock s
END POINT
Tex Coord
æ¯Ķ è¾ĥ
Ġ åĪĨ
Ġis o
Ġg fx
AL G
reg ression
ĠComp osite
under line
Ġrotate Y
Ġl Ãł
Ġr p
ml abel
Qu aternion
BU CKET
iet f
Ġaltern ate
V u
IN A
a uc
Ġ` '
add Group
riv es
, *
T en
c da
w off
× ĥ
Ġn ur
Ġb lo
Ġend Time
weight ed
spon ge
Ġarr ange
" (
H dpiMode
q m
s as
w ing
on ing
ĠM usic
over write
web hook
AP IC
member of
WINDO WS
B RO
L atch
R ol
un ist
Ġde scriptors
pl d
RE CTION
Dis p
lv l
éĩį è¦ģ
WIT HOUT
ardu ino
Y o
Ġp ix
Ġle aving
çİ ĭ
Ġscreen shots
ĠíĻ ķ
c ust
Ġst reet
Ġde crease
Ġpro te
Ñĥ Ð¶
noop ener
es ch
ĠRe ceive
Ġadd Criterion
State ments
AD V
Check point
ĠCOL SPAN
åıĳ å¸ĥ
èİ· å¾Ĺ
Ġsus pend
D n
L X
() *
Ġset Is
Ġq r
Ġcap ability
æ¸ ¸
m ute
Ġre pr
ĠL INE
Stat istic
orn ers
Occ urred
Ġch k
Get Mapping
decl ared
PH Y
. "),
b ay
c ub
l apping
Ð £
Ġv ale
ER TY
ifi k
Client Id
Ġpost er
M ob
aw ai
é¡ º
Ġ× ľ
/' +
ĠDump ing
` -
v infos
ĠS peed
Ġcont en
Ġph ys
Ġaccur ate
A f
K i
Ã Ĺ
Ġrotate Z
MAN AGER
Ġcirc ular
Ð°Ð¼ Ð¸
MET ADATA
Ġc rc
get Repository
'] ."
Ġsim ulate
ĠEngine ering
ë² Ī
Ġnavig ator
nos cript
E qu
Ġb anner
iv ari
Ġl ifetime
Rout ine
Bounding Box
E igen
L CD
\ ">\
e ce
l tr
Ġp seudo
der ef
Ġcomp licated
ç¬¬ ä¸Ģ
j g
Sur vey
G em
Service Name
Sh apes
Ġno translate
Ġ'/ ',
Ġgraph s
Ġtransform er
^{ -
Gram mar
at tempt
Ġv Ã½
ĠString Utils
Ð¸ Ñı
à¹ Ħ
Section s
ĠLI KE
ä¾Ŀ èµĸ
ar ab
Ðµ ÑĪ
Ġover ridden
IDENT IFIER
Ġdecor ator
/ ></
j free
line Num
Ġgroup ed
Ġobj et
Argument Parser
å½ Ĵ
Ġdispatch er
MIS SING
f wd
ann y
Ġimp ossible
cas cade
ç² ¾
; :
A h
g lass
er ver
Ġb en
ad og
part icles
éģ į
` ",
Ĥ ¤
Ġ' ?
em itter
St reet
ĠR ename
Node Id
åį ĩ
Ġweb hook
F XML
in ations
ĠA G
set Selected
Ġget String
Ġcheck er
ĠìĹ ¬
N l
P OR
b dd
or Else
co ol
Ġr apid
Ġbin aries
ĠRender er
ĠNum eric
ĠASC II
; ?>
U buntu
d ados
// $
Ġstatus Code
PRO XY
Ġkind s
ĠSim ilar
Ġmedi an
Ġc map
set Type
ĠB ay
Pro v
oo le
post er
Inv oker
Experiment al
[...]
