{"æ½»":0,"æ¶ģ":1,"ïĴĻ":2,"amily":3,"facebook":4,"Ġ--></":5,"êĩ¨":6,"'},":7,"urchase":8,"å¼ķ":9,"çİĨ":10,"Ġ())":11,"Thank":12,"è¯µ":13,"ç¢Ħ":14,"ç®¿":15,"interpol":16,"ç£Ĺ":17,"Â£":18,"ðłĿ¹":19,"čĊĠĠĠĠ":20,"Copy":21,"Ġlogin":22,"éĢīæĭ©":23,"Æľ":24,"ã¬¿":25,"Ġfilters":26,"UES":27,"Ġproof":28,"æº¼":29,"åĹ¢":30,"æĴ¸":31,"ginx":32,"Da":33,"íĽ¼":34,"ĠDocumentation":35,"é©ĺ":36,"lir":37,"åĤ¼":38,"å¼ķé¢Ĩ":39,"Keyword":40,"Ú«":41,"Ð¸Ð·":42,"xce":43,"ê¼Ń":44,"åħ¬ç¤º":45,"ĠLicense":46,"office":47,"Ġdims":48,"çĳĹ":49,"urs":50,";//":51,"é£±":52,"à·ħ":53,"ë´ĥ":54,"é±´":55,"áĦİ":56,"Ī":57,"æ¼¤":58,"éıħ":59,"gi":60,"Ġ))":61,"ê°Ī":62,"ðŁĵ¶":63,"ĠTIM":64,"ĠMaps":65,"USAGE":66,"ðĵĢ«":67,"è·Į":68,"åµł":69,"èĦ±ç¦»":70,"fe":71,"Ġknowledge":72,"afb":73,"à¼»":74,"çİģ":75,"(-":76,"è°ľ":77,"åļ§":78,"çĵµ":79,"()\"":80,"å¼¦":81,"Translator":82,"éĭ©":83,"ÃĮ":84,"êĭ":85,"é½¦":86,"etur":87,"æĿ¢":88,"éĢĺ":89,"ìľĶ":90,"ĠMIN":91,"ðłĶ½":92,"does":93,"çļĦåİĨåı²":94,"çģĨ":95,"å¬ĩ":96,"Ġ\":":97,"á»ģ":98,"midine":99,"êĬ¸":100,"LENGTH":101,"Ġgeo":102,"DllImport":103,"jÄħ":104,"spond":105,"transforms":106,"PIX":107,"éĹ©":108,"éĺĥ":109,"éĩĬæĶ¾":110,"çĢĲ":111,"ä¸ĵæ³¨":112,"ĠMicrosoft":113,"çļĦåı¯":114,"Ġ-=":115,"ç°©":116,"anie":117,"plural":118,"ex":119,"Ġversion":120,"gle":121,"á»Ń":122,"Sty":123,"attempt":124,"éĪĬ":125,"åķ¤éħĴ":126,"çıģ":127,"éŀ²":128,"æģģ":129,"ä½łçŁ¥éģĵ":130,"è£®":131,"ç¼ģ":132,"è¼Į":133,"aster":134,"æ®º":135,"Ġgulp":136,"èĤ·":137,"áĲµ":138,"op":139,"xsl":140,"çļĦåıĺ":141,"APPEND":142,"readFileSync":143,"oci":144,"ÍĤ":145,"èĦº":146,"ä¸įä½Ĩ":147,"MA":148,"åľŃ":149,"ssa":150,"èĥ±":151,"////////////////////////":152,"done":153,"ĠTextField":154,"è¹Ĭ":155,"icky":156,"çħ³":157,"èĴĻ":158,"å¤Ł":159,"éĽĮ":160,"ä¾Ľç»Ļ":161,"æ£¹":162,"train":163,"çĤĻ":164,"æ´ħ":165,"ä¾·":166,"cov":167,"Software":168,"](":169,"âĢĵâĢĵ":170,"é¦ª":171,"áĥĵ":172,"àªĦ":173,"JL":174,"ire":175,"èĬļ":176,"è¾®":177,"âĻ¥":178,"ç¬¡":179,"ë³ı":180,"Ġplain":181,"çĵ¯":182,"èĬ§":183,"æ¡¶":184,"Ġutilities":185,"ioctl":186,"DU":187,"å´·":188,"æº»":189,"åĵĪå°Ķ":190,"asta":191,"æĺ¥":192,"getItem":193,"äĭ£":194,"Ġownership":195,"áĻ³":196,"é°Ģ":197,"ßļ":198,"ðŁªĦ":199,"Ġscrolling":200,"ĠâĢ¢":201,"UndefOr":202,"çĶģ":203,"Ġchange":204,"èĵµ":205,"à®Ģ":206,"'\",":207,"è´ģ":208,"ĠWhen":209,"å¹Ļ":210,"<!---":211,"åĨ¯":212,"çĵı":213,"èĦķ":214,"ç¾Ķ":215,"(\"&":216,"Ġprevious":217,"åĸ»":218,"Req":219,"æłµ":220,"Manager":221,"());":222,"pop":223,"ç½ĳ":224,"æħĬ":225,"weighted":226,"Ġvid":227,"ëıķ":228,"åĻį":229,"Ġbreak":230,"InternalFrame":231,"ĠTri":232,"è½Ł":233,"backtrace":234,"SN":235,"ç½ļæ¬¾":236,"physical":237,"ĠBucket":238,"å¯¼æ¼Ķ":239,"Ġdataset":240,"ÉĬ":241,"ams":242,"àº»":243,"Endpoint":244,"Ġcdecl":245,"áĶħ":246,"ä»¶çļĦ":247,"Broadcast":248,"ïĢª":249,"define":250,"æģĹ":251,"ĠPath":252,"Ġadditional":253,"åĩ°":254,"ICES":255,"googleapis":256,"ARM":257,"è¶·":258,"čĊĠĠĠĠĠĠĠ":259,"Regular":260,"Ġprevents":261,"áħ£":262,"ðŁħĽ":263,"åĻĭ":264,"áĽļ":265,"âļ¡":266,"ĠÐ¢":267,"ĠPriv":268,"ĠâĢĻ":269,"ĠDesigner":270,"àµµ":271,"sson":272,"éĬ´":273,"Ġau":274,"é®į":275,"BLACK":276,"ä¿¬":277,"ĠMarkdown":278,"Wil":279,"îĶ¬":280,"èİ¤":281,"èĪŃ":282,"é®¦":283,"éŁį":284,"å°¿éħ¸":285,"images":286,"Sprite":287,"åļ°":288,"akes":289,"ì§§":290,"unsigned":291,"solute":292,"ç¤ºä¾ĭ":293,"ç¤²":294,"Yet":295,"ëĪĩ":296,"ĠMAX":297,"æĴ´":298,"âĪ´":299,"áł·":300,"ð¤¦":301,"Boost":302,"ïĮŁ":303,"Ing":304,"ots":305,"REC":306,"åª³":307,"è¾¾æĪĲ":308,"êĨħ":309,"ĠFOL":310,"é¡Ľ":311,"åıįåºĶ":312,"åĲĥèĭ¦":313,"çł":314,"JS":315,"Ġaligned":316,"æ¼Ŀ":317,"é§ĳ":318,"ATUR":319,"æ³Ĥ":320,"çķĤ":321,"cul":322,"-[":323,"ĠjsonObject":324,"è½º":325,"è±·":326,"FLOAT":327,"æ¯į":328,"îĪĪ":329,"ĊĊĠĠĠĠĠĠĠ":330,"Ġids":331,"uncheck":332,"èĢħ":333,"Positive":334,"æĲ¬":335,"éĴ§":336,"éİļ":337,"æģ¡":338,"ÄĿ":339,"ĠImportError":340,"cash":341,"îļĴ":342,"å¬İ":343,"ĠExchange":344,"é²ļ":345,"toLowerCase":346,"åĺ¢":347,"åıĪè¦ģ":348,"ëĹĦ":349,"ðŁĨĵ":350,"ĠMODIFY":351,"åŁį":352,"ãģķãĤĮãģŁ":353,"HealthCheck":354,"ELD":355,"Advanced":356,"ïıĪ":357,"áŁį":358,"ä¸Ģæµģ":359,"ini":360,"æĿĳçļĦ":361,"ÑīÐ¸":362,"êŃ":363,"ðŁİª":364,"è¿ĻçĤ¹":365,"lut":366,"ĠGe":367,"Gi":368,"æĽĮ":369,"Symbols":370,"åĵ¸":371,"åįłæ¯Ķ":372,"Balance":373,"ë¦¼":374,"è¬Į":375,"å§ł":376,"[_":377,"çĬļ":378,"Ġ'_":379,"åħĪéĶĭ":380,"è¢©":381,"Ga":382,"Ġrotate":383,"Ġexperiments":384,"åª³å¦ĩ":385,"êł":386,"à¶³":387,"áĹ¦":388,"ĠPredicate":389,"æ³ķè§Ħ":390,"å®īå¾½çľģ":391,"Ġnos":392,"æĺ¯çľŁçļĦ":393,"ç»ĥèĲ¥":394,"Pan":395,"Last":396,"Ġinf":397,"ç³±":398,"ç¬¬äºĮæ¬¡":399,"äģ":400,"îĿ«":401,"èĭ¹æŀľ":402,"Ġupdated":403,"å·ł":404,"çŃīæĥħåĨµ":405,"SAT":406,"áĮ½":407,"Ġ!":408,"îµ¾":409,"ãµ²":410,"çĮ§":411,"ĠDecl":412,"Ġuso":413,"ĠPOS":414,"?',":415,"èķĭ":416,"ç½ĳåıĭ":417,"Ġunique":418,"å¯¸":419,"Ð·Ð¸":420,"ĠMongo":421,"êĳµ":422,"NotEmpty":423,"ê²¹":424,"ç½":425,"å¼Į":426,"çģ«ç®Ń":427,"chen":428,"delay":429,"ã¢ı":430,"éĮŃ":431,"att":432,"Rope":433,"æĺ¯æľĢ":434,"åĵªä¸ª":435,"ĠProto":436,"TreeNode":437,"åħŁ":438,"âĺŀ":439,"ĠCallback":440,"é»¬":441,"negative":442,"æĹª":443,"Embed":444,"á¿¡":445,"Ġfs":446,"ê°ķ":447,"Cf":448,"çħĮ":449,"ðŁķĬ":450,"éªº":451,"éĮİ":452,"future":453,"cion":454,"ĠExecute":455,"sandbox":456,"æīŁ":457,"å¿ĺ":458,"æĥħåĨµ":459,"Cam":460,"æĤ²":461,"å¾¬":462,"Fatalf":463,"á¾¹":464,"çĥ§çĥ¤":465,"ĠwireType":466,"Individual":467,"é¸ľ":468,"èĶĬ":469,"çĵŁ":470,"Caps":471,"å¸®å¿Ļ":472,"é«´":473,"âĪ§":474,"áĴĳ":475,"êµµ":476,"ÙĶ":477,"ÝĪ":478,"ĠNg":479,"îľĦ":480,"å¾º":481,"êĮĢ":482,"TW":483,"kov":484,"ĠMQ":485,"ARD":486,"è´ł":487,"beg":488,"âī«":489,"setCurrent":490,"à¯Ĩ":491,"Alex":492,"Dao":493,"çľį":494,"åŃľ":495,"åĹŃ":496,"ä¹ĥèĩ³":497,"Ġstyled":498,"Chef":499,"ç¯Ķ":500,"áŁł":501,"ä»ĸä»¬":502,"æĬ¢":503,"Ġì¶":504,"OrFail":505,"êĭ¦":506,"çĿ¶":507,"â°Ļ":508,"ìķĪ":509,"Ġld":510,"ï¨":511,"protoc":512,"sizing":513,"oggle":514,"Ġmeant":515,"åĮĹå¤§":516,"DIM":517,"éĮ¯":518,"VEL":519,"ĠBug":520,"Ġ\"|":521,"èĥ½åľ¨":522,"dca":523,"tape":524,"Ġmount":525,"ë±ħ":526,"æİīäºĨ":527,"ÔĹ":528,"éĬ·":529,"Ġlevels":530,"ðŁ¤¿":531,"ç·¿":532,"æ®Ģ":533,"ä½®":534,"å¬Ł":535,"åī¨":536,"åĿ²":537,"ãĢĩ":538,"é±ķ":539,"èª½":540,"Permissions":541,"èŁ©":542,"çĽ®çļĦåľ°":543,"éĥ³":544,"èĻĩ":545,"æ·Ĳ":546,"ĠCo":547,"Ġíķł":548,"------------------------------------------------":549,"ïİ²":550,"Ġmapping":551,"_\"+":552,"ÖĽ":553,"åį":554,"Ġscala":555,"######":556,"ðŁİ¾":557,"format":558,"isArray":559,"Ġcrc":560,"ðŁİ³":561,"()){":562,"æĹĻ":563,"âĨ§":564,"âµį":565,"editor":566,"forge":567,"ðŁ¢Ķ":568,"Saving":569,"Ġsklearn":570,"sql":571,"áº¡i":572,"âī½":573,"é½±":574,"áŁĶ":575,"èĽ³":576,"ceso":577,"ĠEng":578,"áĬ§":579,"ĠJohn":580,"éĴĳ":581,"éĩĳèŀį":582,"Ġemails":583,"å¤ªè¿ĩ":584,"Ġ{-":585,"k":586,"Streaming":587,"ĠSince":588,"æµ·":589,"éĻ¡":590,"âľħ":591,"FieldValue":592,"irectory":593,"Look":594,"à·¡":595,"Apps":596,"strength":597,"Ġunix":598,"Approved":599,"Item":600,"ê¶Ĳ":601,"îįĹ":602,"glm":603,"ĠGLenum":604,"åĨ·":605,"FILES":606,"éĥ¨éĹ¨":607,"Ġmanual":608,"Ġimplementations":609,"({});":610,"çºĥ":611,"åĮ¿":612,"ä¦Ĭ":613,"èĶĥ":614,"æĭľçĻ»":615,"}(":616,"è¾ŀ":617,"Ġbtn":618,"Ġic":619,"fort":620,"pep":621,"QT":622,"æ»ª":623,"å·¥èµĦ":624,"ä½Ļ":625,"ĊĊĠĠĠĠĠĠĠĠĠĠĠĠĠĠĠĠĠ":626,"é²©":627,"èª¡":628,"Êī":629,"Ġkill":630,"èĸ¨":631,"æĹ©æĻ¨":632,"ä»Ĭå¹´çļĦ":633,"çŁ³":634,"çĭ¯":635,"é¡ķ":636,"Construct":637,"á¹ĵ":638,"ĠsÃ£o":639,"appa":640,"Ġstick":641,"à¤Ŀ":642,"alias":643,"èŀ³":644,"å½Ĳ":645,"èĽª":646,"ors":647,"éĶł":648,"æ¶¦":649,"ç©¥":650,"Ġdevices":651,"uge":652,"å¨Ĺ":653,"ðŁ¦ĸ":654,"ðĳ":655,"è¢į":656,"æĹ¥æĻļ":657,"Distance":658,"co":659,"rient":660,"ä¹ŁéľĢè¦ģ":661,"Webhook":662,"æĩŃ":663,"ì©³":664,"é½Ŀ":665,"è¯ķ":666,"ëĿĦ":667,"àŃª":668,"áļ¼":669,"skin":670,"DateFormat":671,"atis":672,"îĩ":673,"Îª":674,"åĪĳ":675,"ä¾ĭå¦Ĥ":676,"èĨ¦":677,"Í¯":678,":',":679,"íĤ¬":680,"è¿ĩäºİ":681,"onymous":682,"Ã¶g":683,"Gest":684,"åħŀ":685,"îłĶ":686,"fef":687,"ðŁıĻ":688,"åĩĺ":689,"ÐĻ":690,"â¬ī":691,":\\\"\\\";":692,"è«ĩ":693,"Ġsamples":694,"æļ´éĽ¨":695,"îĮ":696,"íĬ":697,"nowledge":698,"éĹ³":699,"âĿ°":700,"è·¿":701,"æŃ®":702,"æ¬©":703,"ä¼ģä¸ļ":704,"æĪĲçļĦ":705,"çĨ³":706,"çĶ·åıĭ":707,"áİ¡":708,"å·´":709,"CBC":710,"permalink":711,"å®ŀéªĮå®¤":712,"ä¨ĭ":713,"ðĵĥŁ":714,"LP":715,"ä¸ĢæĹ¦":716,"å·ŀçľģ":717,"CRET":718,"âŃĴ":719,"Ġdp":720,"Ġho":721,"äĤ":722,"Ġlast":723,"ç£¯":724,"ç¹ª":725,"Jobs":726,"åĤ¤":727,"à§¨":728,"îģĽ":729,"indow":730,"áĪŁ":731,"æ·±åľ³å¸Ĥ":732,"^^":733,"Ö»":734,"á¬®":735,"á¹ļ":736,"elim":737,"Õ¥":738,"ç¡±":739,"çĽ´":740,"îı¬":741,"losses":742,"Õ¢":743,"çŁ²":744,"æĥĽ":745,"è¸Ķ":746,"getData":747,"é®Ģ":748,"ob":749,"ïĿ¯":750,"labor":751,"icates":752,"Ġ'');":753,"fields":754,"Ġchapter":755,"âľį":756,"è°¿":757,"arrays":758,"ãĹ°":759,"getRequest":760,"Ġsearch":761,"ĠCapt":762,"utdown":763,"îĤĶ":764,"é¥Ľ":765,"toList":766,"Ġ])":767,"åİ¾":768,"ç¿ģ":769,"Internals":770,"dest":771,"ritÃ¼Ã¼tsch":772,"å¸«":773,"åĲĮçŃī":774,"ç®Ļ":775,"à£":776,"zend":777,"îĬĨ":778,"åļ¥":779,"Metric":780,"phabet":781,"ĠæŁ¥":782,"Í¥":783,"çµ°":784,"ENDPOINT":785,"iterable":786,"îļĺ":787,"Ġpreview":788,"è²«":789,"ã´·":790,"å°ĸ":791,"å´Į":792,"ç¾ł":793,"ĠRobot":794,"ãģĮãģĤ":795,"Ġnearest":796,"èĺĪ":797,"amel":798,"à²Ģ":799,"è¿ħ":800,"çĪ®":801,"åİĤå®¶":802,"boss":803,"VV":804,"Æ£":805,"Ġexported":806,"ĠSw":807,"èĨ¥":808,"Ġ{!!":809,"elcome":810,"ç®´":811,"Obj":812,"æļ¯":813,"PURE":814,"åĴ´":815,"ãºħ":816,"éĺŁ":817,"Ġb":818,"Ġ=\"":819,"âĢº":820,"Ġmind":821,"variant":822,"hints":823,"Sr":824,"ë²¤":825,"âĹĳ":826,"åİ¨æĪ¿":827,"ëŁŃ":828,"ĠSSH":829,"â¬Ī":830,"æ¦°":831,"éģ¸æĬŀ":832,"åľĳ":833,"generators":834,"é·Ĳ":835,"ë§ĺ":836,"letion":837,"<!--":838,"zeros":839,"'),(":840,"ä»¤":841,"Verbose":842,"ĠÐļ":843,"indexed":844,"çłº":845,"áİł":846,"````":847,"Ġfan":848,"î²ħ":849,"Entry":850,"éĽį":851,"îļ¨":852,"DEFINITION":853,"Ġef":854,"ëıĮ":855,"Ġindexed":856,"ðŁĲ":857,"âĿĶ":858,"å¿Ļ":859,"prototype":860,"Úİ":861,"Ġarrays":862,"éµ¡":863,"Ġslave":864,"èŀ§":865,"çŁł":866,"à§İ":867,"è¾©":868,"à½¼":869,"nuget":870,"ĠADC":871,"èĶ«":872,"æĹĬ":873,"ïĽ":874,"åĲ©":875,"Õ©":876,"Stop":877,"è¿Ļæ¬¡":878,"iness":879,"currency":880,"æį²":881,"tegr":882,"PROPERTY":883,"ã¥":884,"ðŁĮģ":885,"åĨħå¤ĸ":886,"Ġopening":887,"ðªļ¥":888,"ê³§":889,"logging":890,"æµĻæ±Ł":891,"ç§»åĬ¨":892,"uples":893,"version":894,"eng":895,"aca":896,"â¬ĺ":897,"æŀ½":898,"ç·ĥ":899,"áĨĿ":900,"stract":901,"åĥİ":902,"âĮł":903,"Ġexpose":904,"æµŃ":905,"çĩĮ":906,"éĺĨ":907,"æĽ³":908,"åįĹæĸ¹":909,"ç»Ĥ":910,"Weak":911,"åļħ":912,"acket":913,"ç¹ļ":914,"æŀį":915,"íĮĮ":916,"å´³":917,"ä¸¥å³»":918,"assignment":919,"ĠRew":920,"ðŁ¥ļ":921,"æĩĭ":922,"á¿¸":923,"Ï¸":924,"æĽ·":925,"fatal":926,"è»ĥ":927,"áĥķ":928,"éĢ©":929,"ä¸Ģæĸ¹éĿ¢":930,"fluid":931,"'].":932,"Window":933,"Ġsector":934,"Mont":935,"éĹ¨åı£":936,"lapsed":937,"Ġui":938,"jin":939,"àº¶":940,"VERB":941,"å£Ĵ":942,"ĠBackend":943,"Inspect":944,"mont":945,"egu":946,"ç¤Ħ":947,"éıĽ":948,"à°Ń":949,"RenderTarget":950,"\"]);":951,"ÆĬ":952,"çŃīçĿĢ":953,"éĦ¿":954,"Ġrandom":955,"snapshot":956,"åľº":957,"standalone":958,"RIDE":959,"îĤ¡":960,"setWindow":961,"æħģ":962,"åįģäºĶ":963,"parsing":964,"å¼ºåº¦":965,"à¯":966,"åİ¿æĶ¿":967,"Autor":968,"ðłĻ¶":969,"ê°Ĵ":970,"ä½įç½®":971,"%\",":972,"åĮ½":973,"æŃ¶":974,"âĸ§":975,"ä¾Ŀæ¬¡":976,"]-->":977,"æ¢¦":978,"ä½İè°ĥ":979,"é±ı":980,"Ġexecuting":981,"ïĶ´":982,"é«©":983,"á»³":984,"Instances":985,"æ¶ĥ":986,"Pt":987,"éĤ³":988,"ampaign":989,"frontend":990,"ĠARRAY":991,"èĪ¥":992,"ïĴ©":993,"éĤ®æĶ¿":994,"Ġfrom":995,"âĻĩ":996,"ïĳ¢":997,"íĺ":998,"Writing":999,"éģĩè§ģ":1000,"æľįè£ħ":1001,"Ġclock":1002,"ä»ª":1003,"aha":1004,"æ®µæĹ¶":1005,"Ġentire":1006,"á¹¨":1007,"çĿ£å¯¼":1008,"Naming":1009,"Ġinterested":1010,"è£±":1011,"æ±ĤçļĦ":1012,"Nu":1013,"ĠInterruptedException":1014,"éĽĤ":1015,"îĮ¦":1016,"â¦Ĩ":1017,"ĠendTime":1018,"ç¿ĥ":1019,"Ġpane":1020,"RESPONSE":1021,"repl":1022,"ãŀ¿":1023,"æķ»":1024,"ï£¿":1025,"äīĽ":1026,"Ġstack":1027,"ç¦¶":1028,"weet":1029,"imal":1030,"Producto":1031,"æ£Ł":1032,"Ġsigned":1033,"Devices":1034,"çŃĥ":1035,"çĶ¨é¤Ĳ":1036,"àŃŃ":1037,"Ġactivation":1038,"RV":1039,"Ġli":1040,"ados":1041,"åĵĦ":1042,"Ġsup":1043,"åĺİ":1044,"çµļ":1045,"ç§ĺå¯Ĩ":1046,"ĠSTRING":1047,"ĠPred":1048,"adam":1049,"Ġbrightness":1050,"ðŁķļ":1051,"ðł±":1052,"Ġrewrite":1053,"èĻ£":1054,"ðĵĢ¬":1055,"å¦Ĥæ¶ī":1056,"âģł":1057,"ê¾»":1058,"å¥ķ":1059,"ä¸¾åĬŀ":1060,"åĸº":1061,"è¥Ĭ":1062,"æŀľ":1063,"è©½":1064,"ëĪł":1065,"Negative":1066,"ĠOrgan":1067,"InterruptedException":1068,"auf":1069,"èįĽ":1070,"Ġalternate":1071,"àª¹":1072,"çºķ":1073,"closest":1074,"Ġåħ¶":1075,"ie":1076,"OperationException":1077,"achines":1078,"çĶ¨æ°´":1079,"çĺł":1080,"ç¦ŀ":1081,"èĸĺ":1082,"å±Ļ":1083,"ified":1084,"áį¢":1085,"Ġworld":1086,"è½ĭ":1087,"èĶĨ":1088,"cgi":1089,"\"#":1090,"Ó®":1091,"é¨¼":1092,"åĩłä¸ªæľĪ":1093,"èĮ»":1094,"onto":1095,"Works":1096,"èĿ":1097,"pad":1098,"Ãł":1099,"Ez":1100,"ĠFunctions":1101,"YG":1102,"éĨ¯":1103,"Ġunsafe":1104,"vertx":1105,"èķĴ":1106,"roc":1107,"çĹĹ":1108,"âĬļ":1109,"ê¡":1110,"ê¦Ľ":1111,"äĽ":1112,"ĠCommunication":1113,"ĠIP":1114,"æħĭ":1115,"å°Į":1116,"Ġbene":1117,"ÙĮ":1118,"Ġactivate":1119,"bb":1120,"èŀĤ":1121,"éĥĲ":1122,"èĮļ":1123,"âĤ":1124,"ĠWebSocket":1125,"Ġfon":1126,"LIED":1127,"îĢ±":1128,"Process":1129,"åªĿ":1130,"æ³½":1131,"wide":1132,"à²´":1133,"Ġinto":1134,"ĠSecurity":1135,"Tim":1136,"ĠUses":1137,"collection":1138,"BadRequest":1139,"èĿĦ":1140,"Ġpromp":1141,"å¢Ī":1142,"REEN":1143,"wc":1144,"ãģ§":1145,"èĴº":1146,"Proc":1147,"äºĿ":1148,"´":1149,"riday":1150,";'":1151,"å¤ļæ¬¡":1152,"VRTX":1153,"èĦ¶":1154,"çłĹ":1155,"è®Ľ":1156,"Ġfeat":1157,"ïļĮ":1158,"hew":1159,"éħ¾":1160,"èĸı":1161,"ĠDone":1162,"plotlib":1163,"à¶·":1164,"çĻ³":1165,"çĮł":1166,"hn":1167,"lace":1168,"é£¾":1169,"éį¬":1170,"åĨŁ":1171,"éĮµ":1172,"à´µ":1173,"STRUCTURE":1174,"èĩĻ":1175,"ĠRemoves":1176,"å¥³å£«":1177,"å¯Ĥå¯ŀ":1178,"Ġrelevant":1179,"åģĦ":1180,"Checks":1181,"çĶ³æĬ¥":1182,"ç®ľ":1183,"eor":1184,"story":1185,"å·«":1186,"ÄŁÄ±":1187,"å±Ĭåħ¨":1188,"æŀľæľī":1189,"éĩĦ":1190,"Ġresize":1191,"âīĢ":1192,"îłĬ":1193,"Automatic":1194,"èĬº":1195,"à´Ĭ":1196,"å®ĺæĸ¹":1197,"çĢĬ":1198,"é¸ĸ":1199,"ResourceManager":1200,"è¿":1201,"Ġpotentially":1202,"Ġprobe":1203,"ĠIMPLIED":1204,"Ġimports":1205,"ĠTwitter":1206,"âŀ½":1207,"reem":1208,"æµ£":1209,"à«§":1210,"Ġdoc":1211,"å¼ķæĵİ":1212,"áº¼":1213,"ç·Ľ":1214,"collapsed":1215,"îĢŃ":1216,"åļ¿":1217,"Ä·":1218,"å¹Ľ":1219,"Milliseconds":1220,"čĊĉĉ":1221,"å£ĥ":1222,"ĠNu":1223,"Ġgcc":1224,"è±Ł":1225,"ĠPublish":1226,"à¡Ĳ":1227,"è¿½ç©¶":1228,"æļŀ":1229,"è®¤è¯ģ":1230,"ĠRole":1231,"low":1232,"ß¶":1233,"zoom":1234,"èĶĮ":1235,"èĭĳ":1236,"éĹħ":1237,"åŁ¹åħ»":1238,"Ġ/*!":1239,"æį®æĤī":1240,"ðŁĶ·":1241,"è¿¨":1242,"âīĽ":1243,"çİ¯ä¿Ŀ":1244,"ç§ĳ":1245,"åľ½":1246,"Ġterm":1247,"SUP":1248,"ENUM":1249,"company":1250,"some":1251,"Ġtorch":1252,"ira":1253,"æĪĸèĢħ":1254,"Ûľ":1255,"]({{":1256,"å£ĭ":1257,"å¸·":1258,"åĲİåĨį":1259,"ãĢħ":1260,"Wifi":1261,"Ġ__":1262,"ðŁĽ¸":1263,"Æ§":1264,"problems":1265,"éģĹ":1266,"éħ®":1267,"Ġuk":1268,"ÛĨ":1269,"Ġthree":1270,"ä¿ĿæĬ¤":1271,"æľīåı¯":1272,"ðŁİł":1273,"âı¦":1274,"è®¾æľī":1275,"åĬ¨è½¦":1276,"æł¡éķ¿":1277,"TTL":1278,"é¬ļ":1279,"Task":1280,"æĺ¯åĲ¦":1281,"Ġgas":1282,"ì²¼":1283,"æľŁå¾Ĵ":1284,"æľīå¤ļ":1285,"à±":1286,"Ġembed":1287,"â¢":1288,"Ġdensity":1289,"à©Ĭ":1290,"èĶħ":1291,"ĠGLfloat":1292,"Ġsuggestions":1293,"è¥ķ":1294,",),":1295,"ç£ŀ":1296,"maps":1297,"ä¸įåı¯èĥ½":1298,"][":1299,"åªĸ":1300,"à¯ļ":1301,"guidelines":1302,"âĻº":1303,"âŁ©":1304,"quation":1305,"Åİ":1306,"Features":1307,"çĺĨ":1308,"åįıä¼ļ":1309,"ĠCREATE":1310,"ĊĠĠĠĠĠĠĠĠĠĠĠĠĠĠĠĠĠĠĠĠĠĠĠĠĠĠĠĠĠĠĠĠĠĠĠĠĠĠĠĠ":1311,"è¿»":1312,"ASE":1313,"çªĤ":1314,"éªĥ":1315,"åħ¨ä¸ĸ":1316,"UBE":1317,"Ġ$.":1318,"Metrics":1319,"XM":1320,"Ġbcm":1321,"ert":1322,"POP":1323,"æĺĮ":1324,"íĤ´":1325,"DAO":1326,"Ö´":1327,"Document":1328,"ĊĊĉĉĉĉĉĉ":1329,"çľ´":1330,"êĿ»":1331,"Ġcla":1332,"Ġputting":1333,"è¸Ľ":1334,"IMAGE":1335,"ĠFirst":1336,"é¸«":1337,"LECT":1338,"sTo":1339,"æĲ¦":1340,"quantitativo":1341,".#":1342,"ðŁľĦ":1343,"Ġcontinue":1344,"Û±":1345,"éľ®":1346,"ĠIL":1347,"æ¨±":1348,"çİĪ":1349,"Ġamd":1350,"su":1351,"èĻļ":1352,"ĠNJ":1353,"è¥":1354,"ół":1355,"çįº":1356,"uj":1357,"è¸ª":1358,"ã»ľ":1359,"->{$":1360,"Ó¦":1361,"è®ĥ":1362,"êĩī":1363,"çłĶ":1364,"enti":1365,"Ġcolo":1366,"êģ®":1367,"ã´ĩ":1368,"ê¯ħ":1369,"æ¨¨":1370,"æ¶£":1371,"ĠdonnÃ©es":1372,"SUR":1373,"URE":1374,"åħ³æĢĢ":1375,"exus":1376,"Ġenemy":1377,"çīı":1378,"adir":1379,"ðŁİ²":1380,"ä¸ªå°ıæĹ¶":1381,"fu":1382,"ÙĽ":1383,"åŃ¨":1384,"çĳ¦":1385,"ĠUDP":1386,"ĠFriend":1387,"Ġnear":1388,"::<":1389,"èį£":1390,"æ²Ħ":1391,"áħ¥":1392,"ê²ª":1393,"Êª":1394,"éºĿ":1395,"âı°":1396,"ĠBu":1397,"Flip":1398,"éº¯":1399,"çĶ®":1400,"áĢ§":1401,"Ġprotect":1402,"Ġindicates":1403,"uman":1404,"éŀ®":1405,"ç»½æĶ¾":1406,"Ġwhen":1407,"æº¯":1408,"ã¢":1409,"çĺĺ":1410,"æĴĻ":1411,"ĠEND":1412,"Ġstarting":1413,"engan":1414,"assign":1415,"Hey":1416,"US":1417,"éĳ¦":1418,"æ¥©":1419,",\\":1420,"â¬¨":1421,"æİ¥è¿ĳ":1422,"ĠĊĠĠĠ":1423,"STAND":1424,"åĤª":1425,"ç¾İåĽ½":1426,"çľ¢":1427,"æĴ¦":1428,"wv":1429,"æ±©":1430,"æĿĥçĽĬ":1431,"éĤ¡":1432,"é·¼":1433,"ims":1434,"ä¾ł":1435,"íĲĪ":1436,"balance":1437,"åĻļ":1438,"Environment":1439,"æĽĭ":1440,"çºŃ":1441,"æ³ı":1442,"atable":1443,"scp":1444,"Ġcast":1445,"Ġdescriptor":1446,"æŀĬ":1447,"ssh":1448,"éľ²":1449,"æ°ĳèĲ¥":1450,"ç°į":1451,"Layout":1452,"Before":1453,"Ôİ":1454,"éĢļçĶ¨":1455,"æİ¥ä¸ĭæĿ¥":1456,"åĪĩå®ŀ":1457,"äĳī":1458,"aks":1459,"åł´":1460,"bd":1461,"ç»Ħç»ĩéĥ¨":1462,"Open":1463,"ant":1464,"MASK":1465,"ĠUb":1466,"åĲĮæĦı":1467,"RNA":1468,"æ®Ŀ":1469,"ëĤľ":1470,"\"));":1471,"services":1472,"è¦ģæĥ³":1473,"'s":1474,"ality":1475,"Ð¿":1476,"ithmetic":1477,"ĠCallable":1478,"èĥł":1479,"åĭ¬":1480,"èĪĨ":1481,"ãģ²":1482,"POSE":1483,"æĪ¢":1484,"spacer":1485,"îĬĹ":1486,"ĠMaybe":1487,"ç´«":1488,"ìłĲ":1489,"ctl":1490,"éĢļä¿¡":1491,"åįİ":1492,"åĽ°":1493,"åĬ²":1494,"éªĬ":1495,"Ġpermission":1496,"handler":1497,"É¿":1498,"çĹĢ":1499,"Ġvr":1500,"restrict":1501,"ĠLP":1502,"ĠPlot":1503,"èħ¬":1504,"åħħçĶµ":1505,"FontSize":1506,"re":1507,"\"=>\"":1508,"ipeline":1509,"è¾¯":1510,"è§»":1511,"Selector":1512,"AC":1513,"Constant":1514,"Ġinstanceof":1515,"irs":1516,"è¸Ĥ":1517,"æ°ĳçļĦ":1518,"\"][\"":1519,"éŀľ":1520,"DG":1521,"aces":1522,"Slide":1523,"î¢Ķ":1524,"*****":1525,"ĠkB":1526,"ĠREAD":1527,"æĨ¬":1528,"ÑĤÑĮ":1529,"à¬º":1530,"ê©":1531,"íĹĪ":1532,"ĊĉĉĠĠĠĠ":1533,"RSTMGR":1534,"áįł":1535,"çĸĳ":1536,"çŁ¸":1537,"à¿Ī":1538,"éŃ¯":1539,"å«º":1540,"Ë§":1541,"paration":1542,"âĽº":1543,"åŃĹç¬¦":1544,"é±ł":1545,"êħª":1546,"ĠSkip":1547,"âīİ":1548,"ä¹Ĭ":1549,"__).":1550,"èĿĻ":1551,"æĹ¨åľ¨":1552,"Ð±Ñĭ":1553,"àŃ±":1554,"ä»Ł":1555,"erical":1556,"ä¸¥éĩį":1557,"Ġobjective":1558,"could":1559,"DROP":1560,"ç®İ":1561,"åħĪè¡Į":1562,"ĠOTHERWISE":1563,"cell":1564,"qs":1565,"èĭĹ":1566,"NL":1567,"å°ıåŃ¦":1568,"ÒĤ":1569,"æıĲåĩºçļĦ":1570,"âĨĹ":1571,"refix":1572,"scan":1573,"hort":1574,"May":1575,"å¥ŀ":1576,"èĺĴ":1577,"åĢºåĬ¡":1578,"å¯¹å¾ħ":1579,"çĿ¯":1580,"åħ¬":1581,"æ½ĵ":1582,"íĢ¸":1583,"JU":1584,"ì½¥":1585,"à¦¿":1586,"îĳ":1587,"æµĭéĩı":1588,"cve":1589,"istical":1590,"à¸ĸ":1591,"çĨĵ":1592,"éŀĲ":1593,"ç¢¨":1594,"Ã©":1595,"olicies":1596,"Þķ":1597,"æīĻ":1598,"éīĴ":1599,"ç¯®çĲĥ":1600,"à¼½":1601,"Ġwidth":1602,"gameObject":1603,"ì½§":1604,"çĤ¤":1605,"ãĥĭ":1606,"éĸĳ":1607,"åīįåĪĹ":1608,"similar":1609,"à«¬":1610,"Blur":1611,"ïıĬ":1612,"å®ľ":1613,"ïĦī":1614,"áŁĽ":1615,"èľī":1616,"Ġ#'":1617,"ïľ":1618,"å¨ĺ":1619,"áĭļ":1620,"ëĮ":1621,"ulia":1622,"éĸĸ":1623,"ç¥£":1624,"hadoop":1625,"ë§´":1626,"Ġstats":1627,"ðŁķ¹":1628,"èİ³":1629,"è®Ńç»ĥèĲ¥":1630,"ïĤ":1631,"ê¦²":1632,"hp":1633,"è¡ĢèĦĤ":1634,"ä¸įéĶĻ":1635,"èļ±":1636,"î©Ĩ":1637,"è£»":1638,"Ġ`$":1639,"å®¾":1640,"æľīæīĢ":1641,"Retry":1642,"mono":1643,"èł¸":1644,"ïĮĴ":1645,"NotNull":1646,"åĤģ":1647,"ORY":1648,"åĵģ":1649,"PARAMETER":1650,"ç´Ľ":1651,"Ġsuppress":1652,"è¿Ľ":1653,"å¤§é£İ":1654,"Ġlocations":1655,"åĭĩäºİ":1656,"ĠCamera":1657,"å»·":1658,"Ġfilled":1659,"ðŁı¼":1660,"ðŁĺ¤":1661,"Ġmil":1662,"èŃģ":1663,"Ġdays":1664,"'_":1665,"îħŁ":1666,"æ²§":1667,"ĠArgument":1668,"à´¨":1669,"Products":1670,"ĠåĪĽå»º":1671,"èķļ":1672,"åı¯èĥ½æĺ¯":1673,"çĥº":1674,"à¦Ń":1675,"ä¸ĸéĹ´":1676,"Ġassert":1677,"qty":1678,"Ġsimplify":1679,"éį½":1680,"èĿĽ":1681,"ice":1682,"à´¦":1683,"Mutation":1684,"áŁĹ":1685,"éħįåĽ¾":1686,"encil":1687,"ĠÂ°":1688,"æ§¤":1689,"æĶŀ":1690,"å¯Į":1691,"ĠContinu":1692,"åļ£":1693,"PREFERRED":1694,"ç¼ĳ":1695,"ðŁĲ°":1696,"oog":1697,"êĥĺ":1698,"à¤¹":1699,"Chart":1700,"ĠCould":1701,"idf":1702,"å§Ķ":1703,"TAB":1704,"é©Ģ":1705,"Í«":1706,"àºĩ":1707,"ç¤":1708,"çĬ²":1709,"}":1710,"èĽ§":1711,"æ²¡äºĨ":1712,"à¨ª":1713,"istrator":1714,"æĥ³èµ·":1715,"raises":1716,"å³Ģ":1717,"äºħ":1718,"Also":1719,"cljs":1720,"Ġtreat":1721,"ĠðŁĳį":1722,"çĤ¡":1723,"èĿ¤":1724,"Ġshare":1725,"åĻī":1726,"å¸ī":1727,"à¶º":1728,"éīļ":1729,"èĸİ":1730,"ä´Ļ":1731,"æ¡¡":1732,"è¨ĺ":1733,"éĦ·":1734,"æİĿ":1735,"Ð»ÑİÑĩ":1736,"åŁª":1737,"æĥ³åĪ°":1738,"é¦¶":1739,"êĨ¿":1740,"æ¬µ":1741,"åĵķ":1742,"ä¸Ģæĺ¯":1743,"ë©į":1744,"Param":1745,"è±¿":1746,"á»¶":1747,"é¡ºåĪ©":1748,"êĦ·":1749,"()}}":1750,"çº®":1751,"åįģåħŃ":1752,"ìļ¤":1753,"ĊĉĉĠĠ":1754,"åĩ·":1755,"çıİ":1756,"blob":1757,"ĠTENTANG":1758,"Úķ":1759,"è¯ŀçĶŁ":1760,"ç°¥":1761,"Ġreduc":1762,"æ¬Ľ":1763,"=\"#\">":1764,"çĲĨè´¢":1765,"áĦı":1766,"åĿ©":1767,"è¬µ":1768,"æł¼":1769,"ĠusuÃ¡rio":1770,"èļ¥":1771,"ïİĻ":1772,"è¢ĺ":1773,"qx":1774,"º":1775,"Purchase":1776,"é»ĭ":1777,"å¤ĥ":1778,"ĠHash":1779,"ĠLeg":1780,"ĠGRAPH":1781,"îģº":1782,"èĭĶ":1783,"Resp":1784,"æ®Ħ":1785,"ĠCe":1786,"Execution":1787,"pubsub":1788,"å½¢çĬ¶":1789,"áıĽ":1790,"created":1791,"ðŁļ°":1792,"æ·Ĺ":1793,"âµ¥":1794,"ä¸ºæĤ¨":1795,"ãģĦ":1796,"lands":1797,"éĹĳ":1798,"éĢİ":1799,"Xaml":1800,"SHIFT":1801,"Ġwor":1802,"çĻ":1803,"Ġmachine":1804,"îİ¬":1805,"åĩłä¹İ":1806,"ç¼ĩ":1807,"ĠLIN":1808,"ãģ¡":1809,"WORLD":1810,"Ġfully":1811,"çŁŃçŁŃ":1812,"ĠDIRECT":1813,"à¸ģ":1814,"sampling":1815,"ã®Ī":1816,"åľ°è´¨":1817,";?>":1818,"è°ĳ":1819,"ç¾¸":1820,"å¿«éĢŁ":1821,"â¦ħ":1822,"çĿ®":1823,"Ġrectangle":1824,"æ£Ļ":1825,"êĮĹ":1826,"ĊĊĠĠĠĠĠĠ":1827,"Ġkubectl":1828,"å½ĵæĹ¶":1829,"Attribute":1830,"Ġ</":1831,"é½¡":1832,"î²ĩ":1833,"è¡ª":1834,"åĽĽå·Ŀ":1835,"constraints":1836,"ä¸ªå°ı":1837,"à¥¥":1838,"åĵ¡":1839,"çİ¹":1840,"îĲĬ":1841,"holiday":1842,"Section":1843,"IVE":1844,"å·²":1845,"commit":1846,"Æł":1847,"ĊĠĠĠĠĠĠĠĠĠĠĠĠĠĠĠĠĠĠĠĠĠĠĠĠĠĠĠĠĠĠĠĠĠĠĠĠĠĠĠĠĠĠĠĠĠĠĠĠ":1848,"éķĶ":1849,"êľĦ":1850,"å´µ":1851,"Ostschwiz":1852,"é®Ħ":1853,"SES":1854,"Low":1855,"è¾ĥå¤§çļĦ":1856,"Links":1857,"ðŁĽ´":1858,"ê¹Ĭ":1859,"åŃ¦åĳĺ":1860,"äºĶä¸ª":1861,"éķ¿æľŁ":1862,"å²¯":1863,"çİº":1864,"èĭĸ":1865,"åħ¬ä¼Ĺ":1866,"Ġdc":1867,"VF":1868,"è¼Ķ":1869,"åĪĹ":1870,"Ġreach":1871,"Ġsupply":1872,"éĽ®":1873,"ainers":1874,"æģ°":1875,"ä¸ŃæľĢ":1876,"ìĺ¤":1877,"åĪ´":1878,"ategories":1879,"Reason":1880,"resp":1881,"Gamma":1882,"čĊčĊĉĉ":1883,"Ġsent":1884,"èķ³":1885,"HU":1886,"äĲ°":1887,"eda":1888,"dimension":1889,"anceled":1890,"Fn":1891,"craft":1892,"è±Ī":1893,"Billing":1894,"è¤Ĳ":1895,"getName":1896,"ĠCNWSCreature":1897,"èĤ«":1898,"åŃł":1899,"ERNEL":1900,"ä¹ĥ":1901,"Full":1902,"Ýł":1903,"åĬª":1904,"è¦ģåĬłå¼º":1905,"Spacing":1906,"ForType":1907,"Ġcompute":1908,"temperature":1909,"åħ±å»º":1910,"ä»ĥ":1911,"å¿ĥçĲĨåŃ¦":1912,"äµ»":1913,"çŀ´":1914,"æ®»":1915,"ictionary":1916,"ïĽĮ":1917,"äº²å¯Ĩ":1918,"Ġver":1919,"Scal":1920,"ä¸ķ":1921,"åĸ¨":1922,"ssible":1923,"atabase":1924,"èĲĭ":1925,"ä½ĵåĨħ":1926,"é»ĳé¾Ļæ±Ł":1927,"ç»ıåİĨ":1928,"å»ºç«ĭäºĨ":1929,"éıĬ":1930,"âĢĿ,":1931,"ÑĺÐ°":1932,"Ġtime":1933,"mu":1934,"BOO":1935,"éĹı":1936,"COLL":1937,"ĊĠĠĠĠ":1938,"åĮĽ":1939,"ãĥ³ãĤ¹":1940,"æ¡¼":1941,"æĪĦ":1942,"Ġcontract":1943,"å««":1944,"çĶŁäº§":1945,"MODEL":1946,"ë¥Ļ":1947,"éĬĥ":1948,"çľĭè¿ĩ":1949,"avig":1950,"ingress":1951,"é¬£":1952,"éī²":1953,"ãĽĳ":1954,"Ġtoo":1955,"æ´Ķ":1956,"è©£":1957,"äº§çĶŁäºĨ":1958,"ä¸Ģç³»åĪĹ":1959,"Ġportion":1960,"éŁĦ":1961,"áĭĻ":1962,"ist":1963,"Ġscalar":1964,"ðŁĶļ":1965,"CM":1966,"ĊĠĠĠĠĉ":1967,"Ġheading":1968,"à§ģ":1969,"uchar":1970,"èº«ä¸Ĭ":1971,"éĬµ":1972,"ace":1973,"Ġ'#":1974,"ĠIEEE":1975,"ðŁı¿":1976,"×ı":1977,"æ½Ľ":1978,"filer":1979,"å¯ª":1980,"æ»Ħ":1981,"áĪ»":1982,"êĥ¢":1983,"æ±Łè¥¿":1984,"åı¯è§ģ":1985,"æīª":1986,"è¦ģçļĦ":1987,"îĻĥ":1988,"îĨª":1989,"äĬ¨":1990,"regexp":1991,"Sequence":1992,"Ê":1993,"å¹ķ":1994,"êĭĬ":1995,"ÞŃ":1996,"ìĥ¤":1997,"mpp":1998,"êĭĮ":1999,"æķĺ":2000,"')\"":2001,"á»ª":2002,"){":2003,"áŁĩ":2004,"æĢģ":2005,"å§´":2006,"WK":2007,"é¨Ĩ":2008,"ç«ŀäºīåĬĽ":2009,"ì»«":2010,"å³¢":2011,"èĻı":2012,"åıĳéħµ":2013,"çıł":2014,"æ¡ŀ":2015,"stream":2016,"Ġprop":2017,"åĲĦåįķä½į":2018,"êĢ":2019,"conds":2020,"ðŁ¦Ĩ":2021,"áĮ³":2022,"éī£":2023,"Æº":2024,"abi":2025,"ä¸įåıĺ":2026,"åİ°":2027,"Ġdirname":2028,"åĪ¶éĢł":2029,"(\"../":2030,"çĨİ":2031,"æĸ¹åĲĳ":2032,"å¡Ģ":2033,"ë³µ":2034,"setter":2035,"ðŁ¥¬":2036,"Slider":2037,"æ«µ":2038,"éĭŃ":2039,"Ġ\"@":2040,"Blue":2041,"Ġdescri":2042,"èį£èĢĢ":2043,"çľĥ":2044,"ïĤ¹":2045,"äģĸ":2046,"è´£ä»»":2047,"Manual":2048,"ãĥł":2049,"á¸":2050,"æĮĨ":2051,"ymbolic":2052,"îĤħ":2053,"áĬ¦":2054,"ä½²":2055,"çĪĲ":2056,"ĠTHIS":2057,"áĮ":2058,"views":2059,"åĩıèĤ¥":2060,"å¾§":2061,"î®ģ":2062,"ĠAng":2063,"kind":2064,"votes":2065,"ĠĠĠĠĠĠĠĠĠĠĠĠĠĠĠĠĠĠĠĠĠĠĠĠĠĠ":2066,"æķ¥":2067,"ĠAr":2068,"âĻ°":2069,"BigDecimal":2070,"éī":2071,"ðŁ¦Ģ":2072,"ĠjLabel":2073,"âĤº":2074,"Button":2075,"ðŁĮº":2076,"Ġusual":2077,"åŁķ":2078,"Ġmist":2079,"âĨ":2080,"ðĵĢ¢":2081,"ëĥ¬":2082,"vious":2083,"å¤§éĩı":2084,"îĢĨ":2085,"GV":2086,"æ³ķéĻ¢":2087,"caught":2088,"æº²":2089,"Density":2090,"ĠVARI":2091,"ĠAg":2092,"è¾¶":2093,";\");":2094,"ç«ĭé©¬":2095,"è±Ĵ":2096,"Clus":2097,"rgba":2098,"æĴª":2099,"êıł":2100,"éĨĮ":2101,"æĢĩ":2102,"ph":2103,"inate":2104,"æ¥£":2105,"è®¤ä¸º":2106,"Locations":2107,"î¤Ħ":2108,"æ¡Īä¾ĭ":2109,"Latency":2110,"éŃ¶":2111,"oad":2112,"å½§":2113,"é©®":2114,"\\,":2115,"ãĦĬ":2116,"Ó£":2117,"Fox":2118,"æĬ¤èĤ¤":2119,"Ġoperating":2120,"åīĦ":2121,"ïĤ¯":2122,"ĠCLAIM":2123,"ĠTH":2124,"ĠIM":2125,"âĤ¥":2126,"èĽĭçĻ½è´¨":2127,"â¬ĳ":2128,"æļ¾":2129,"åĬ©äºİ":2130,"ðŁĴ¬":2131,"çİĽ":2132,"ĠRectangle":2133,"Success":2134,"è¯ĭ":2135,"çĺĦ":2136,"ã«Ĭ":2137,"ç¤ºèĮĥåĮº":2138,"èĤ¶":2139,"ĠHowever":2140,"é¥ķ":2141,"âĥĺ":2142,"ðŁĴĹ":2143,"erver":2144,"åīŀ":2145,"ä¸ŃåĽ½çļĦ":2146,"requirements":2147,"é¨«":2148,"åİ¢":2149,"icks":2150,"Tracker":2151,"ĠIterator":2152,"ïķĶ":2153,"å²©":2154,"Ĥ´":2155,"æµ«":2156,"ĠContents":2157,"æŁĴ":2158,"VISED":2159,"æĢ¯":2160,"éĤ¿":2161,"VER":2162,"å±Ģéĥ¨":2163,"äĨ¡":2164,"Î¨":2165,"(\"\\":2166,",)":2167,"å¤Ħç½ļ":2168,"êĨı":2169,"è¿Ŀçºª":2170,"atform":2171,"osa":2172,"îĶĢ":2173,"Ġ#":2174,"æ¾Ľ":2175,"èĪĩ":2176,"Ack":2177,"Extend":2178,"ç·ĭ":2179,"Ġinteract":2180,"ë´¤":2181,"æŃĹ":2182,"äºĭåĬ¡":2183,"î¶§":2184,"é»´":2185,"è¤¦":2186,"çĴĦ":2187,"orte":2188,"â¬§":2189,"Ġimpl":2190,"çıĲ":2191,"rpc":2192,"trial":2193,"ãĤļ":2194,"Ġped":2195,"PORT":2196,"Ġdistribut":2197,"æ¤ĳ":2198,"UNSIGNED":2199,"ìĳ¹":2200,"flow":2201,"ëĵ±":2202,"êĳ¸":2203,"æ«Ľ":2204,"è¿ĺæľª":2205,"å¤§å±Ģ":2206,"apped":2207,"ĠEncoding":2208,"Ġmissing":2209,"âĺĦ":2210,"çĶ¨å¿ĥ":2211,"æ§ı":2212,"Ġconcrete":2213,"æºĢ":2214,"åĵªéĩĮ":2215,"ëĭĿ":2216,"Ang":2217,"mis":2218,"à¨Ĩ":2219,"è´¢äº§":2220,"èĩħ":2221,"æīĤ":2222,"\"_":2223,"æĿĵ":2224,"è¡Įä¸º":2225,"å¤§éĹ¨":2226,"Gatt":2227,"privacy":2228,"è¥ĭ":2229,"ÝĹ":2230,"ÇĶ":2231,"àªĨ":2232,"protobuf":2233,"èĽ²":2234,"çĮĿ":2235,"è¶ĺ":2236,"é£İæĻ¯":2237,"åĭķ":2238,"}/${":2239,"ðŁĴĿ":2240,"material":2241,"éĭ¯":2242,"ã¬µ":2243,"æ¤¾":2244,"å°»":2245,"à¨ļ":2246,"çĲ¬":2247,"çĽĳæµĭ":2248,"å¶·":2249,"Ġsettings":2250,"ðŁ¥¹":2251,"çķĥ":2252,"Ġcur":2253,"éİĪ":2254,"çĲĪ":2255,"îĿŁ":2256,"pwd":2257,"TRY":2258,"/":2259,"æ²ģ":2260,"å¹³ç¨³":2261,"èŃİ":2262,"ĠiPhone":2263,"å¼Ģå·¥":2264,"åŃī":2265,"å²ĺ":2266,"æ·°":2267,"æĢ»ç»Ł":2268,"ĠæīĢä»¥":2269,"ì¶ĺ":2270,"POOL":2271,"è·³":2272,"èĲĴ":2273,"è®°å¿Ĩ":2274,"åĤį":2275,"åıĳçİ°äºĨ":2276,"åī½":2277,"éĴ±è´¢":2278,"æ¶ĵ":2279,"Most":2280,"Ġgrad":2281,"gradle":2282,"æĪł":2283,"xffff":2284,"ĊĠ":2285,"é²ľèĬ±":2286,"imiento":2287,"Ke":2288,"é§ĥ":2289,"NAMIC":2290,"ben":2291,"å¹¸è¿Ĳ":2292,"íķľ":2293,"Ġtransactions":2294,"Sdk":2295,"èľĽ":2296,"æ¦ĩ":2297,"éĶĻäºĨ":2298,"èĬ´":2299,",</":2300,"á½¦":2301,"Ò°":2302,"poly":2303,"Ð½Ð¾Ð³Ð¾":2304,"Ġ{#":2305,"èľĤèľľ":2306,"Middleware":2307,"Ġ×Ĳ":2308,"ç¡¿":2309,"ä¸įåĩº":2310,"ç»Ļå¤§":2311,"aux":2312,"é»Ħèī²":2313,"Ġnumerical":2314,"Ġsd":2315,"ïĴ£":2316,"ðŁĺ¼":2317,"ĊĠĠĠĠĠĠĠĠĠĠĠ":2318,"CONN":2319,"æħ§":2320,"Ġtabindex":2321,"=[]":2322,"venv":2323,"æ¦İ":2324,"èıĽ":2325,"Pg":2326,"ĠConnector":2327,"Ġ(_":2328,">[":2329,"à¶§":2330,"çĹ¾":2331,"íĺĢ":2332,"DR":2333,"čĊĠĠĠĠĠĠĠĠĠĠĠĠĠĠĠĠĠĠ":2334,"Ġny":2335,"ê¿Ģ":2336,"Ġpatch":2337,"è¦©":2338,"Ġformat":2339,"êĴ³":2340,"ĠDest":2341,"êĪ½":2342,"êĻ©":2343,"èŀĵ":2344,"åĨľæĪ·":2345,"â£»":2346,"çĴ·":2347,"Ġvoor":2348,"æ±°":2349,"llen":2350,"êĩİ":2351,"Maybe":2352,"Homebrew":2353,"ĠAppro":2354,"hasht":2355,"çķ©":2356,"èħª":2357,"Inflater":2358,"èĭĲ":2359,"nÃ©es":2360,"å´ķ":2361,"fv":2362,"å¨½":2363,"åĪī":2364,"Ã¡l":2365,"è¼¤":2366,"åĴģ":2367,"áĲĻ":2368,"events":2369,"Ýļ":2370,"BOTTOM":2371,"çļĦä¸Ń":2372,"ĠFront":2373,"ĠScale":2374,"ë¶Ĳ":2375,"åĮį":2376,"åļ´":2377,"å¼µ":2378,"âĺĺ":2379,"common":2380,"cape":2381,"à©¦":2382,"æĹ®":2383,"éŃª":2384,"browser":2385,"Ġrather":2386,"Motor":2387,"gregated":2388,"å¼©":2389,"ãĴ³":2390,"each":2391,"èŁ»":2392,"Ġcurr":2393,"çĤ¹çĤ¹":2394,"åĴ©":2395,"ê±":2396,"è³Ĳ":2397,"è¼¶":2398,"Mapped":2399,"éªĹ":2400,"Ġmeasurement":2401,"ç¼İ":2402,"èĺ»":2403,"ĠFC":2404,"ľâĶĢâĶĢ":2405,"Ġ`./":2406,"áĳ®":2407,"éĥ½å¾Ī":2408,"çº":2409,"á¿´":2410,"åŁł":2411,"éķ¨":2412,"âłĲ":2413,"åľ¨ä»ĸ":2414,"icip":2415,"GQ":2416,"é´Ľ":2417,"èĩ³æĺ¯":2418,"åħ·ä½ĵ":2419,"ðŁĺµ":2420,"éĨī":2421,"çµ¾":2422,"Ġåħĥ":2423,"('../../":2424,"Programming":2425,"beam":2426,":#":2427,"uro":2428,"userInfo":2429,"é©Ľ":2430,"genome":2431,"æ±·":2432,"îĪŀ":2433,"justify":2434,"ðŁĺª":2435,"setSelected":2436,"ĠRM":2437,"paragraph":2438,"ðŁĵĻ":2439,"é·½":2440,"################################":2441,"Ġcount":2442,"members":2443,"çį§":2444,"î²ĺ":2445,"ARGUMENT":2446,"ä¹Ĵ":2447,"æ»£":2448,"æĭĽå½ķ":2449,"çĸĹæ³ķ":2450,"build":2451,"isNull":2452,"èµ°åľ¨":2453,"ïħĢ":2454,"èĢĬ":2455,"ë°ĸ":2456,"æļĪ":2457,"É©":2458,"HP":2459,"æ½ģ":2460,"rive":2461,"çŃĸåĪĴ":2462,"ĠPE":2463,"éĺĺ":2464,"ä°ĸ":2465,"àµģ":2466,"çļĦæľĢ":2467,"çĮ½":2468,"é¢ĺ":2469,"éĿ©åĳ½":2470,"èĥ¥":2471,"Ġhr":2472,"éĶµ":2473,"Html":2474,")</":2475,"ÞŁ":2476,"êĢİ":2477,"ä¸įè®º":2478,"ä¸Ģä¸ĭ":2479,"Ð²Ðµ":2480,"Ġcellpadding":2481,"æ»µ":2482,"ĠìļĶ":2483,"à·ľ":2484,"é²Ł":2485,"å¡į":2486,"åŃ£åº¦":2487,"Um":2488,"è¶Ĵ":2489,"é©¨":2490,"è±ĩ":2491,"ĠGeneral":2492,"æĭł":2493,"preventDefault":2494,"Country":2495,"hardware":2496,"ading":2497,"ã¸ĥ":2498,"ä¸Ģæīĭ":2499,"åī¯å¸Ĥ":2500,"Ġba":2501,"|()":2502,"Ð½ÑĭÐµ":2503,"æ¢ª":2504,"Ùı":2505,"åģ¥åº·":2506,"Ġmark":2507,"éĦŀ":2508,"}).":2509,"ê·ł":2510,"ëħĶ":2511,"é¼Ī":2512,"å³Ĵ":2513,"éĢĤéĩı":2514,"ĠE":2515,"âī¯":2516,"áł½":2517,"åĲĳåīį":2518,"ä»¥åľ¨":2519,"åļ®":2520,"å¤§åİ¦":2521,"flo":2522,"èĽī":2523,"Ġç¬¬":2524,"DoxyCompact":2525,"ĠSummary":2526,"ked":2527,"ĠRGB":2528,"çıŃ":2529,"âĬĹ":2530,"èģĮå·¥":2531,"à¤":2532,"è¹µ":2533,"Ġbil":2534,"ðŁ§¬":2535,"Ġx":2536,"å©ħ":2537,"cols":2538,"æĮĩç¤º":2539,"iterations":2540,"Ġ(+":2541,"çĥ¡":2542,"ĠQt":2543,"à¸·":2544,"ÜĴ":2545,"åĹİ":2546,"éĥ©":2547,"å·¼":2548,"Ġtrack":2549,"èĽĢ":2550,"æĪĲä¸ºäºĨ":2551,"Contexts":2552,"Ġconverter":2553,"èļĤ":2554,"ÎĴ":2555,"ïĪ«":2556,"ĠFilter":2557,"Þł":2558,"Ġmentioned":2559,"é¥Ń":2560,"à®²":2561,"á½§":2562,"å¾«":2563,"çĽ¾":2564,"îħŀ":2565,"Ġprepare":2566,"åĴ»":2567,"ëºı":2568,"æ©ħ":2569,"ÚĪ":2570,"DefaultValue":2571,"ĠYY":2572,"æĵĦ":2573,"çĲĴ":2574,"ðŁĲĪ":2575,"éĩĩçĶ¨":2576,"ÚĶ":2577,"éĴ½":2578,"è²§":2579,"çĥģ":2580,"Ð®":2581,"æ©º":2582,"BER":2583,"×ł":2584,"äŁ¦":2585,"anty":2586,"å¼ĢæĶ¾":2587,"Ñ¢":2588,"ïĶĢ":2589,"îĢİ":2590,"ĠNotify":2591,"Prepared":2592,"ynam":2593,"ç¡®":2594,"ĠScore":2595,"ä½ľçļĦ":2596,"umber":2597,"èĢ«":2598,"äººä»¬":2599,"ä¸ĭè½¦":2600,"éİ½":2601,"Ġhook":2602,"ieve":2603,"è³¶":2604,"seen":2605,"çºĢ":2606,"áĢĭ":2607,"Sam":2608,"åªĭ":2609,"åĴľ":2610,"æ¸ī":2611,"áł°":2612,"à¨":2613,"æļ¸":2614,"severity":2615,"æ²ħ":2616,"ç¯º":2617,"ĠLib":2618,"Ġsleep":2619,"éı²":2620,"\"/>.":2621,"ìį¼":2622,"METHO":2623,"éĢīæĭ©äºĨ":2624,"II":2625,"ĠSUMMARY":2626,"Éĩ":2627,"çľĭä¹¦":2628,"èĦ¾æ°Ķ":2629,"àªŀ":2630,"êĬ¥":2631,"é¡ģ":2632,"åĲĥ":2633,"èĭŀ":2634,"å¤±åİ»":2635,"áįĵ":2636,"èį¯åĵģ":2637,"ĠPu":2638,"EST":2639,"è´£ç¼ĸ":2640,"PW":2641,"mazon":2642,"ðŁĻĥ":2643,"reed":2644,"ĠsiÄĻ":2645,"äı»":2646,"ability":2647,"áºĵ":2648,"æİľ":2649,"diag":2650,"ðŁļ¬":2651,"è©³":2652,"}\\\\":2653,"áĲĲ":2654,"äºĪ":2655,"éļı":2656,"å©Į":2657,"ä¸ĢçŃī":2658,"ðŁ¤Ľ":2659,"Ġ[['":2660,"centered":2661,"ĠLearn":2662,"àª¢":2663,"åĨį":2664,"á¼Ĳ":2665,"æĸĽ":2666,"æįŁä¼¤":2667,"Pago":2668,"éĿ¢åŃĲ":2669,"ã¢²":2670,"ment":2671,"readme":2672,"Ġregistered":2673,"å¶´":2674,"style":2675,"èĮĥ":2676,"vc":2677,"à¸ī":2678,"åģļé¥Ń":2679,"åŀ·":2680,"voke":2681,"PRO":2682,"cons":2683,"cem":2684,"leccion":2685,"ĠÐľ":2686,"TEST":2687,"Ġactions":2688,"ĠColumn":2689,"Ġprofiles":2690,"/\">":2691,"æ³ħ":2692,"çŃīä½ł":2693,"ä¿Ħç½Ĺæĸ¯":2694,"æĶķ":2695,"çĽ¸åħ³":2696,"âĽ²":2697,"æĥħåĨµä¸ĭ":2698,"á¼¹":2699,"ĠHyperledger":2700,"Ġwi":2701,"æĨł":2702,"è½¨":2703,"åĲįæł¡":2704,"éĳ±":2705,"\");":2706,"å¸ľ":2707,"deliver":2708,"åĨįæĿ¥":2709,"æ°Ī":2710,"çķ³":2711,"plots":2712,"æłĳç«ĭ":2713,"áķª":2714,"æ¨¤":2715,"ç°ĳ":2716,"gs":2717,"é¡µéĿ¢":2718,"Inform":2719,"Çĵ":2720,"è°»":2721,"åĵł":2722,"ìĮ":2723,"èĦĭ":2724,"á¯ĵ":2725,"æ°Ķä½ĵ":2726,"ãĥ¤":2727,"hun":2728,"Customer":2729,"tailed":2730,"è¦ģä¹Ī":2731,"áŁĲ":2732,"å¸ĥå±Ģ":2733,"ily":2734,"ymer":2735,"ç«Ĩ":2736,"Æķ":2737,"^^^^":2738,"æĹłåħ³":2739,"IGENCE":2740,"Easy":2741,"åĩĳ":2742,"îĥİ":2743,"acement":2744,"Ġvalid":2745,"ëħ¹":2746,"Ġmultiply":2747,"é¹¤":2748,"Ġactive":2749,"æ·ĺ":2750,"å¹Ĵ":2751,"à®Ķ":2752,"ç§Ŀ":2753,"æ¯ıä¸Ģä¸ª":2754,"Ġinitialized":2755,"FORCE":2756,"cnn":2757,"ãŁĮ":2758,"è£ĺ":2759,"å¾ĴåĪĳ":2760,"éĢīä¸¾":2761,"chemy":2762,"à£¢":2763,"æĿĥå½Ĵ":2764,"éļıçĿĢ":2765,"æģĦ":2766,"é¨Ĥ":2767,"ðŁį·":2768,"ä»ĬåĲİ":2769,"ðŁĺ§":2770,"ĠĠĊĠĠĠĠĠ":2771,"Ġì":2772,"å¬¿":2773,"à´´":2774,"ugiat":2775,"é§¶":2776,"nest":2777,"cot":2778,"èĸ©":2779,"ä¹¦éķ¿":2780,"snap":2781,"áįĥ":2782,"Ġalg":2783,"ç±¡":2784,"Ġnew":2785,"çľº":2786,"îĢ·":2787,"å¤§éĩıçļĦ":2788,"åĪ©çİĩ":2789,"ategor":2790,"èĹ½":2791,"æ¬¢ä¹Ĳ":2792,"ĠThen":2793,"valid":2794,"ĠPending":2795,"ÂŃ":2796,"æ²īæ·Ģ":2797,"è¯ĬçĸĹ":2798,"Opened":2799,"ì¹´":2800,"ìŀ¬":2801,"æĢ»ç»ĵ":2802,"fwlink":2803,"RP":2804,"ðĿĦ":2805,"âĬ±":2806,"éĽ¤":2807,"âĭĲ":2808,"éĿ«":2809,"åĮ¡":2810,"HIST":2811,"-'":2812,"null":2813,"ê³±":2814,"Relations":2815,"à¦¡":2816,"ĠSign":2817,"åĮĸä¸º":2818,"çį¾":2819,"ä¸ĵä¸ļçļĦ":2820,"à£ı":2821,"rena":2822,"çļĵ":2823,"ïĨĦ":2824,"ĠareaName":2825,"ç¶©":2826,"åĵ³":2827,"ëŃĩ":2828,"ðŁĽ¬":2829,"åºĢ":2830,"âŀĥ":2831,"çµĬ":2832,"Ġ$(":2833,"Area":2834,"à°į":2835,"îĥ¥":2836,"î¤²":2837,"å©Ĥ":2838,"ere":2839,"çª¶":2840,"æĪ¿ä»·":2841,"wow":2842,"æĹ©å®ī":2843,"åģĤ":2844,"æ¸¾":2845,"å£µ":2846,"à®¹":2847,"åħľ":2848,"çĲ·":2849,"éģ¥":2850,"êİ³":2851,"Infrastructure":2852,"Ph":2853,"åĲħ":2854,"æ«Ĵ":2855,"ç®ĩ":2856,"cub":2857,"æ¶Ķ":2858,"æĺľ":2859,"ima":2860,"éİį":2861,"Ġpo":2862,"æ²¸":2863,"Ġzk":2864,"zi":2865,"ï´¾":2866,"æ¥ĵ":2867,"çºħ":2868,"æĺŁåº§":2869,"\\\">":2870,"é¤¯":2871,"ðŁĩ©":2872,"WO":2873,"ë©¸":2874,"å½ķåıĸ":2875,"åħ»æĬ¤":2876,"å±¯":2877,"åĥ¶":2878,"ë°Į":2879,"çĸĵ":2880,"äµŁ":2881,"î¢¯":2882,"åķ©":2883,"eld":2884,"æĨ¡":2885,"SDK":2886,"_%":2887,"åīŁ":2888,"MAGES":2889,"æıľ":2890,"æ±ĩ":2891,"ĠfileName":2892,"éį¯":2893,"ç²»":2894,"CharField":2895,"èŁ¢":2896,"èĤķ":2897,"ians":2898,"Þļ":2899,"çļĦçłĶç©¶":2900,"Mult":2901,"îĭ³":2902,"å²Ĳ":2903,"jn":2904,"æĲ¿":2905,"ïħ§":2906,"Tel":2907,"î£¢":2908,"ĠPart":2909,"Ġstopped":2910,"éİ¼":2911,"æ£ĳ":2912,"áĬª":2913,"ïķ":2914,"æ·¾":2915,"åħ¨æ°ĳ":2916,"PARAM":2917,"è»Ħ":2918,"Threshold":2919,"Ġflex":2920,"çĭº":2921,"ĠGENER":2922,"relative":2923,"rum":2924,"å¢ŀåĬł":2925,"éŃĽ":2926,"ëłĿ":2927,"Ġ`'":2928,"å¹´çºª":2929,"ä¹ĭéĻħ":2930,"éĦĵ":2931,"å¸®åĬ©":2932,"Lm":2933,"ïİµ":2934,"çĹ§":2935,"æªĸ":2936,"ç¨ļ":2937,"æĸ¹èĥ½":2938,"ìķĶ":2939,"âĢ¬":2940,"æĦŀ":2941,"çıĹ":2942,"áº½":2943,"Associ":2944,"èĩ³ä»Ĭ":2945,"Key":2946,"BOARD":2947,"ä¸įä»ħ":2948,"Ġresponse":2949,"âį¼":2950,"Ġconda":2951,"south":2952,"MethodName":2953,"éĢ³":2954,"ðĸ¦":2955,"æ¯°":2956,"powered":2957,"ĠBank":2958,"hol":2959,"Ġ.":2960,"çĸĥ":2961,"äºĢ":2962,"æ»¡åĪĨ":2963,"æ¬¡æĢ§":2964,"åĲĮçļĦ":2965,"annotations":2966,"obs":2967,"bean":2968,"ĠDCHECK":2969,"ä¸įåĲĮçļĦ":2970,"å¿Į":2971,"Ġ(_,":2972,"âĺª":2973,"ç¦ĭ":2974,"å®ŀéĻħ":2975,"Datas":2976,"ĠSystem":2977,"ĠìĹ¬":2978,"áĲŁ":2979,"éĺ¥":2980,"áĪļ":2981,"å§Ķä¼ļ":2982,"#>":2983,"asters":2984,"ë§µ":2985,"Ġwindow":2986,"é¥»":2987,"aws":2988,"ĠWIDTH":2989,"Redirect":2990,"Ġkubernetes":2991,"éĿİ":2992,"æ¨¯":2993,"áº¾":2994,"INFRINGEMENT":2995,"autom":2996,"Ġpins":2997,"îķĿ":2998,"âĩĥ":2999,"îļ§":3000,"Ġeye":3001,"Ġestado":3002,"è±Į":3003,"usable":3004,"éĢĶå¾Ħ":3005,"â»¨":3006,"éĺµå®¹":3007,"ĠMusic":3008,"îĻĮ":3009,"Ġareas":3010,"éºį":3011,"ĠAD":3012,"clip":3013,"æĤı":3014,"querySelectorAll":3015,"Ġplaceholder":3016,"Letter":3017,"ç§©":3018,"lgl":3019,"Íħ":3020,"è¿Ŀæ³ķ":3021,"æĬĹæĹ¥":3022,"îĴī":3023,"Ticks":3024,"examples":3025,"á¾ł":3026,"âĮĩ":3027,"æ¤º":3028,"çĵ¥":3029,"ĠTa":3030,"insight":3031,"è¿ĩ":3032,"çľĭèµ·":3033,"åĺĭ":3034,"Mat":3035,"Ġtm":3036,"æ¶±":3037,"ê¹¥":3038,"çļĦåĬĽ":3039,"íĥ":3040,"ðŁĮ¾":3041,"Ġinherited":3042,"æ¹¦":3043,"åıĤèµĽ":3044,"rian":3045,"Recomm":3046,"æĮĽ":3047,"ï£°":3048,"ë¡±":3049,"cade":3050,"çĿī":3051,"ĠBool":3052,"à¥¾":3053,"âŀ¼":3054,"Ġinstaller":3055,"åĳ½é¢ĺ":3056,"èĴĽ":3057,"åı¸":3058,"ëĺĪ":3059,"numpy":3060,"å´¾":3061,"à£¡":3062,"ĠĊĠĠĠĠĠĠĠĠĠĠĠĠ":3063,"îŀ":3064,"æĮĤ":3065,"PN":3066,"GRE":3067,"aja":3068,"æĲľç´¢":3069,"î·¬":3070,"èĢ¶":3071,"èĿ·":3072,"Ġnavbar":3073,"Èľ":3074,"èŁ´":3075,"æ´»æĢ§":3076,"å¤":3077,"from":3078,"Ġboost":3079,"memo":3080,"Decision":3081,"¹Ħ":3082,"è¼Ĵ":3083,"è¹¹":3084,"ĠÃ¨":3085,"á¦":3086,"ã¤´":3087,"onsive":3088,"à°Ĳ":3089,"èįľ":3090,"Ġdeal":3091,"Ġsomething":3092,"å®Įæ¯ķ":3093,"Ġdst":3094,"æĳ©æīĺ":3095,"proposal":3096,"Bid":3097,"á¤£":3098,"available":3099,"æĪĪ":3100,"å¹Ł":3101,"permission":3102,"Ġkeeping":3103,"Ġvisitor":3104,"XFF":3105,"æīįèĥ½":3106,"Ġresolved":3107,"Qualifier":3108,"chtml":3109,"åĲ¬åĪ°":3110,"igration":3111,"HY":3112,"íĹ":3113,"å®ļä»·":3114,"åİ»":3115,"é¦Ľ":3116,"GONE":3117,"sleep":3118,"astr":3119,"èĵª":3120,"WithContext":3121,"âĥĴ":3122,"æŁĵ":3123,"Ġ[](":3124,"Allowed":3125,"LES":3126,"èĪ»":3127,"èľ©":3128,"æĸ°åŁİ":3129,">>(":3130,"å«ł":3131,"marks":3132,"sso":3133,"å¥ĭ":3134,"rupted":3135,"èĩ¯":3136,"åĨ²çªģ":3137,"iet":3138,"äŁĮ":3139,"åĳ¼åĲ¸":3140,"æĹłæĸ°":3141,">]":3142,"Ġdem":3143,"Ùķ":3144,"ĠfontSize":3145,"'></":3146,"ĠArrowBox":3147,"Į":3148,"Alert":3149,"ĠkÃ¶nn":3150,"éŁĶ":3151,"ĠProvide":3152,"ĠWrapper":3153,"ancy":3154,"latest":3155,"dom":3156,"ĠCollections":3157,"ç±ļ":3158,"Ġcanonical":3159,"éŃŃ":3160,"å¿ī":3161,"à±ŀ":3162,"âĺģ":3163,"ã©¦":3164,"ØĦ":3165,"Ġ([":3166,"è³ľ":3167,"çĪĦ":3168,"å§ĭç»Ī":3169,"parents":3170,"ç¢»":3171,"çļĦå¥³":3172,"ĠPattern":3173,"äºĵ":3174,"ĊĠĠĠĠĠĠĠĠĠĠĠĠĠĠĠĠĠĠĠĠĠĠĠĠĠĠ":3175,"Wire":3176,"Books":3177,"Êļ":3178,"è¢ł":3179,"éª½":3180,"éĢľ":3181,"ä»Ļå¥³":3182,"ci":3183,"åł¶":3184,"ä¸º":3185,"pagination":3186,"tx":3187,"ØĮ":3188,"â¤Ĵ":3189,"ç¾ĬèĤī":3190,";',":3191,"[$":3192,"Ġshows":3193,"à¼ī":3194,"IV":3195,"ä½ıåľ¨":3196,"Ne":3197,"Ġincoming":3198,"ä¾¿æį·":3199,"FILL":3200,"icles":3201,"tok":3202,"Ò³":3203,"stars":3204,"çĩº":3205,"ture":3206,"é¹ļ":3207,"ï¸ģ":3208,"æİ¥å¾ħ":3209,"å½ķ":3210,"Ġrestart":3211,"alent":3212,"Ôĺ":3213,"ÎĶ":3214,"è¢Ĵ":3215,"èĩ´çļĦ":3216,"Linked":3217,"ì§":3218,"Ð¾Ð±":3219,"guess":3220,"äĢī":3221,"é©¬æĭī":3222,"cf":3223,"åı¯è°ĵ":3224,"Ġci":3225,"ðŁĲŀ":3226,"æĸľ":3227,"Pass":3228,"edit":3229,"æ±¹":3230,"é»Ľ":3231,"oter":3232,"light":3233,"ìµ¸":3234,"à²Į":3235,"ç¿Ŀ":3236,"ç¹Ŀ":3237,"ç»Ļ":3238,"ä¸Ĭä¸ĭ":3239,"å¤§æķ°":3240,"çļĦæľįåĬ¡":3241,"ĠDelta":3242,"ïģ¿":3243,"æģĥ":3244,"à¤ª":3245,"ë§·":3246,"é¥į":3247,"î¢ŀ":3248,"à¶Ľ":3249,"åİĲ":3250,"åĲ¬åĬĽ":3251,"encia":3252,"æ°ı":3253,"Man":3254,"ãģĽ":3255,"Ġparse":3256,"íĨ±":3257,"æĵĿ":3258,"ç¸º":3259,"âĽ°":3260,"ä¾Ł":3261,"ç®Ĭ":3262,"éĿŀå¸¸çļĦ":3263,"t":3264,"Ġlimitations":3265,"éįĳ":3266,"é¢º":3267,"åĴ§":3268,"èĵĵ":3269,"bt":3270,"ĠBAS":3271,"è¯ķçĶ¨":3272,"åŀ¾":3273,"æī¾åĪ°":3274,"×ļ":3275,"å¾½":3276,"able":3277,"æľĪèĩ³":3278,"é·Ģ":3279,"éĳĩ":3280,"Ġwe":3281,"ãģĹãģ":3282,"\\)</":3283,"ãĤ«":3284,"Similar":3285,"ç¹Ī":3286,"âĺ°":3287,"×":3288,"Printf":3289,"ç©ĩ":3290,"íĿ°":3291,"Smart":3292,"éĸŁ":3293,"lua":3294,"mm":3295,"êŀĺ":3296,"ĠTeams":3297,"éĩ¾":3298,"æ´Į":3299,"åĦµ":3300,"åĽ§":3301,"ÊĽ":3302,"thode":3303,"emon":3304,"çĶ¨æĪ·":3305,"æ«¢":3306,"ĠAbstract":3307,"Learn":3308,"Red":3309,"Ġdemand":3310,"Ġforeach":3311,"RI":3312,"ZONE":3313,"phase":3314,"Graphic":3315,"çļĦäºĭ":3316,"åĶĩ":3317,"ç»³":3318,"éĮĤ":3319,"áĪ£":3320,"reet":3321,"è®¤åı¯":3322,"æĹı":3323,"î¡¬":3324,"á¼ĵ":3325,"âº§":3326,"notNull":3327,"é¬Ĭ":3328,"åĩºå¸Ń":3329,"éĹ®":3330,"ery":3331,"ĠKit":3332,"è©Ķ":3333,"åĨ²åĩ»":3334,"çļĦè¡¨":3335,"åīħ":3336,"é´ª":3337,"jupiter":3338,"FileName":3339,"JSON":3340,"ĠAM":3341,"×Ģ":3342,"è«¹":3343,"ä»¬ä¹Ł":3344,"íĲĨ":3345,"åĩºè½¨":3346,"æ¿½":3347,"Ġtransition":3348,"å¬¯":3349,"ĠRowBox":3350,"++,":3351,"separator":3352,"è¡®":3353,"Cred":3354,"éĦ¨":3355,"Ġinter":3356,"MessageType":3357,"ç¹±":3358,"íĿ¡":3359,"ä¸Ģå¼Ģ":3360,"êĳĮ":3361,"Æ³":3362,"forecast":3363,">/<":3364,"SerializeField":3365,"ç´Ļ":3366,"Ġfa":3367,"aight":3368,"Boot":3369,"åº¦ä¸Ĭ":3370,"setOn":3371,"æ¸¸çİ©":3372,"âĢª":3373,"æĻĪ":3374,"èĵŃ":3375,"ðŁ§ķ":3376,"Ġ'{":3377,"irst":3378,"Ġutf":3379,"submenu":3380,"ðŁķĲ":3381,"é«ĵ":3382,"education":3383,"çĳ®":3384,"ðŁ§¾":3385,"pyx":3386,"å²ĭ":3387,"éĴ¶":3388,"javax":3389,"angle":3390,"payload":3391,"Availability":3392,"wsz":3393,"ãĥ¼ãĤ·":3394,"IGNORE":3395,"ç¼Ħ":3396,"ãĳĩ":3397,"à¦§":3398,"ä¾Ĥ":3399,"ç®ĸ":3400,"ject":3401,"ĠButton":3402,"âĢ¹":3403,"à«":3404,"á¼Ħ":3405,"Ġembodiment":3406,"ĠíķĦ":3407,"âĬ":3408,"æı¯":3409,"é¬ĩ":3410,"fun":3411,"åĲı":3412,"Öĺ":3413,"Ġê´Ģ":3414,"æĬ¥åĪ°":3415,"Ġrunner":3416,"ëıĦ":3417,"ĠREC":3418,"åİİ":3419,"âĸ£":3420,"ç±¼":3421,"Bone":3422,"æĻµ":3423,"ADC":3424,"RECT":3425,"Ġmysql":3426,"SHOW":3427,"EqualTo":3428,"æıĲé«ĺäºĨ":3429,"](../../../../":3430,"åĤ¦":3431,"logout":3432,"copyright":3433,"clusion":3434,"Ġpac":3435,"utom":3436,"åįıåķĨ":3437,"â¹Ĥ":3438,"Ġcam":3439,"Ġvotre":3440,"é§©":3441,"ä¯Ļ":3442,"what":3443,"pir":3444,"ĠFeb":3445,"å¸¬":3446,"Bob":3447,"ðŁıĩ":3448,"íıĲ":3449,"æĬ»":3450,"ÐºÑĢÐ°":3451,"âļĽ":3452,"à¶ķ":3453,"Sorry":3454,"é£ļ":3455,"áĴ§":3456,"Ä¼":3457,"Ġâľĵ":3458,"ĠONLY":3459,"ðŁ§¶":3460,"ðŁĽ³":3461,"çĮ¦":3462,"Flat":3463,"âĩĲ":3464,"æ¢º":3465,"ä¸īä¸ª":3466,"ãĻŁ":3467,"ocab":3468,"è»":3469,"Kafka":3470,"è·¤":3471,"çĿĭ":3472,"epoch":3473,"Ġflash":3474,"ĠSOFTWARE":3475,"noop":3476,"ðŁĲ«":3477,"åĦ«":3478,"ĠCli":3479,"æĹĥ":3480,"Ġcomplexity":3481,"æ§º":3482,"ĠContributors":3483,"Prefix":3484,"Ôĩ":3485,"çħº":3486,"æĦķ":3487,"Ġready":3488,"èŃĺ":3489,"UNET":3490,"ĠAlloc":3491,"folders":3492,"æ¼ĺ":3493,"î®":3494,"à¤Ķ":3495,"malink":3496,"é¦ķ":3497,"ought":3498,"SerializedName":3499,"ĠåĪĨ":3500,"Õľ":3501,"å¡Į":3502,"çĶµä¿¡":3503,"Ġfine":3504,"ä¸Ģåı£":3505,"åį·":3506,"alert":3507,"å¦¶":3508,"defaults":3509,"Ġrequests":3510,"OTHER":3511,"åĿ¡":3512,"Ã©r":3513,"æ¡²":3514,"blk":3515,"éµ¸":3516,"INCLUDE":3517,"Pane":3518,"çº¢":3519,"EDITOR":3520,"èĩªå¾ĭ":3521,"Ġending":3522,"ä¿¶":3523,"äį":3524,"á¼´":3525,"éĦ¾":3526,"bsl":3527,"ĠSubscription":3528,"éĿ¯":3529,"â¨±":3530,"istics":3531,"é¤Ĳåİħ":3532,"äº¤ç»Ļ":3533,"æĦĦ":3534,"Ġcomponents":3535,"èĲ¡":3536,"Ġnamed":3537,"ðŁ¤Ļ":3538,"éĨ¤":3539,"links":3540,"á©":3541,"Ġcy":3542,"åĬ³åĬ¨":3543,"ç®Ľ":3544,"â±Ħ":3545,"èµ½":3546,"çķĩ":3547,"starting":3548,"Ġ....":3549,"Ġnid":3550,"íķı":3551,"æ©Ĵ":3552,"å¼Ĩ":3553,"getMethod":3554,"Never":3555,"Ý¨":3556,"obj":3557,"Parts":3558,"ç¦Ĺ":3559,"èĥĻ":3560,"åĿĤ":3561,"æĬĪ":3562,"ä¦µ":3563,"IZED":3564,"æĿ¡ä»¶":3565,"DEBUG":3566,"æ¬Ĥ":3567,"äĦ¦":3568,"Ġenough":3569,"çİ»":3570,"èĹģ":3571,"æ£²":3572,"ĠScience":3573,"imshow":3574,"ä¾":3575,"éĺ©":3576,"stdout":3577,"Ľi":3578,"å°Ħæīĭ":3579,"ä¸ĢçĻ¾":3580,"æ¾Ĩ":3581,"mdash":3582,"éĿ¢éĥ¨":3583,"£":3584,"á¶":3585,"ĠIND":3586,"åįİåįĹ":3587,"ç«¥":3588,"åįķè¯į":3589,"Ġwind":3590,"Ġtraining":3591,"ç¯ħ":3592,"ĠHttpClient":3593,"Recur":3594,"ç§ģä¿¡":3595,"textContent":3596,"ekyll":3597,"é¯¹":3598,"Position":3599,"áĩļ":3600,"ëĶ":3601,"ĠAUTHORS":3602,"Ġdecor":3603,"èįĢ":3604,"çİĲ":3605,"æ°´åĪ©":3606,"åĪĬ":3607,"áĺĲ":3608,"è©¼":3609,"Pres":3610,"Converter":3611,"supp":3612,"ç®Ķ":3613,"èĺ¹":3614,"éįĢ":3615,"èŀĴ":3616,"èĢ¦":3617,"îĽĨ":3618,"ìŀĪ":3619,"+":3620,"åĸ±":3621,"ðŁĢĬ":3622,"îĹĵ":3623,"èĸ¹":3624,"Finished":3625,"éµ¿":3626,"æĪĲæľ¬":3627,"îĭ":3628,"èł¹":3629,"Ġautocomplete":3630,"é¡Ń":3631,"Event":3632,"icrosoft":3633,"copies":3634,"ç¢®":3635,"Ù¹":3636,"è¿Ļæł·æĤ¨":3637,"ĠEXEMPLARY":3638,"Ġsoon":3639,"Ġsr":3640,"å¡Ĥ":3641,"å¯¹åħ¶":3642,"CLK":3643,"æĸ¯çī¹":3644,"segment":3645,"îĤ¤":3646,"æĽ´å¥½åľ°":3647,"awa":3648,"îĬ´":3649,"ĠComp":3650,"Ġ<<\"":3651,"åĩª":3652,"îĤĥ":3653,"è´¡çĮ®":3654,"GetObject":3655,"Ġè¿ĶåĽŀ":3656,"åŀ¬":3657,"Ġìł":3658,"åľĻ":3659,"ãª":3660,"ïĢĨ":3661,"Ġë§Į":3662,"æ¸¶":3663,"åĢĲ":3664,"å¨¼":3665,"éĤŃ":3666,"æ¼Ĩ":3667,"index":3668,"Ġprofile":3669,"onError":3670,"îĺ¶":3671,"unes":3672,"èĲ¥åķĨ":3673,"èĭĺ":3674,"Ġagent":3675,",\"\\":3676,"å¨§":3677,"Ġdisplays":3678,"âŀ¯":3679,"å¹°":3680,"ĠIntegration":3681,"æºĽ":3682,"îĲģ":3683,"Ġrestricted":3684,"ä¸įç®¡æĺ¯":3685,"')),":3686,"à¨¾":3687,"Ġtriggered":3688,"ãĤĦ":3689,"ïĳį":3690,"æł¸å¿ĥ":3691,"ZW":3692,"ONY":3693,"æ³·":3694,"æĲŀå®ļ":3695,"postinc":3696,"vation":3697,"éħ»":3698,"çıı":3699,"volumes":3700,"ç»ĵæĿŁ":3701,"çĲ¤":3702,"ĠInf":3703,"Amer":3704,"åį«æĺŁ":3705,"ðŁ¤¯":3706,"Daily":3707,"QO":3708,"áĳ¿":3709,"æĺİæĺ¾":3710,"unsubscribe":3711,"âĻ¯":3712,"ĠBuffer":3713,"compute":3714,"On":3715,"æħ°éĹ®":3716,"æľĢæĸ°":3717,"ote":3718,"ĠElasticsearch":3719,"äİ±":3720,"Ġcomplet":3721,"éĽĨåĽ¢":3722,"æİ¥çĿĢ":3723,"çģ¹":3724,"Î±":3725,"åĲĮæŃ¥":3726,"Ġdatabases":3727,"ãĥ³ãĥī":3728,"ÄĤ":3729,"ĠSignal":3730,"ä¼ī":3731,"ïĤ£":3732,"îł»":3733,"å§Ĵ":3734,"è¯Ħä¼°":3735,"Roy":3736,"å¶ŀ":3737,"åĪĨæīĭ":3738,"î©":3739,"Ġdesktop":3740,"anguage":3741,"ãķ·":3742,"ApiClient":3743,"æħ":3744,"ðŁħĸ":3745,"ais":3746,"Saved":3747,"àł¾":3748,"çµ£":3749,"æŁı":3750,"èĥĽ":3751,"ãĳ¹":3752,"ENER":3753,"endian":3754,"îĪ¼":3755,"----------------------------------------------------------------------":3756,"åĪĳäºĭ":3757,"amount":3758,"ç¨į":3759,"Ġswitch":3760,"dac":3761,"female":3762,"èĥ½è®©":3763,"Ġpandas":3764,"çĶº":3765,"Ġconstructed":3766,"íĿĲ":3767,"å£«åħµ":3768,";;;;;;;;;;;;;;;;":3769,"ä»ĸåľ¨":3770,"è´Ń":3771,"à£ª":3772,"mitre":3773,"éĬĸ":3774,"áı²":3775,"HR":3776,"éĮı":3777,"ãĴ¸":3778,"é¢ĺçĽ®":3779,"æĹłåĬĽ":3780,"ALS":3781,"SAFE":3782,"ïĵ¡":3783,"ĠCH":3784,"Matrix":3785,"çļĦç¤¾ä¼ļ":3786,"ìĤĹ":3787,"Ġdig":3788,"Ġtechnology":3789,"åĥĽ":3790,"é´ħ":3791,"ðĵĢ½":3792,"è¿ĩæ¸¡":3793,"åĨħéĥ¨":3794,"processing":3795,"æ¡´":3796,"èıĨ":3797,"æ¦³":3798,"éľĪ":3799,"ëªĦ":3800,"abit":3801,"æı»":3802,"É·":3803,"âŀĿ":3804,"æłĩçŃ¾":3805,"äººæĸĩ":3806,"éŀ¹":3807,"æ«¦":3808,"doctor":3809,"æ¼Ĥ":3810,"ä¸Ĭä¸Ģ":3811,"èĴĹ":3812,"èĹį":3813,"âĸŀ":3814,"Auth":3815,"çĭ®åŃĲ":3816,"flat":3817,"æıĲä¾ĽäºĨ":3818,"çĳ£":3819,"ä¹ĭåīį":3820,"ĠENGINE":3821,"heading":3822,"Deferred":3823,"éĻ²":3824,"çįĢ":3825,"îĻ«":3826,"âĸ¡":3827,"'%":3828,"ija":3829,"ĠStructure":3830,"æĽł":3831,"îĥĪ":3832,"LS":3833,"éĢ£":3834,"îĲĭ":3835,"ç§Ļ":3836,"âİĽ":3837,"à¾·":3838,"ĠMu":3839,"groups":3840,"eref":3841,"readthedocs":3842,"èªĤ":3843,"ä¼İ":3844,"à®ħ":3845,"Ġsplit":3846,"ðŁĺ»":3847,"çı£":3848,"Buffer":3849,"ĠZip":3850,"ipy":3851,"ä¸Ģå¤©":3852,"àŃ¨":3853,"åķ®":3854,"éŁĤ":3855,"æł¯":3856,"ä»ħéĻĲ":3857,"æĪĳçİ°":3858,"sms":3859,"é²ı":3860,"Ġonly":3861,"áĢī":3862,"é¢ĦæĬ¥":3863,"è¾ĥå¤§":3864,"éŃ®":3865,"Äĸ":3866,"ç±Ľ":3867,"Ġheaders":3868,"êĳŀ":3869,"íĳ¹":3870,"æĹ©é¤Ĳ":3871,"keydown":3872,"ê²¬":3873,"à¨¨":3874,"éĻĸ":3875,"collections":3876,"ĠDevice":3877,"zero":3878,"ĠValues":3879,"Ġmux":3880,"SITE":3881,"ccion":3882,"åĴļ":3883,"KW":3884,"į°ìĿ´íĦ°":3885,"è¿ĩæķı":3886,"éĳ²":3887,"éĥ½æĺ¯åľ¨":3888,"Ġmatch":3889,"ä¸ĭæĸ¹":3890,"interrupt":3891,"æĸĨ":3892,"é¡¹çĽ®":3893,"ĠcancellationToken":3894,"ÑĥÑĤ":3895,"ĠForce":3896,"Host":3897,"Inlining":3898,"î¦ľ":3899,"Ġthen":3900,"Ġeas":3901,"UserName":3902,"()];":3903,"çĶµæ¢¯":3904,"èİµ":3905,"é¤Į":3906,"Ġê³µ":3907,"{$":3908,"á¼¢":3909,"å»¿":3910,"::{":3911,"Ìľ":3912,"QU":3913,"Ġav":3914,"bp":3915,"è¶©":3916,"Ï¨":3917,"é½ĺ":3918,"éĺ²å¾¡":3919,"ÑĢÐ°Ð":3920,"cdb":3921,"Users":3922,"bump":3923,"oly":3924,"é¢Ĩ":3925,"è¼ģ":3926,"èµ·çļĦ":3927,"æ¸ĹéĢı":3928,"æ©Ģ":3929,"ðĴĢŃ":3930,"èħ¥":3931,"Meas":3932,"âĹī":3933,"ä¼Į":3934,"îħµ":3935,"àłħ":3936,"ðŁļ«":3937,"âŁ¿":3938,"éĺķ":3939,"fis":3940,"áĭ·":3941,"mysql":3942,"Ġ'[":3943,"LETE":3944,"æªĭ":3945,"åŃ¦æł¡çļĦ":3946,"ãļ¢":3947,"éļ¦":3948,"Rpc":3949,"Ġoccurred":3950,"éĮ¾":3951,"æ±Ĵ":3952,"åĺ¨":3953,"çĮ¶":3954,"æĿĥ":3955,"Ġtechn":3956,"Ġgeneric":3957,"äº¿":3958,"è¶»":3959,"áīħ":3960,"ðŁĹ½":3961,"èĨŀ":3962,"å¤ļåľ°":3963,"èŃ¹":3964,"è¸´":3965,"æİ¯":3966,"åķĨåºĹ":3967,"Ġextern":3968,"Ġbot":3969,"çīµ":3970,"æĽ¡":3971,"å¾Īç®Ģåįķ":3972,"iry":3973,"à±¡":3974,"Ġvariance":3975,"åĪĪ":3976,"ĠUSB":3977,"ìĦĢ":3978,"âİ¢":3979,"éģĴ":3980,"ĠToggle":3981,"ä¹ı":3982,"ã¸Ļ":3983,"ITER":3984,"é¾Ł":3985,"çĬ¶æĢģ":3986,"çĲ²":3987,"å¯į":3988,"åħĮ":3989,"ãĥĲ":3990,"BUTTON":3991,"Tcp":3992,"ç°Ŀ":3993,"é¹Ĥ":3994,"LN":3995,"ç²Ļ":3996,"éĤ¹":3997,"ìºĲ":3998,"ĠR":3999,"lid":4000,"éª¼":4001,"éħ«":4002,"é®ĵ":4003,"áģļ":4004,"ĠGPL":4005,"ìħ¸":4006,"Ġven":4007,"term":4008,"Found":4009,"çĩ¥":4010,"ç¶¸":4011,"åĹĸ":4012,"å¾į":4013,"ç¹©":4014,"èİ¬":4015,"Ġregist":4016,"glyph":4017,"MULT":4018,"ÏĻ":4019,"conda":4020,"licated":4021,"}%":4022,"çļ":4023,"é»¸":4024,"å¼ĤæĢ§":4025,"fg":4026,"æ´Ĺè¡£":4027,"junit":4028,"âĲĢ":4029,"fff":4030,"îĴĹ":4031,"èĻģ":4032,"Results":4033,"ç·°":4034,"é©ķ":4035,"ïĦĩ":4036,"éĿĥ":4037,"ĠSat":4038,"CNN":4039,"Øł":4040,"æĶĩ":4041,"ĠRequest":4042,"ç§Ł":4043,"åģŀ":4044,"é¡Ĭ":4045,"îĹ°":4046,"Ġcolon":4047,"ä¸İäºº":4048,"ĠVue":4049,"NON":4050,"ë®¨":4051,"çļĦä½ľ":4052,"å®¨":4053,"PT":4054,"ðŁĺ¢":4055,"çıĳ":4056,"Ġwasn":4057,"åĨī":4058,"å¯´":4059,"æĺ¯ä»Ģ":4060,"éīĬ":4061,"čĊčĊĠĠĠĠĠĠĠĠĠĠĠĠĠĠĠĠĠĠĠĠĠĠĠ":4062,"MARY":4063,"äĮĢ":4064,"ç¤¾äº¤":4065,"Ġtls":4066,"Ġcx":4067,"åľĽ":4068,"è°¤":4069,"à¨¦":4070,"åĮĸå¦Ĩ":4071,"íĳļ":4072,"êĢ£":4073,"éĭķ":4074,"å°¶":4075,"Ó¥":4076,"å§±":4077,"Ġpredicate":4078,"èŁł":4079,"å¼Ģæĭĵ":4080,"ularity":4081,"é¥¹":4082,"ĠSTDMETHODCALLTYPE":4083,"Md":4084,"å¦¹åŃĲ":4085,"ðŁĽ°":4086,"theta":4087,"((((":4088,"èĨ":4089,"èĽµ":4090,"Thumb":4091,"ObjectType":4092,"connections":4093,"èıľåįķ":4094,"ä¸Ģæł·":4095,"ĠÑı":4096,"èī°":4097,"à£»":4098,"Ð½":4099,"ĠDi":4100,"æŀ¶":4101,"çĵŃ":4102,"ïģĤ":4103,"î²Ķ":4104,"ðŁĺ°":4105,"è¯»èĢħ":4106,"æĽ´é«ĺ":4107,"è¦»":4108,"itos":4109,"èĢĮæĪĲ":4110,"æ´Ĺæīĭ":4111,"ĠSMS":4112,"Ġ\\[":4113,"é¤£":4114,"æ¨ı":4115,").":4116,"setup":4117,"æĽĹ":4118,"äº²":4119,"ĠPress":4120,"çĶ·äººçļĦ":4121,"ï¼Ľ":4122,"îķĻ":4123,"ç¼Ļ":4124,"åĮĭ":4125,"æĸ°è½¦":4126,"íĬ¸":4127,"Ġfee":4128,"VERIFY":4129,"çĦĦ":4130,")^":4131,"êĪ¹":4132,"èĤį":4133,"æľĢåħ·":4134,"cm":4135,"Hierarchy":4136,"vectors":4137,"éĦĢ":4138,"æ»¨":4139,"Ġ/*":4140,"Routes":4141,"REAM":4142,"DTD":4143,"æĹ¶éĹ´çļĦ":4144,"åĵ§":4145,"ïĤļ":4146,"xec":4147,"ãģ¤ãģĦãģ¦":4148,"åłĺ":4149,"æ«¿":4150,"å³¦":4151,"àªŁ":4152,"è¢ķ":4153,"Clear":4154,"ðŁĲ®":4155,"èĵĲ":4156,"è¦ħ":4157,"é·ı":4158,"åĬłå·¥":4159,"Ê¾":4160,"Ü«":4161,"ä¸Ĭå¸Ĥ":4162,"there":4163,"dad":4164,"ðŁļħ":4165,"èĴŃ":4166,"Î«":4167,"ĠCOPYRIGHT":4168,"éĶĿ":4169,"ĠOriginal":4170,"Ġmagnitude":4171,"Ġ=>":4172,"è¹ª":4173,"çĩł":4174,"ĠIDs":4175,"æ¶ķ":4176,"å£ĵ":4177,"æĲĶ":4178,"filter":4179,"ä¹¦ä¸Ń":4180,"lour":4181,"Ġimportant":4182,"ĠĠĠĠĠĠĠĠĠĠĠĠĠĠĠĠĠĠ":4183,"ïĢ¦":4184,"å§ĵåĲį":4185,"ç¦ģ":4186,"Ġhang":4187,"ĠModel":4188,"sl":4189,"çļĦäººç¾¤":4190,"Operator":4191,"æĮħ":4192,"----------":4193,"êī»":4194,"edia":4195,"çĴĻ":4196,"è®¾è®¡çļĦ":4197,"Ġagreement":4198,"éĢĥ":4199,"åĬµ":4200,"æľĭåıĭåľĪ":4201,"é«½":4202,"ðŁ¤¨":4203,"èĵĴ":4204,"ÄŁi":4205,"éŁ©":4206,"ðŁ¥ľ":4207,"=$(":4208,"ĠPol":4209,"å³Ķ":4210,"éıĪ":4211,"ĠĊĉ":4212,"copes":4213,"Ġhdr":4214,"Strategy":4215,"Ġchain":4216,"íĺĳ":4217,"åĨĩ":4218,"åĺĺ":4219,"ã¸¦":4220,"ä¸Ģå°ı":4221,"åĢĳ":4222,"â£ĩ":4223,"tras":4224,"ball":4225,"cit":4226,"å²«":4227,"èĹ¦":4228,"Encrypted":4229,"(`/":4230,"å¾Ĳå·ŀ":4231,"ĊĠĠĠĠĠĠĊĠĠĠĠĠ":4232,"ì½ľ":4233,"ïĤ«":4234,"ĠBinary":4235,"âļĳ":4236,"Ú":4237,"âĺ±":4238,"å°Ļ":4239,"áĲ£":4240,"matching":4241,"prometheus":4242,"åİķ":4243,"é®Ī":4244,"æłĸ":4245,"çħ¹":4246,"setDefault":4247,"ĠĠĠĠĠĠĠĠĠĠ":4248,"ìĹ":4249,"î¥´":4250,"îı¡":4251,"åıĻ":4252,"\">:</":4253,"Ġproblem":4254,"å®īåħ¨çļĦ":4255,"============":4256,"ĠRPC":4257,"QString":4258,"gfx":4259,"ĠJust":4260,"jay":4261,"îĹĭ":4262,"è¿ŀæİ¥":4263,"îħŃ":4264,"æĸĤ":4265,"èĻ´":4266,"æĹ¶å¸¸":4267,"åĬĤ":4268,"ä¹Łå¾Ī":4269,"é¡¯":4270,"merge":4271,"webkit":4272,"Ġranges":4273,"çªĬ":4274,"ïĮ²":4275,"ViewGroup":4276,"ïī¸":4277,"ibly":4278,"æ¼¸":4279,"éķį":4280,"çĥ²":4281,"é¢ķ":4282,"æĬ§":4283,"âĲ¦":4284,"æºĶ":4285,"Ð°Ðº":4286,"ä¯":4287,"vised":4288,"éĨµ":4289,"ĠXP":4290,"Ġreport":4291,"æ²¡ä»Ģ":4292,"ä¸ºèĩª":4293,"äº²æĪļ":4294,"uracy":4295,"Change":4296,"áª£":4297,"åħ³å¿ĥ":4298,"ĠFl":4299,"å¤ĸéĥ¨":4300,"è»Ģ":4301,"ĠDISCL":4302,"è±µ":4303,"åĲĮä¸Ģä¸ª":4304,"Ġ'@":4305,"rieve":4306,"éķķ":4307,"çŃ¾ç½²":4308,"ë½Ģ":4309,"èĹķ":4310,"åıĥ":4311,"èĹ§":4312,"æī§åĭ¤":4313,"]],":4314,"ĊĊĠĠĠĠĠĠĠĠĠĠĠĠĠĠĠĠĠĠĠ":4315,"ensure":4316,"ä»ĸæĺ¯":4317,"USER":4318,"pane":4319,"è§Ħæł¼":4320,"****/":4321,"Ġdash":4322,"Ġconstraint":4323,"éĬº":4324,"Ġchamp":4325,"éº´":4326,"Ġmid":4327,"Ġended":4328,"å¥Ł":4329,"ðŁı®":4330,"æ£ķ":4331,"æı¸":4332,"á¼¦":4333,"æľĭ":4334,"SendMessage":4335,"æĢ¥æķĳ":4336,"microsoft":4337,"â®ļ":4338,"éĸħ":4339,"Ġglyph":4340,"âĪª":4341,"lock":4342,"ĠCOPY":4343,"èģ»":4344,"æ¿Ģ":4345,"ïĲŁ":4346,"collect":4347,"str":4348,"UC":4349,"è¯ķçĤ¹":4350,"locfileid":4351,"Ġkr":4352,"ïĥĭ":4353,"æĪ¿æºĲ":4354,"å°ģéĹŃ":4355,"uuid":4356,"ä¸»åĬĽ":4357,"weak":4358,"=\"_":4359,"ĠContract":4360,"å¾®ä¿¡åı·":4361,"âĲĿ":4362,"SK":4363,"æ¶©":4364,"agen":4365,"Distribution":4366,"ĠALL":4367,"ĠProvider":4368,"è¿Ļä½į":4369,"ÅĦ":4370,"openstack":4371,"æĩ¼":4372,"Fam":4373,"InvariantCulture":4374,"Ý¢":4375,"Ïģ":4376,"âĬİ":4377,"çĲĽ":4378,"ç§¦":4379,"setPosition":4380,">@[+][<":4381,"iven":4382,"èĲ¦":4383,"çļĦçłĶ":4384,"èµī":4385,"ì¤Į":4386,"áıŁ":4387,"åĲįåįķ":4388,"aris":4389,"â¸ĥ":4390,"Ġ%(":4391,"ä¹ª":4392,"ContainsKey":4393,"êħ§":4394,"èŀĮ":4395,"âģ³":4396,"æĥĮ":4397,"ĠJsonObject":4398,"Replica":4399,"Ġ../../":4400,"æ½°":4401,"ãĹ²":4402,"Øª":4403,"Her":4404,"çĳĩ":4405,"çģĭ":4406,"îĢ¥":4407,"sz":4408,"unist":4409,"áĳ³":4410,"ê¡¦":4411,"ì±Ħ":4412,"RSA":4413,"Ġrouting":4414,"networks":4415,"å¸¸åĬ¡":4416,"ĠÑģ":4417,"ðŁĳĹ":4418,"è¿Ļä¸ī":4419,"parentNode":4420,"ë¦¬":4421,"MENT":4422,"èĴ³":4423,"Pa":4424,"Ġcontr":4425,"æĤĪ":4426,"æ³Ĵ":4427,"DFS":4428,"Formatted":4429,"î¶İ":4430,"CLR":4431,"Ġpeg":4432,"ĠAND":4433,"ĠoluÅŁtur":4434,"ç«Ī":4435,"âĺ":4436,"Ï©":4437,"ðŁ¦ī":4438,"åŃ¤":4439,"ð¤«Ĭ":4440,"î®Ĳ":4441,"ç»ĨèĬĤ":4442,"IDs":4443,"Å©":4444,"entifier":4445,"äº§çĶŁçļĦ":4446,"ç§ħ":4447,"Viewer":4448,"æ¥·":4449,"åĦħ":4450,"çĹĳ":4451,"æ¯ķä¸ļåĲİ":4452,"Ġsk":4453,"gh":4454,"î¡¶":4455,"åĸľæĤ¦":4456,"êİ½":4457,"Your":4458,"esp":4459,"é°Ń":4460,"Ġagg":4461,"ADDING":4462,"éīĢ":4463,"ðŁ¤¹":4464,"SCH":4465,"æĹ¶çļĦ":4466,"Ġachieve":4467,"æ¢«":4468,"åīįè¡Į":4469,"áķĶ":4470,"æ¬Ł":4471,"åĹ½":4472,"ä½ĸ":4473,"å¤§åĵ¥":4474,"ä¸ľåįĹ":4475,"world":4476,"æĨĦ":4477,"ãŀ®":4478,"è¯·å¤§":4479,"Changes":4480,"ð¥Ķ²":4481,"QUOT":4482,"ê½Ĥ":4483,"êº¾":4484,"ze":4485,"Ġverify":4486,"flt":4487,"éĹ¯":4488,"çĩĢ":4489,"áĪ¹":4490,"hugo":4491,"Ġeste":4492,"å¼Ģåı£":4493,"Ġsomehow":4494,"åİŁä»¶":4495,"âŀ¢":4496,"éĶ«":4497,"è¸Ī":4498,"chan":4499,"Ġvous":4500,"ĠSerialize":4501,"ĉĉĉĉĉĉĉ":4502,"àł¸":4503,"ĠTur":4504,"åİ»åģļ":4505,"åĪĽæĦı":4506,"åħħæ»¡":4507,"ĠMor":4508,"Ġencour":4509,"àº§":4510,"åį¬":4511,"symbol":4512,"Compute":4513,"Mar":4514,"RequestMapping":4515,"yang":4516,"invalidate":4517,"ìĶģ":4518,"fontSize":4519,"çµ©":4520,"ĠDeployment":4521,"èİ»":4522,"]==":4523,"adata":4524,"å¾¾":4525,"ìĮķ":4526,"queeze":4527,"ïĺ¡":4528,"è¯§":4529,"î´¼":4530,"å®¹éĩı":4531,"é»Ĥ":4532,"QC":4533,"Ð¦":4534,"MGR":4535,"ïĵ¹":4536,"Ġgem":4537,"EK":4538,"åĺĪ":4539,"ĠĠĠĠĠĠĠĠĠĠĠĠĠĠĠĠĠĠĠ":4540,"Ã³w":4541,"ierung":4542,"é¡Ķ":4543,"''":4544,"Attachments":4545,"é¹Ĵ":4546,"à©«":4547,"âĵŃ":4548,"åĨŃ":4549,"ControlPoint":4550,"çĸ¨":4551,"èĬ±äºĨ":4552,"à¯ı":4553,"á¹ħ":4554,"ðŁ¦¦":4555,"â»Ŀ":4556,"iano":4557,"ë¡":4558,"ĠMult":4559,"Ġexpires":4560,"ëģĮ":4561,"åĽ¾æĸĩ":4562,"æĬķèµĦ":4563,")=>{":4564,"âģĳ":4565,"icing":4566,"îĺ«":4567,"dictionary":4568,"èİ¸":4569,"*/,":4570,"Employ":4571,"à¨ł":4572,"%;":4573,"ëĴ¤":4574,"âįĥ":4575,"è½®èĥİ":4576,"Ĥ":4577,"')[":4578,"æĻ©":4579,"èŀ¤":4580,"Õ¯":4581,"åĲĮåı·":4582,"ç®Ĺæľº":4583,"Ġtolerance":4584,"ÐĢ":4585,"Registers":4586,"åĸĳ":4587,"tta":4588,"Ġsession":4589,"inas":4590,"ç·©":4591,"ences":4592,"æ¶ĭ":4593,"è¼½":4594,"ðĴĤį":4595,"flush":4596,"âĹĴ":4597,"ïħħ":4598,"æĶ¶éĽĨ":4599,"ä¸İæĪĳ":4600,"arry":4601,"ĠTime":4602,"åĹĻ":4603,"æŃ¢":4604,"Ġä»Ĭ":4605,"ðŁ¤º":4606,"ecall":4607,"ãĹ":4608,"lear":4609,"î£³":4610,"Mal":4611,"Ġah":4612,"USA":4613,"î¯ĩ":4614,"æĿĴ":4615,"åŃ±":4616,"æĲĹ":4617,"ìŁ¤":4618,"éĤ½":4619,"ä¥Į":4620,"Ġintroduce":4621,"äįĥ":4622,"Ì":4623,"ĠPhone":4624,"Quest":4625,"åŁºç¡Ģ":4626,"Ġautom":4627,"ĠConverts":4628,"Seek":4629,"èº«ä¸º":4630,"related":4631,"Ġnight":4632,"ç¿İ":4633,"ðĵĢį":4634,"æĭ«":4635,"æ¤Ĳ":4636,"çıłå®Ŀ":4637,"OND":4638,"ç©µ":4639,"aji":4640,"åĭī":4641,"ĠQ":4642,"Txt":4643,"dense":4644,"å¤´çļĦ":4645,"ugg":4646,"çĨª":4647,"ëŁ½":4648,"ĠOrder":4649,"îľŁ":4650,"åįģå¹´":4651,"iculo":4652,"LECTION":4653,"TOKEN":4654,"åĻħ":4655,"Ġconsole":4656,"ĠSelection":4657,"Ġìķ":4658,"Gender":4659,"Ġlig":4660,"{:":4661,"Particle":4662,"publish":4663,"âĩĨ":4664,"çĭķ":4665,"ĠCHAR":4666,"Ôµ":4667,"éĤ£æł·":4668,"savefig":4669,"ç´":4670,"/><":4671,"].":4672,"Û²":4673,"éĵ¸":4674,"ì»¥":4675,"schedule":4676,"proto":4677,"Ġjavascript":4678,"Ġdecimal":4679,"îĦģ":4680,"ĠCOLLATE":4681,"Ġ>::":4682,"å¯¹ä¸įèµ·":4683,"é«Ĺ":4684,"goal":4685,"Av":4686,"ĠDo":4687,"abled":4688,"éĲĨ":4689,"Ġabsolute":4690,"èķķ":4691,"à°ª":4692,"ĠDefinition":4693,"çĬ¤":4694,"é¤©":4695,"éļĲèĹı":4696,"URI":4697,"êĨĹ":4698,"æĴ½":4699,"åĨįæ¬¡":4700,"è¿ĩåİ»çļĦ":4701,"ÐŁÑĢ":4702,"ðŁªĵ":4703,"é½Ĥ":4704,"åļĬ":4705,"Manifest":4706,"Ġlib":4707,"bio":4708,"æĺ«":4709,"è¯¸":4710,"ìĹĨ":4711,"é¹±":4712,"ĠPhoto":4713,"ç»Ĩèĩ´":4714,"Ġ_(\"":4715,"èĲĵ":4716,"è·ĳæŃ¥":4717,"íĥ±":4718,"Ġlatitude":4719,"èłŁ":4720,"entropy":4721,"(&":4722,"çĸĴ":4723,"ç®Ģä»ĭ":4724,"Curve":4725,"åıįå¯¹":4726,"ãĺµ":4727,"Ġwhy":4728,"CPU":4729,"Ġaren":4730,"ä¸ĭåįĬ":4731,"ðŁįŀ":4732,"çĺĸ":4733,"å»ĭ":4734,"è¨":4735,"æĲ":4736,"è±ħ":4737,"ðŁĲĽ":4738,"Ġsimply":4739,"Ġpadding":4740,"sorted":4741,"å®ŀ":4742,"TestMethod":4743,"éŁĸ":4744,"ones":4745,"îĥĿ":4746,"alyzer":4747,"Instr":4748,"ðŁĽĴ":4749,"ìĥ¬":4750,"ç²Ŀ":4751,"âĿľ":4752,"Layer":4753,"ZXJ":4754,"ATTR":4755,"ç²µ":4756,"åĮĸå·¥":4757,"INE":4758,"èł¥":4759,"åĲ¾":4760,"è³ĺ":4761,"å¦ł":4762,"ã¨¤":4763,"ïĺŀ":4764,"éĭª":4765,"è¿İæĿ¥":4766,"èľľ":4767,"ĠModal":4768,"è¿Ľåº¦":4769,"Diag":4770,"Ô§":4771,"æ¯ıäºº":4772,"alaxy":4773,"åħ¥":4774,"aber":4775,"ïļ":4776,"å¹³çŃī":4777,"verts":4778,"éĸ¨":4779,"êħ¾":4780,"áĽł":4781,"ìĽ¹":4782,"ïĤ»":4783,"æīħ":4784,"ë°ĭ":4785,"ĠRepository":4786,"ëħĢ":4787,"èķ¶":4788,"æ¤Ĵ":4789,"é¼Ģ":4790,"å¨Ł":4791,"è¡¨çİ°":4792,"äĩ¿":4793,"èĽ½":4794,"ðŁĴ¤":4795,"ë§":4796,"æĻĤ":4797,"scalajs":4798,"tn":4799,"àł²":4800,"éİĵ":4801,"ïĤ¥":4802,"èĥ¤":4803,"å´İ":4804,"ĠToString":4805,"ðŁĽ«":4806,"å§ľ":4807,"EXPECT":4808,"ĠEquals":4809,"è¼Ń":4810,"çĩ¹":4811,"îĶ¾":4812,"åĦ°":4813,"ðŁĳ¢":4814,"å®īåº·":4815,"Ġ/":4816,"Éķ":4817,"Ġactiv":4818,"Ir":4819,"æª¶":4820,"such":4821,"éĪ§":4822,"æĽĤ":4823,"è¶ħçº§":4824,"ĠAJ":4825,"()(":4826,"èľ´":4827,"Coverage":4828,"èį£èİ·":4829,"--}}":4830,"î¨ī":4831,"èĩı":4832,"âĨĦ":4833,"iao":4834,"(\"\");":4835,"åĪ¶åĵģ":4836,"tensor":4837,"ÑĤÐ¾":4838,"ĠDOM":4839,"à¥Į":4840,"çĦ·":4841,"å¸¡":4842,"servlet":4843,"ĠAtomic":4844,"é¥ĥ":4845,"ignore":4846,"ifdef":4847,"Ġlead":4848,"é§´":4849,"çŁĸ":4850,"čĊĉĉĉĉ":4851,"ĠAssertion":4852,"ðŁĴĲ":4853,"à½ı":4854,"æİ¨å¹¿":4855,"æĹ¥è¯Ń":4856,"åħ»çĮª":4857,"â¤ĭ":4858,"æĪİ":4859,"čĊĠĠčĊĠ":4860,"è°ĭ":4861,"áĶ²":4862,"åĻĵ":4863,"TRANS":4864,"éļ¾åº¦":4865,"Ġpip":4866,"Battle":4867,"ĠX":4868,"è½ĩ":4869,"åĳĬçŁ¥":4870,"à¶¨":4871,"æĨİ":4872,"éįĻ":4873,"hit":4874,"ìļ§":4875,"æ»ķ":4876,"åİ³":4877,"èħĻ":4878,"æĮĩå¯¼":4879,"Je":4880,"ç·¾":4881,"ĊĠĠĠĠĠĠĠĠĠĠĠĠĠĠĠĠĠĠĠĠĠĠĠĠĠĠĠĠĠĠĠĠĠĠĠĠĠĠĠĠĠĠĠĠĠ":4882,"Ġ\"%":4883,"éĦĺ":4884,"Equal":4885,"ole":4886,"åŃ©åŃĲ":4887,"Ġbas":4888,"crypto":4889,"ä¿ª":4890,"âıļ":4891,"ä£ĭ":4892,"tod":4893,"ç¿»":4894,"ĠRSA":4895,"á¦ķ":4896,"æł¸":4897,"macro":4898,"éĬ¹":4899,"ë³´":4900,"Shop":4901,"ĠĊĠĠĠĠĠĠĠĠĠĠĠĠĠĠĠĠĠĠĠĠĠĠĠĠĠĠĠ":4902,"å·¥ç¨ĭå¸Ī":4903,"setText":4904,"tros":4905,"ĠTouch":4906,"ðŁĨ":4907,"Ò¢":4908,"âļ³":4909,"oof":4910,"ãĦĭ":4911,"ÌĤ":4912,"éĨļ":4913,"âłº":4914,"ç¯ĳ":4915,"åĳŀ":4916,"Ġcollabor":4917,"ðŁĴ»":4918,"ëŀ©":4919,"ä¸ºæŃ¢":4920,"åĸŀ":4921,"é¹Ħ":4922,"áĪĻ":4923,"suffix":4924,"ĠJenkins":4925,"æ½ĸ":4926,"è®ĭ":4927,"mark":4928,"Ġconcern":4929,"èĽģ":4930,"formatted":4931,"ãģ¾ãģĽãĤĵ":4932,"å¡ļ":4933,"Ġmu":4934,"Äİ":4935,"áĹ·":4936,"QA":4937,"wil":4938,"ðŁĴ½":4939,"æĭ¨":4940,"ÙĹ":4941,"åĪİ":4942,"pul":4943,"à¨Ĳ":4944,"ĠEnd":4945,"íĸ":4946,"æŁ":4947,"ëł¬":4948,"îĹī":4949,"ç¾Ĳ":4950,"Ġstamp":4951,"OG":4952,"Installing":4953,"Ìļ":4954,"extr":4955,"replic":4956,"FirstName":4957,"Ġgen":4958,"ĠManual":4959,"å¹¸ç¦ı":4960,"xB":4961,"Projects":4962,"çĿĩ":4963,"çŀĥ":4964,"ĠÐĶ":4965,"éĬĿ":4966,"'])->":4967,"çĨĺ":4968,"é´İ":4969,"å¤©çĶŁ":4970,"æī¿åĮħ":4971,"alls":4972,"KAN":4973,"[`":4974,"Ġrepo":4975,"æ¹ĸ":4976,"åıĳèĤ²":4977,"EV":4978,"Ń":4979,"promise":4980,"æļĬ":4981,"ïĩ¹":4982,"ðŁĶĢ":4983,"Ġbroken":4984,"à½ĭ":4985,"ðŁįĭ":4986,"éĩįè§Ĩ":4987,"æĻį":4988,"MESSAGE":4989,"BUIL":4990,"Ëĳ":4991,"ÑĥÑİ":4992,"namespaces":4993,"ç¬Ĳ":4994,"ìĶ»":4995,"å¦Ŀ":4996,"timer":4997,"ĠHAND":4998,"ìĹĳ":4999,"è¯Ħä¸º":5000,"å£İ":5001,"ĠTrack":5002,"ðŁ¤¾":5003,"çĿ":5004,"ðŁĢĤ":5005,"éĶı":5006,"çħĩ":5007,"â£¼":5008,"ifferent":5009,"é¡ī":5010,"ïĩ¬":5011,"MIS":5012,"EINVAL":5013,"()/":5014,"é»¨":5015,"Dis":5016,"Ġdom":5017,"îħ®":5018,"IGNED":5019,"lc":5020,"èĲĳ":5021,"çĬį":5022,"Free":5023,"cats":5024,"å®¢è§Ĥ":5025,"ðĲĬ":5026,"æĭ¿çĿĢ":5027,"èĢ´":5028,"erature":5029,"å¤§":5030,"Occurred":5031,"à«Ł":5032,"å¾¼":5033,"è°¦":5034,"ëŀ«":5035,"æľĢç»Ī":5036,"æ§®":5037,"ELAB":5038,"çĶŁäº§çļĦ":5039,"åĲįè¯į":5040,"ç±ĭ":5041,"ç©ºä¸Ń":5042,"å²¥":5043,"Ê¬":5044,"áº°":5045,"lipse":5046,"åļł":5047,"izaÃ§Ã£o":5048,"Óľ":5049,"å¬©":5050,"è¸ı":5051,"è¢ľ":5052,"ã¸ĳ":5053,"é£":5054,"æ·į":5055,"áļ©":5056,"æļĴ":5057,"îŁ¬":5058,"Öŀ":5059,"ïĢ¬":5060,"ê¦Ĺ":5061,"teger":5062,"è±¯":5063,"cite":5064,"å¤§éĺŁ":5065,"ĠuserId":5066,"é¡ĳ":5067,"ĠGROUP":5068,"Ġprec":5069,"è¿ĺåİŁ":5070,"æ»Į":5071,"æ¦ķ":5072,"é¦ĵ":5073,"Ġiterations":5074,"fx":5075,"Ġ\\":5076,"random":5077,"ĠIBM":5078,"ðŁĨļ":5079,"appendChild":5080,"è¨Ħ":5081,"åłĤ":5082,"InProgress":5083,"æ©¢":5084,"å«Ĥ":5085,"Ġdiagnostic":5086,"é¥ħ":5087,"class":5088,"Ii":5089,"áĥŀ":5090,"åĨłçĬ¶":5091,"æ®¸":5092,"xl":5093,"ä¼§":5094,"æīĵçĶµè¯Ŀ":5095,"changelog":5096,"à¤·":5097,"////////////////////////////////////////////////////////////////":5098,"åľ¹":5099,"ĠWhich":5100,"ÆĹ":5101,"æľīåĪ©äºİ":5102,"bounds":5103,"Õ½":5104,"êİ":5105,"éŁĺ":5106,"æĳĩ":5107,"ìļ°":5108,"Ġnormal":5109,"çĮŀ":5110,"æĮĢ":5111,"urnal":5112,"ëĭĻ":5113,"éŁĹ":5114,"Ability":5115,"__)":5116,"*****/":5117,"åĴĪ":5118,"åĵ»":5119,"ĠGeo":5120,"ĠKw":5121,"çŁī":5122,"transfer":5123,"ĠstartTime":5124,"ïĴŀ":5125,"voc":5126,"Ġsn":5127,"LIBR":5128,"éĳĦ":5129,"é±ī":5130,"èĿŀ":5131,"à¨ĸ":5132,"ëŃĺ":5133,"oby":5134,"èŀ¢":5135,"MQ":5136,"ä½İ":5137,"Ð¼Ñĸ":5138,"\\\":{\\\"":5139,"\"<":5140,"Ġbags":5141,"yon":5142,"ç¼Ĥ":5143,"å¾Ĵ":5144,"éĳ¿":5145,"ĠĠĠĠĠĠĠĠĠĠĠĠĠĠĠĠ":5146,"xm":5147,"ä¼ĺç§Ģ":5148,"å¬Ŀ":5149,"éİĹ":5150,"ĠIdent":5151,"æ»ļ":5152,"ĠBi":5153,"á»ı":5154,"èħ®":5155,"çĸ·":5156,"generic":5157,"æĭŀ":5158,"çĩĩ":5159,"é¶°":5160,"åĲįçļĦ":5161,"Ġplan":5162,"Opp":5163,"å¥Ļ":5164,"áĢĻ":5165,"è¿Ļé¦ĸ":5166,"Ġpub":5167,"rst":5168,"Providers":5169,"æ²¡æľīäºº":5170,"èĿİ":5171,"Explicit":5172,"Ġeller":5173,"oral":5174,"ãĥĿãĥ¼ãĥĪ":5175,"half":5176,"ïĢ¸":5177,"çĥŃåº¦":5178,"validator":5179,"ï£º":5180,"éĻ£":5181,"ĠĠĊĠĠ":5182,"Yo":5183,"çĬ§":5184,"subscriptions":5185,"ðŁı¤":5186,"æİĴåĩº":5187,"Ġdire":5188,"Rect":5189,"Sig":5190,"ð¨Ĥĥ":5191,"ê·¸":5192,"ubl":5193,"ĠItems":5194,"è¬¿":5195,"èĲĦ":5196,"SESSION":5197,"à¹ĸ":5198,"éī®":5199,"à¸µ":5200,"è¸³":5201,"Representation":5202,"éĩĮæľī":5203,"à¼Ĩ":5204,"îłĩ":5205,"tcp":5206,"âĬ¿":5207,"ĠWe":5208,"Ġfly":5209,"æĨĭ":5210,"Explorer":5211,"åĲĮæł·":5212,"Effect":5213,"subset":5214,"umi":5215,"åķĩ":5216,"starter":5217,"éŁĭ":5218,"Ġgh":5219,"Leaf":5220,"bot":5221,"ĠSELECT":5222,"ĠAddress":5223,"neg":5224,"ikari":5225,"éª¾":5226,"Comp":5227,"Ġyears":5228,"ĠgetAll":5229,"enqueue":5230,"îĲĳ":5231,"å«Ļ":5232,"ego":5233,"Len":5234,"Ġparty":5235,"rating":5236,"Maximum":5237,"å§Ĳå§Ĳ":5238,"å¼Ģä¸ļ":5239,"Hu":5240,"bootstrapcdn":5241,"åµ½":5242,"ä¹Īæĺ¯":5243,"rdf":5244,"èłĻ":5245,"ali":5246,"éª«":5247,"multi":5248,"êŁ¼":5249,"ç£ī":5250,"ãĤ¹":5251,"é½¯":5252,"ç§ĳåŃ¦":5253,"å¹¦":5254,"ì¿¨":5255,"ordion":5256,"ĠSF":5257,"har":5258,"Äķ":5259,"éłĸ":5260,"èĬĮ":5261,"èļª":5262,"plant":5263,"æ¯ľ":5264,"îľķ":5265,"êĢ¿":5266,"èĸ¥":5267,"æĵĻ":5268,"è°ĪæģĭçĪ±":5269,"åĢĵ":5270,"è±°":5271,"á»Ĳ":5272,"çļĦåŃ¦ä¹ł":5273,"âľĻ":5274,"reflect":5275,"WriteLine":5276,"Ġflexible":5277,"Ġcolor":5278,"rtl":5279,"Signing":5280,"îĤĳ":5281,">.<":5282,"æĦª":5283,"ç®ĥ":5284,"åļŃ":5285,"áĻł":5286,"multiple":5287,"tÃ³":5288,"çĤĲ":5289,"éı¦":5290,"éł¿":5291,"ä¸ĵé¡¹":5292,"Ġtree":5293,"Ġsecrets":5294,"ĠCriteria":5295,"éĵĻ":5296,"Ġscre":5297,"ð¦Ł":5298,"tex":5299,"Ġstatistics":5300,"center":5301,"OP":5302,"æĵİ":5303,"ĠASF":5304,"N":5305,"äĹ´":5306,"TECT":5307,"åįĵ":5308,"ïĭİ":5309,"éĿĨ":5310,"pcm":5311,"å¿ĥçĹĽ":5312,"å¦¨":5313,"ãĥ¾":5314,"èİŀ":5315,"ç©¢":5316,"uzz":5317,"æ²¤":5318,"Domain":5319,"å¯ĵæĦı":5320,"clusive":5321,"ĠProducts":5322,"èĭ¯":5323,"acao":5324,"à¡¶":5325,"è¯¥å¦Ĥä½ķ":5326,"Ġgone":5327,"since":5328,"âĭĮ":5329,"âİ¬":5330,"æŀľæĤ¨":5331,"ç«Ľ":5332,"Ġident":5333,"àº¢":5334,"ðŁĵ¼":5335,"èĢħä¼ĺåħĪ":5336,"bidden":5337,"å¿Ĥ":5338,"è¸º":5339,"æŁ¿":5340,"é½½":5341,"Ġer":5342,"ëĶ»":5343,"agr":5344,"openlocfilehash":5345,"ä¼ķ":5346,"æĶ²":5347,"éĤ¬":5348,"Õĥ":5349,"ê§Ĥ":5350,"/******/":5351,"çĵ»":5352,"ä»ĺåĩº":5353,"volatile":5354,"èİª":5355,"Ġthread":5356,"çĥ¢":5357,"ìĹĦ":5358,"ç¤Ī":5359,"ä¿¡ä»»":5360,"éĥ½":5361,"è§Ĥçľĭ":5362,"Ãĵ":5363,"ission":5364,"çĢ":5365,"çªģåĩº":5366,"ĠAct":5367,"æĭµ":5368,"dition":5369,"æ»ı":5370,"EM":5371,"Å®":5372,"Ġtwo":5373,"ä»ĵåºĵ":5374,"Ġwrapped":5375,"êµ°":5376,"å¾®çĶŁ":5377,"è¨¼":5378,"éŀ¡":5379,"âª¼":5380,"Ù£":5381,"GU":5382,"Êŀ":5383,"äĦ":5384,"ĠFI":5385,"control":5386,"æ¿Ħ":5387,"çģĶ":5388,"åµ³":5389,"==\"":5390,"](../../../":5391,"Ġestablished":5392,"çĻ¦":5393,"ãģĽãĤĵ":5394,"ĠReturns":5395,"æĺĺ":5396,"ĠArea":5397,"ìĪ¨":5398,"å¯¹æŃ¤":5399,"ä¸ºåķ¥":5400,"çĺĩ":5401,"ĠJVS":5402,"Members":5403,"è¯¾ä»¶":5404,"Ġpathlib":5405,"æĭ¢":5406,"Closure":5407,"èĳ¿":5408,"straints":5409,"ç¨¦":5410,"ç¹ī":5411,"æĭ½":5412,"Ġprox":5413,"\")).":5414,"ĠAPR":5415,"Timer":5416,"æĺ¯è°ģ":5417,"sing":5418,"ë°¸":5419,"alue":5420,"ãĤ¯ãĥ©":5421,"èµļ":5422,"Ġä¸Ģä¸ª":5423,"ision":5424,"dtype":5425,"æģµ":5426,"èĢģå¸Ī":5427,"é®§":5428,"æŃı":5429,"Ġcommunication":5430,"byte":5431,"äĮ·":5432,"ĠPlugin":5433,"ðŁ¥ĥ":5434,"çµĴ":5435,"And":5436,"é²Ŀ":5437,"æĤŃ":5438,"æ¢½":5439,"æĮĴ":5440,"fde":5441,"íĿĳ":5442,"ãĤĭ":5443,"Kit":5444,"ç¡ļ":5445,"ildcard":5446,"è¶Ĥ":5447,"ĠCLASS":5448,"ä¸įè¿ĩ":5449,"âĵ¸":5450,"ä¸Ģåı°":5451,"ĠDefine":5452,"î¬Ħ":5453,"æĻĥ":5454,"æĥ¸":5455,"orizontal":5456,"'>;":5457,"îľ¶":5458,"ðŁĵĪ":5459,"idos":5460,"æ´¦":5461,"ĨĴ":5462,"é²¦":5463,"Ð½Ð¾ÑģÑĤ":5464,"ç½Ń":5465,"åĨĽäºĭ":5466,"ðŁ§¼":5467,"å®Įåħ¨":5468,"éĩ¸":5469,"Ġrefactor":5470,"é³Ń":5471,"îĥĻ":5472,"åħ¬åĬŀ":5473,"é¤Ĳ":5474,"âŀģ":5475,"ì·¨":5476,"åĬłçĽŁ":5477,"áł£":5478,"à¾¸":5479,"áĶ¦":5480,"AccessException":5481,"çĤĳ":5482,"Ġprof":5483,"åĥ½":5484,"êĢ±":5485,"îĺ»":5486,"æĹ¶æľº":5487,"é¶¢":5488,"Ġwebpack":5489,"ç¯İ":5490,"Ġexpansion":5491,"à¾ī":5492,"æ¾·":5493,"æĲ§":5494,"ç¼©":5495,"ocus":5496,"æĮ´":5497,"ïĸ¨":5498,"eds":5499,"Schema":5500,"Bottom":5501,"Modifier":5502,"Sy":5503,"rex":5504,"èĴ¤":5505,"questions":5506,"Ġu":5507,"Trigger":5508,"Ġorient":5509,"â¸ª":5510,"çļĦå£°":5511,"ĠjQuery":5512,"åħµ":5513,"Color":5514,"é»ĩ":5515,"âļ¬":5516,"âĿĿ":5517,"Map":5518,"æħ½":5519,"ĠDatabase":5520,"ðŁķ¸":5521,"RopeObj":5522,"è¯¢éĹ®":5523,"ä¸":5524,"ïĺķ":5525,"äºĭæĥħ":5526,"Ý§":5527,"áĥ·":5528,"inspection":5529,"ðŁĴ¦":5530,"æķĴ":5531,"åľĮ":5532,"ĠParams":5533,"ç½¼":5534,"å¯²":5535,"æ¿³":5536,"éĲľ":5537,"ç©´":5538,"éĺŁåĳĺ":5539,"ategy":5540,"gether":5541,"REM":5542,"å¤±æľĽ":5543,"á»´":5544,"çıŃä¸»ä»»":5545,"EOS":5546,"WH":5547,"å¸ĤæĶ¿åºľ":5548,"/*******************************************************************************":5549,"Ġping":5550,"ä¼¼":5551,"à·ł":5552,"á´ĸ":5553,"æĲºæīĭ":5554,"Ġderivative":5555,"æĴº":5556,"éħ¦":5557,"ĠIssue":5558,"æ¡Ļ":5559,"CO":5560,"å«®":5561,"ãĤ¯ãĥĪ":5562,"CONNECT":5563,"Ġlst":5564,"ç°ĸ":5565,"ks":5566,"ĠEM":5567,"ĠRegister":5568,"çĹļ":5569,"áįį":5570,"çĵ±":5571,"æĪĮ":5572,"éĿ¥":5573,"Ġ(!(":5574,"å¤®":5575,"exc":5576,"àªļ":5577,"æľı":5578,"ðŁİ·":5579,"çł¥":5580,"Bool":5581,"omain":5582,"apid":5583,"ÛĽ":5584,"devtools":5585,"è¼´":5586,"îĥ½":5587,"ĠHOLDERS":5588,"åĵ¼":5589,"áķĻ":5590,"ïĨĬ":5591,"ä¹¿":5592,"ä¹īåĬ¡":5593,"ðĳĦĭ":5594,"çĽ¸å¯¹":5595,"zsh":5596,"èĵģ":5597,"èıĭ":5598,"èĬĽ":5599,"èļĵ":5600,"éĤ£ä¹Ī":5601,"Çļ":5602,"ìĥ¾":5603,"Ì°":5604,"iones":5605,"áı©":5606,"à«į":5607,"<!":5608,"ãģł":5609,"ç¶®":5610,"åĭĿ":5611,"urb":5612,"Ġvary":5613,"èīĥ":5614,"ĠĊĠĠĠĠĠĠĠĠĠĠĠĠĠĠĠ":5615,"callbacks":5616,"acher":5617,"ien":5618,"redhat":5619,"DIG":5620,"ç¢½":5621,"ĠAnnotation":5622,"ðĳĲ":5623,"pq":5624,"èĦĳ":5625,"åĩĥ":5626,"äĹĸ":5627,"é½Ń":5628,"izard":5629,"ðŁ§¿":5630,"äĸĺ":5631,"ä»³":5632,"ìĦ¸":5633,"å½ģ":5634,"åŁļ":5635,"å®ĥä»¬":5636,"Plugin":5637,"../../../":5638,"ievement":5639,"ðŁĺĭ":5640,"ïĺª":5641,"SS":5642,"ðŁĴĤ":5643,">()":5644,"Ġplacement":5645,"èįĮ":5646,"ĠRAM":5647,"liers":5648,"ðŁĲ¯":5649,"\";'}":5650,"zione":5651,"éªĮæĶ¶":5652,"æ£¸":5653,"best":5654,"ïĺģ":5655,"à¯¹":5656,"è§£":5657,"é£Ĵ":5658,"up":5659,"çļĺ":5660,"ä½Ŀ":5661,"çļĦåĨħ":5662,"()`.":5663,"åĿĽ":5664,"ut":5665,"rk":5666,"North":5667,"Ġè¥¿":5668,"ĠčĊĠĠĠĠ":5669,"ôĢĤĥ":5670,"]":5671,"çĮĴ":5672,"è¿Ĺ":5673,"èħ©":5674,"transaction":5675,"Counters":5676,"[{\"-\",":5677,"ã³Ģ":5678,"áĮ£":5679,"âľ¬":5680,"åĲĮ":5681,"ĊĠĠĠĠĠĠĠĠĠĠĠĠĠĠĠĠĠĠĠĠĠĠĠĠĠĠĠĠĠĠĠĠĠĠĠĠĠĠ":5682,"äºķ":5683,"ĠAnswer":5684,"ðŁĵĹ":5685,"\"}]}],":5686,"åĿĿ":5687,"è¡µ":5688,"èħ¿":5689,"å°Ķæ»¨":5690,"çĲ«":5691,"ĠArrange":5692,"Test":5693,"Ġ{}\",":5694,"iveness":5695,"ager":5696,"Ġstmt":5697,"indent":5698,"ï¸Ģ":5699,"ç¡º":5700,"æĺĩ":5701,"optim":5702,"å¹µ":5703,"êģŀ":5704,"æĽª":5705,"æµĭè¯Ħ":5706,"Ġprovision":5707,"ĠFabric":5708,"é¹¬":5709,"çĩĲ":5710,"àªħ":5711,"äª":5712,"è¾´":5713,"êĮĤ":5714,"çĸĳéĹ®":5715,"Ġbasename":5716,"ĠCLI":5717,"è½»":5718,"OPERATION":5719,"ione":5720,"Ġkter":5721,"ĠLAT":5722,"Ü»":5723,"Zone":5724,"Ġ='":5725,"endpoint":5726,"ìº¡":5727,"ïįĴ":5728,"Ġtp":5729,"Nom":5730,"ãĥ¶":5731,"éłĳ":5732,"Ġà¤":5733,"çĶµè·¯":5734,"Ġupper":5735,"ĠìŀĪ":5736,"åĪ²":5737,"Orders":5738,"ðŁĲĲ":5739,"á¼°":5740,"pd":5741,"ĠRO":5742,"ĠEC":5743,"áŀĶ":5744,"îģĵ":5745,"æŃĭ":5746,"ÕĬ":5747,"Arena":5748,"Ji":5749,"ç°ĭ":5750,"åĲµæŀ¶":5751,"account":5752,"ðŁĢĳ":5753,"æīįçŁ¥éģĵ":5754,"nx":5755,"ãĵĭ":5756,"ç»²":5757,"Sm":5758,"åĮĻ":5759,">`":5760,"Ġrate":5761,"certificate":5762,"ProgressBar":5763,"æ¿Ŀ":5764,"Calculation":5765,"æ§Ģ":5766,"çĮ«":5767,"\",[$]":5768,"configs":5769,"ä¸įçŁ¥":5770,"rgb":5771,"æį½":5772,"ÃĢ":5773,"#[":5774,"Ġ----------------":5775,"é¶¡":5776,"Ġneural":5777,"jj":5778,"çķĹ":5779,"éĴª":5780,"éĸı":5781,"Ġreflection":5782,"åĶ·":5783,"çļĦå¾Ī":5784,"â¬®":5785,"T":5786,"å»Ŀ":5787,"TE":5788,"íĵ¨":5789,"éĨľ":5790,"é¶Ī":5791,"é°ĸ":5792,"æ¢²":5793,"ew":5794,"æµ»":5795,"à¼Ľ":5796,"Pattern":5797,"ðĳĳħ":5798,"Ġhear":5799,"é¢½":5800,"meas":5801,"æºĨ":5802,"å¦":5803,"Ġdisclaimer":5804,"Ġoverlay":5805,"ðŁĳİ":5806,"âĺ«":5807,"èĸĿ":5808,"îĮĺ":5809,"åĦ£":5810,"åĸĮ":5811,"çĴĸ":5812,"æ¯ıä¸ª":5813,"åĲĦåĽ½":5814,"éĤŁ":5815,"skb":5816,"é®Ľ":5817,"å³ħ":5818,"îĥ¶":5819,"âĭŀ":5820,"migration":5821,"uri":5822,"é¦»":5823,"ðŁħ½":5824,"Ġabout":5825,"jh":5826,"itecture":5827,"rv":5828,"pentaho":5829,"ĠWORK":5830,"íķ´ìĦľ":5831,"ëª½":5832,"êĲĽ":5833,"scri":5834,"ĠåĮĹ":5835,"èĪ©":5836,"Ġmut":5837,"ä¨Ļ":5838,"ĠScal":5839,"Ġblo":5840,"\")){":5841,"ĠIl":5842,"å©Ī":5843,"åĨİ":5844,"é§ľ":5845,"Ox":5846,"Ġ`[":5847,"îĹ¨":5848,"å¥¶ç²ī":5849,"Ref":5850,"èĹļ":5851,"lev":5852,"OpenGL":5853,"à¡Ģ":5854,"åĪĮ":5855,"å¤§å¸Ī":5856,"*);":5857,"æŁĭ":5858,"HANDLER":5859,"Ġinsertion":5860,"ïĵ":5861,"Dns":5862,"è®Ń":5863,"StateMachine":5864,"Observation":5865,"Ôĭ":5866,"Ġ[":5867,"ðŁĶł":5868,"æł¡åĮº":5869,"HASH":5870,"navbar":5871,"Ġtriggers":5872,"ðŁĲº":5873,"ĠOut":5874,"çĭ¥":5875,"Ġ[%":5876,"TRANSFER":5877,"æĸµ":5878,"äĵį":5879,"ðĲĲ¤":5880,"é¶¨":5881,"ãĥĥãĥĪ":5882,"åĲĬ":5883,"ä¹¡æĿĳ":5884,"instagram":5885,"çħ²":5886,"did":5887,"éĽĿ":5888,"ë°ĺ":5889,"é¹´":5890,"éĮĸ":5891,"åĳ¨çŁ¥":5892,"âĨ²":5893,"rollback":5894,"â¸ľ":5895,"ä¸»æĮģäºº":5896,"å¾ĥ":5897,"éĿĺ":5898,"èģķ":5899,"éĴ¼":5900,"Ġvis":5901,"ĠÐ±":5902,"CONTROL":5903,"ç·¬":5904,"Ġtax":5905,"é«ĺæ¸ħ":5906,"ç¬º":5907,"Translate":5908,"ĠParent":5909,"æ¿·":5910,"Ġrevert":5911,"è¨ª":5912,"Ġcreature":5913,"è¦ģåľ¨":5914,"èĲĤ":5915,"ĊĠĠĠĠĠĠĠĠĠĠĠĠĠĠĠĠ":5916,"ë²ķ":5917,"KEYS":5918,"ĠMIME":5919,"èĿ©":5920,"ã¥¬":5921,"à¢ķ":5922,"ëĲľ":5923,"ä¸»è§Ĵ":5924,"ç»":5925,"wy":5926,"tabular":5927,"åĴĮç¤¾ä¼ļ":5928,"æĪĳä»¬åľ¨":5929,"references":5930,"TIMESTAMP":5931,"Col":5932,"NOR":5933,"å§ĥ":5934,"ohn":5935,"é¯½":5936,"ĠÐ¤":5937,"LETED":5938,"è·¸":5939,"æĢĿæĥ³":5940,"è½¬ç§»":5941,"×³":5942,"æĽ":5943,"çłĶç©¶æīĢ":5944,"éļĥ":5945,"çļĦè®¾":5946,"but":5947,"CRIP":5948,"Constantes":5949,"assertNotNull":5950,"æ®¬":5951,"åĻ¯":5952,"Ġunderstanding":5953,"æ¯·":5954,"æĦĮ":5955,"èĮ·":5956,"Ġpropri":5957,"Ġëª¨":5958,"Does":5959,"å¹´çº§":5960,"îŁ¾":5961,"çĮħ":5962,"og":5963,"çĸİ":5964,"å¥¹çļĦ":5965,"åŁ°":5966,"è¡¨å½°":5967,"Ġdiscount":5968,"î§Ķ":5969,"îĬĭ":5970,"æµ§":5971,"Ġbodega":5972,"âĨ¢":5973,"lf":5974,"ë¼":5975,"å°ĥ":5976,"é¡¬":5977,"ç²¾åĬĽ":5978,"â¸®":5979,"ßį":5980,"wh":5981,"ä³Ĺ":5982,"à±ī":5983,"íĴ":5984,"æĬ¥éĶĢ":5985,"ETA":5986,"ÇĤ":5987,"çĻ¡":5988,"ïĤİ":5989,"åī¦":5990,"æ¥ī":5991,"åĬŀåŃ¦":5992,"åº¾":5993,"çĦµ":5994,"utility":5995,"Neighbor":5996,"áļĽ":5997,"åľ¨åīį":5998,"å±İ":5999,"onClick":6000,"Fib":6001,"æ£Ķ":6002,"äººäºº":6003,"èµ®":6004,"eros":6005,"NotaCreditoPunto":6006,"ä´©":6007,">(\"":6008,"riv":6009,"çĲĶ":6010,"destination":6011,"Ġtheir":6012,"amento":6013,"adas":6014,")?":6015,"çĺĴ":6016,"çĤİ":6017,"æĵģ":6018,"çķł":6019,"æĢ§ä»·æ¯Ķ":6020,"éµĨ":6021,"èĩ»":6022,"ðŁĻĪ":6023,"Fi":6024,"SAMP":6025,"èģļ":6026,"è½¸":6027,"é¡Ĳ":6028,"æĸĺ":6029,"îł":6030,"åĴ¦":6031,"æ¨Ľ":6032,"å¥":6033,"Æ¥":6034,"fabric":6035,"Ġquota":6036,"ðŁĵŀ":6037,"modes":6038,"æ³ķå®ļ":6039,"åĽŃåĮº":6040,"disp":6041,"å§©":6042,"ðŁ¥į":6043,"ef":6044,"ðłĴ":6045,"åĨħåľ¨":6046,"Ġlisting":6047,"á¯¤":6048,"å§¿":6049,"Paste":6050,"èĬ¨":6051,"îĦ½":6052,"stepfunc":6053,"ĠInst":6054,"å°Ķ":6055,"ðŁĴĴ":6056,"æŀ£":6057,"ç»ĵå±Ģ":6058,"rewrite":6059,"iqu":6060,"Ġlicenses":6061,"PROTOCOL":6062,"Ġvl":6063,"è¹¶":6064,"çĭ¬çī¹çļĦ":6065,"è½´":6066,"wm":6067,"ĠTN":6068,"æĹ¶æľŁ":6069,"çļ®èĤ¤":6070,"èħĺ":6071,"çıĺ":6072,"ðŁĲ¹":6073,"à²":6074,"è°£":6075,"iNdEx":6076,"å§Į":6077,"Ðĳ":6078,"áºĢ":6079,"unda":6080,"umes":6081,"éĩĢ":6082,"é«ª":6083,"Ġquad":6084,"itle":6085,"Ġìľ":6086,"èİ·åıĸ":6087,"å©¤":6088,"Ġtrans":6089,"æĶ":6090,"ĠBegin":6091,"è»ĵ":6092,"éĵĪ":6093,"è©Ĺ":6094,"èŃĤ":6095,"æ°ģ":6096,"éĮŀ":6097,"æ½±":6098,"á»ķ":6099,"ç³Ĳ":6100,"ä»»åĬ¡":6101,"é¦¯":6102,"é±©":6103,"æĲĴ":6104,"áĪĦ":6105,"Apis":6106,"ãĤª":6107,"ĠDJ":6108,"precation":6109,"á¸Ł":6110,"á»²":6111,"ç¨³å®ļ":6112,"çī¹":6113,"ç¿·":6114,"ãĢİ":6115,"è¯º":6116,"Ð»ÑĮ":6117,"åİĤåķĨ":6118,"%.":6119,"á¸®":6120,"éł«":6121,"åĨĽ":6122,"ĊĊĊĊĊĊ":6123,"ario":6124,"gather":6125,"ç±Ĳ":6126,"neo":6127,"iblings":6128,"Credit":6129,"è½¦ç«Ļ":6130,"ADER":6131,"pex":6132,"nodes":6133,"éª³":6134,"toc":6135,"ĠWriting":6136,"âĢŃ":6137,"Co":6138,"ä£Ĵ":6139,"Öİ":6140,"å¿Ħ":6141,"åħ°":6142,"ÒĻ":6143,"èĩĹ":6144,"çģ«çģ¾":6145,"æ©ª":6146,"Í§":6147,"Ġglob":6148,"RTC":6149,"Ġsending":6150,"/+":6151,"çĩ®":6152,"áĽĩ":6153,"åĭ¹":6154,"Barrier":6155,"Ġ../":6156,"Ġcould":6157,"åŁ":6158,"éĢļçŁ¥":6159,"æľ¡":6160,"éĿ¢èĨľ":6161,"opp":6162,"NC":6163,"effective":6164,"îĻµ":6165,"éĶĲ":6166,"lips":6167,"TabIndex":6168,"Ġextensions":6169,"ĠWhether":6170,"Ġgebruik":6171,"desired":6172,"éĭ°":6173,"æĹłçº¿":6174,"ä¸Ģå¿ĥ":6175,"cent":6176,"åľ³å¸Ĥ":6177,"å¤§å¥ĸ":6178,"arduino":6179,"ÓĻ":6180,"é°¢":6181,"iri":6182,"ðŁĴĻ":6183,"çİī":6184,"×·":6185,"à·Ģ":6186,"Ġsensor":6187,"é¥ı":6188,"çŃ¬":6189,"è¾ĥä¸º":6190,"PARENT":6191,"ã¯ĸ":6192,"á»¨":6193,"Ġanimation":6194,"ĠOur":6195,"Êģ":6196,"ä¸Ĺ":6197,"ĠĠčĊč":6198,"acs":6199,"ß¸":6200,"Â¤":6201,"ïı½":6202,"åºĨç¥Ŀ":6203,"éī´":6204,"èŃ¼":6205,"çļĦçİ¯":6206,"å°±ä¼ļ":6207,"Configurations":6208,"çĶµèĦĳ":6209,"ðŁĺŀ":6210,"å®ŀçİ°äºĨ":6211,"ĠFun":6212,"íĦ°":6213,"è®©åŃ©":6214,"Ġwide":6215,"æĳ©":6216,"îłĨ":6217,"éħ©":6218,"è¥¿çľģ":6219,"express":6220,"åĶ¯ä¸Ģ":6221,"åł¡":6222,"å»¯":6223,"èŃ¦åĳĬ":6224,"ĠpostIndex":6225,"Registered":6226,"ìĬĿ":6227,"æĸ°èĥ½æºĲ":6228,"à¦·":6229,"å³Ļ":6230,"Èĺ":6231,"æĪĳä»¬ä¼ļ":6232,"ErrorMessage":6233,"ç¨ĭåº¦":6234,"Criteria":6235,"JWT":6236,"áĪ¨":6237,"åĶŃ":6238,"åĽŀåºĶ":6239,"ïĳ¤":6240,"PYR":6241,"ä¸ľèİŀ":6242,"ðŁĵ«":6243,"Ġib":6244,"Resolution":6245,"Ġkeep":6246,"sectetur":6247,"ç¡§":6248,"è¿µ":6249,"éĩ¼":6250,"çĺĹ":6251,"éĺ³åı°":6252,"éİĿ":6253,"ð¢³":6254,"å¡Ħ":6255,"ĠXi":6256,"éºµ":6257,"password":6258,"Ġfactor":6259,"bottom":6260,"âĿ³":6261,"ßĻ":6262,"Ñº":6263,"ather":6264,"é©»":6265,"ðŁ¤©":6266,"sint":6267,"â»°":6268,"å¼Ĥåľ°":6269,"(){":6270,"astype":6271,"dat":6272,"ä¼»":6273,"æĭķ":6274,"Ġdatetime":6275,"éĪ¥":6276,"ĠÎ±":6277,"Ġ'(":6278,"èºĿ":6279,"æĭ¤":6280,"å¢º":6281,"æīįæĺ¯":6282,"uer":6283,"Marshaler":6284,"â©ĵ":6285,"ç¬´":6286,"äĪĤ":6287,"å²»":6288,"ðŁıĨ":6289,"getObject":6290,"åħ¨åĬĽ":6291,"drop":6292,"åĬĶ":6293,"îĢı":6294,"Ġforecast":6295,"çĲ½":6296,"èĿ¢":6297,"Jud":6298,"î§£":6299,"æĢ¢":6300,"êĦ¾":6301,"è¦ģåĿļæĮģ":6302,"```":6303,"scanner":6304,"ç£°":6305,"label":6306,"nej":6307,"ĠConstruct":6308,"hero":6309,"ICAL":6310,"å£¬":6311,"govuk":6312,"ä¼łè¯´":6313,"é«°":6314,"Ġ>":6315,"ðŁĴ":6316,"çĹĻ":6317,"querySelector":6318,"ĠERROR":6319,"å¼´":6320,"å¾Īåı¯":6321,"çİ·":6322,"Gate":6323,"çļĦä¸ĸ":6324,"nums":6325,"åĳĬäºº":6326,"ÑĥÑĩ":6327,"é³ĩ":6328,"ç°Ł":6329,"vote":6330,"èłł":6331,"æ¶ª":6332,"æıķ":6333,"initialized":6334,"inux":6335,"éıļ":6336,"Ġlc":6337,"Ġfamily":6338,"ïıİ":6339,"èĮ²":6340,"æĲ«":6341,"æ°Ļ":6342,"åĥĴ":6343,"ïĪĵ":6344,"Through":6345,"Ġendif":6346,"å¤ĵ":6347,"getLength":6348,"åĺĲ":6349,"éķ¿å¯¿":6350,"åıĳåĮº":6351,"ĠRot":6352,"è¥¯":6353,"å¿ĥæĥħ":6354,"æĢ¬":6355,"çĬ´":6356,"ç¼ļ":6357,"äº¤æį¢":6358,"vue":6359,"++);":6360,"ã®":6361,"æĺĲ":6362,"ä¸Ĭä¼ł":6363,"å°Ĩäºİ":6364,"SPACE":6365,"ĠAfter":6366,"Ġdei":6367,"åĤİ":6368,"é´ł":6369,"åĳĳ":6370,"tun":6371,"á¬¦":6372,"æ¹Ķ":6373,"launch":6374,"çĤ«":6375,"Ġ};":6376,"è¤Ĭ":6377,"é©ħ":6378,">())":6379,"æĮĺ":6380,"æıĲåĩºäºĨ":6381,"æ¢·":6382,"çģı":6383,"áį±":6384,"æ¢Ī":6385,"itÃ©":6386,"à¿ķ":6387,"ĠSerial":6388,"ç¡Ł":6389,"PLUS":6390,"âĬĤ":6391,"lius":6392,"ãĢĵ":6393,"æĹ¸":6394,"Ġstudents":6395,"äºĨä¸ĢäºĽ":6396,"POSIT":6397,"gam":6398,"çªŃ":6399,"inks":6400,"sequences":6401,"borrow":6402,"é³Ģ":6403,"à°Ĺ":6404,"íĩ":6405,"çľŁæŃ£çļĦ":6406,"iffer":6407,"ç¾ľ":6408,"à¬Ĺ":6409,"ä¸§":6410,"ĠName":6411,"uz":6412,"ç¨¢":6413,"çĬ±":6414,"etch":6415,"æµģè¡Į":6416,"GI":6417,"ç©ª":6418,",,":6419,"wor":6420,"â®Ŀ":6421,"ä¾ĥ":6422,"åĢ¥":6423,"æ´»çļĦ":6424,"Ġaug":6425,"AddRange":6426,"userId":6427,"à¯°":6428,"âĹ´":6429,"çľĴ":6430,"preds":6431,"èĺ©":6432,"æ²Ĳ":6433,"ã«":6434,"ç´Ĵ":6435,"áŁ§":6436,"ASK":6437,"ç¹Ļ":6438,"æĢ§":6439,"è§ĳ":6440,"éĩ£":6441,"áĦĤ":6442,"cience":6443,"à«Ĩ":6444,"êĩģ":6445,"ä¸įåĲĪæł¼":6446,"ede":6447,"à©±":6448,"xic":6449,"å¯¬":6450,"éį³":6451,"Sun":6452,"Ġì£¼":6453,"ç½ĺ":6454,"ãģĦãģ¦":6455,"âºģ":6456,"nesday":6457,"Ġcool":6458,"åĭ²":6459,"Ġ{}\".":6460,"î¡ı":6461,"åĢĹ":6462,"ó°Ĩ":6463,"ĊĠĠĠĠĠĠĠĠĠĠĠĠĠĠĠĠĠĠĠĠĠĠĠĠ":6464,"éĭİ":6465,"äº²åĪĩ":6466,"éĥĭ":6467,"ĠëĮĢ":6468,"ïĵģ":6469,"printStackTrace":6470,"ðŁį»":6471,"éĤ®ä»¶":6472,"èĦĪ":6473,"åıĪ":6474,"å":6475,"ç¨¤":6476,"joint":6477,"2":6478,"Ã²":6479,"èŀ¬":6480,"Ġ$@":6481,"åŀĺ":6482,"ĠSer":6483,"ãĥĢ":6484,"çĲŀ":6485,"Recovery":6486,"ĠHR":6487,"æĬ¤å£«":6488,"ObjectId":6489,"ç¶³":6490,"ä»·":6491,"ĠREADME":6492,"amil":6493,"è¼":6494,"model":6495,"ĠHo":6496,"åĵĲ":6497,"âĤ©":6498,"áĬĨ":6499,"çº»":6500,"ç´Ĭ":6501,"ĠSystems":6502,"tipo":6503,"rink":6504,"INSTALL":6505,"rendering":6506,"î¤Ĺ":6507,"ç«¹":6508,"pearance":6509,"éĺĢ":6510,"à¦³":6511,"AREA":6512,"Arch":6513,"awk":6514,"NULL":6515,"ĠPG":6516,"äĴ":6517,"Ú±":6518,"ðŁħ¥":6519,"box":6520,"îĦĩ":6521,"Ġch":6522,"qe":6523,"Ġlocal":6524,"çŃĵ":6525,"'m":6526,"ë½":6527,"ë½Ĳ":6528,"Max":6529,"`](#":6530,"å§ļ":6531,"=\"'.$":6532,"Ġì½Ķëĵľ":6533,"æĶ¯ä»ĺ":6534,"éķĴ":6535,"åĪĻæĺ¯":6536,"ĠSPE":6537,"à¤«":6538,"ç¡Ħ":6539,"îļļ":6540,"ĠRem":6541,"âļī":6542,"à¾":6543,"æ³Ń":6544,"Rank":6545,"à³ĭ":6546,"åģ¾":6547,"Tuple":6548,"Spawn":6549,"ServiceClient":6550,"×Ł":6551,"emy":6552,"ðŁ¥¡":6553,"Expect":6554,"èĢĮåĩº":6555,"æ³¼":6556,"branch":6557,"Ġgenome":6558,"ĊĊĉĠ":6559,"signed":6560,"ÎĽ":6561,"ðŁĶĽ":6562,"å½Ŀ":6563,"å¤©æ´¥":6564,"æĭ¹":6565,"oco":6566,"ĠPC":6567,"æķĦ":6568,"link":6569,"çľĭ":6570,"ÌĨ":6571,"Reports":6572,"rott":6573,"å«¦":6574,"ĠrotateX":6575,"è´¸æĺĵ":6576,"ĠAU":6577,"Ġinteger":6578,"Refund":6579,"è½ĳ":6580,"é·İ":6581,"çĪĹ":6582,"Autowired":6583,"ãĤŃ":6584,"gressive":6585,"åĭ¼":6586,"æĩī":6587,"ïľ¹":6588,"ç¦Ħ":6589,"è¾ĥå¼ºçļĦ":6590,"Ġlow":6591,"ah":6592,"éĹ¬":6593,"ç¨İ":6594,"âŀļ":6595,"wY":6596,"á¦®":6597,"uzzle":6598,"áĭĵ":6599,"hib":6600,"getter":6601,"aci":6602,"á»Ľi":6603,"çĺĥ":6604,"îĭĢ":6605,"çŃīåľ°":6606,"Ø½":6607,"åĭŃ":6608,"å¾³":6609,"DF":6610,"îĬ¶":6611,"èĪŀ":6612,"æĲŃéħį":6613,"çºį":6614,"Ġsmart":6615,"Ġdestroy":6616,"é«³":6617,"logits":6618,"å§½":6619,"æ»Ĺ":6620,"çŁ¥è¯ĨçĤ¹":6621,"Ġencountered":6622,"æĹĳ":6623,"èĻ¬":6624,"ä³ķ":6625,"ç¡":6626,"ousel":6627,"æŀº":6628,"éĢ·":6629,"]\",":6630,"moke":6631,"åıĴ":6632,"ì¨Į":6633,"hook":6634,"çķ²":6635,"à©¿":6636,"å½±è§Ĩ":6637,"ïĩª":6638,"èĦī":6639,"ã±İ":6640,"ggler":6641,"æ´ĸ":6642,"ÊŁ":6643,"äķ":6644,"à©·":6645,"Vw":6646,"ïĺĩ":6647,"åĴ°":6648,"ä¸ĢçļĦ":6649,"åĵ±":6650,"ĠFORM":6651,"']=":6652,"Interceptor":6653,"ayment":6654,"ä»ĸäººçļĦ":6655,"Anonymous":6656,"trans":6657,"E":6658,"çļĦä¸»":6659,"POR":6660,"phere":6661,"èĲĪ":6662,"ç³ħ":6663,"åĽŀæĬ¥":6664,"Parcel":6665,"ãĴ°":6666,"äº©":6667,"å¾ħéģĩ":6668,"æ¸±":6669,"äĲ±":6670,"Pending":6671,"è»¯":6672,"ç£¶":6673,"å¿įä¸į":6674,"ä¸įä»£è¡¨":6675,"Login":6676,"à¯³":6677,"Ġ\"_\"":6678,"PE":6679,"prediction":6680,"thumb":6681,"Adjust":6682,"Ġform":6683,"å½Į":6684,"è¹ī":6685,"lu":6686,"è®ł":6687,"çį¨":6688,"Ġsear":6689,"ç®ı":6690,"Ġoverflow":6691,"Ġreplication":6692,"æ¾´":6693,"åĪĩæĪĲ":6694,"Ġ~=":6695,"æ¯Ľæ³½ä¸ľ":6696,"åĮ»çĸĹ":6697,"åĽĭ":6698,"GUILayout":6699,"urren":6700,"findBy":6701,"ITLE":6702,"äºĭåıĳ":6703,"å¯»æ±Ĥ":6704,"æĺİ":6705,"ĠIt":6706,"ĠLogin":6707,"éĥĦ":6708,"áĸ«":6709,"åįĬå¹´":6710,"ç¾İæľ¯":6711,"NNNNNNNN":6712,"Lt":6713,"ĠTensor":6714,"ĠCUDA":6715,"è¤°":6716,"âĪĢ":6717,"ç»ļ":6718,"èľ¶":6719,"Descriptions":6720,"sourceCode":6721,"bab":6722,"MJ":6723,"Tur":6724,"Vulkan":6725,"é¬ĺ":6726,"èŁĩ":6727,"ĠçĽ®åīį":6728,"é¢¦":6729,"âĬĿ":6730,"ĠTag":6731,"åºļ":6732,"îİĥ":6733,"åĩº":6734,"çŁŃ":6735,"çĽĺ":6736,"ä¼ļè®®":6737,"àłŀ":6738,"à¯Ł":6739,"ĊĠĠĊĠĠ":6740,"ëĦµ":6741,"îģ¯":6742,"è´¨":6743,"å·İ":6744,"çĴĤ":6745,"ÏŃ":6746,"viation":6747,"é¯ĥ":6748,"åģĲ":6749,"è°¯":6750,"Query":6751,"ī":6752,"ĠWill":6753,"ANG":6754,"FRS":6755,"ÑĨÐ¸Ð¸":6756,"ĠCall":6757,"predict":6758,"âķ¤":6759,"æīĨ":6760,"à½Ŀ":6761,"æı§":6762,"é¦Ń":6763,"æĪĺå½¹":6764,"system":6765,"åº§è°Ī":6766,"ëŀ¬":6767,"éł»":6768,"ã´ª":6769,"æį¥":6770,"ðŁ¥ĺ":6771,"çĶĺ":6772,"äº§éĩı":6773,"observer":6774,"encies":6775,"ôı°ģ":6776,"æĦ¿ä½ł":6777,"orf":6778,"lm":6779,"Ġdual":6780,"å¹¶ä¸įæĺ¯":6781,"è¯¼":6782,"áĴĢ":6783,"åĩºç§Ł":6784,"outil":6785,"Ġartifact":6786,"Ġeax":6787,"èıŃ":6788,";|&":6789,"åĮºçļĦ":6790,"Ü¢":6791,"å®ŀéªĮ":6792,"ðĵģĩ":6793,"ä½¿":6794,"ArrayList":6795,"GLBINDING":6796,"åĽ¤":6797,"åĻ¢":6798,"è¿ĩåİ»äºĨ":6799,"å¸Į":6800,"èıħ":6801,"Ġma":6802,"å±ĩ":6803,"â²ı":6804,"bine":6805,"åİģ":6806,"ïİĽ":6807,"redito":6808,"ÐµÑģÑĤ":6809,"ðŁį£":6810,"è¿ĽæŃ¥":6811,"èįµ":6812,">${":6813,"ç£¥":6814,"è»Ļ":6815,"Important":6816,"åĤ¾":6817,"æĺ´":6818,"é¼Ń":6819,"æ´ģ":6820,"é«®":6821,"Ġarea":6822,"Ġ'./":6823,");</":6824,"æµł":6825,"ãĤ":6826,"aff":6827,"',`":6828,"ĠRo":6829,"éĹ»ç½ĳ":6830,"ãł°":6831,"æ¢¹":6832,"æ¨º":6833,"Zh":6834,"êĳ¼":6835,"OVE":6836,"Ġwhenever":6837,"teams":6838,"å£Ľ":6839,"ä¸įè¶ħ":6840,"Ë¨":6841,"îĮĭ":6842,"æłģ":6843,"åļ·":6844,"á¸ĵ":6845,"æ¯Ī":6846,"åŁĭ":6847,"áŁħ":6848,"Qo":6849,"é¹ľ":6850,"èĩªåªĴ":6851,"èĢ¡":6852,"ä£Ķ":6853,"åħ¨æĦŁ":6854,"Ġoptimized":6855,"\"}]}":6856,"æľĹè¯»":6857,"èĢĭ":6858,"accum":6859,"Attempt":6860,"Developer":6861,"èĿ±":6862,"èĹĿ":6863,"é¢Ł":6864,"åĪĨå¼Ģ":6865,"ç¦µ":6866,"è¿Ľåİ»":6867,"éį¡":6868,"çī¶":6869,"çłķ":6870,"estimator":6871,"èģĴ":6872,"Ġlists":6873,"îĤ±":6874,"Ã¶n":6875,"coverage":6876,"×ķ":6877,"î¡ĩ":6878,"æĮĵ":6879,"éĥ·":6880,"\">&#":6881,"ä¸ĩåĲ¨":6882,">\")":6883,"Initial":6884,"ïģĢ":6885,"é®İ":6886,"onz":6887,"ïĥª":6888,"Ġattachments":6889,"obile":6890,"dan":6891,"ãĸ¬":6892,"Ġcharts":6893,"Ġ(@":6894,"ê²Ģ":6895,"æ»ĥ":6896,"Ġpd":6897,"æĵħ":6898,"Ġgroups":6899,"ATURE":6900,"iprot":6901,"MEMORY":6902,"anies":6903,"è¢Ħ":6904,"JR":6905,"ÞĨ":6906,"ç¶´":6907,"å«´":6908,"ïħ¦":6909,"à¬ģ":6910,"'-":6911,"ĊĠĠĠĠĠĠĠĠĠĠĠĠĠĠĠĠĠĠĠĠĊĠĠĠĠĠĠĠĠĠĠĠĠĠĠĠĠĠĠĠ":6912,"ìĦ¼":6913,"uted":6914,"æľĳ":6915,"åģ»":6916,"ðĵĪĴ":6917,"åħ®":6918,"music":6919,"`?":6920,"áĪĥ":6921,"è½»è½»":6922,"Ġparam":6923,"ä¼łç»Ł":6924,"è²®":6925,"é¸¯":6926,"hir":6927,"ìŀ¤":6928,"ĠCont":6929,"èµ¡":6930,"kategori":6931,"ä¸īåįģ":6932,"çĶ¬":6933,"connect":6934,"åĵĴ":6935,"å¥±":6936,"gest":6937,"æĻºåķĨ":6938,"åħ¨æĸ¹ä½į":6939,"ä»Ļ":6940,"éĥĬ":6941,"Ġcommands":6942,"Excel":6943,"errors":6944,"Ġ{_":6945,"PRODUCT":6946,"ïĵİ":6947,"Ġtried":6948,"Ġasync":6949,"æĸĩç«ł":6950,"ëĶ±":6951,"Ġk":6952,"äį¦":6953,"åİŁæĸĩ":6954,"Ġdere":6955,"Ñ¶":6956,"é¢«":6957,"ĠUsing":6958,"ibration":6959,"ã§¢":6960,"éľħ":6961,"unordered":6962,"æıĮ":6963,"mo":6964,"CUR":6965,"eff":6966,"âļĿ":6967,"éĥħ":6968,"Ġqs":6969,"ãĳ°":6970,"Ġduration":6971,"achment":6972,"äĥº":6973,"ë²³":6974,"æ¡ª":6975,"îģĤ":6976,"Suppress":6977,"/{}":6978,"Ġ[.":6979,"ignored":6980,"áĪĪ":6981,"èĩķ":6982,"Ġrequested":6983,"ïģ¦":6984,"å²Ł":6985,"êĲĺ":6986,"Ġeffects":6987,"eep":6988,"èİ²":6989,"éĮ³":6990,"è¨¥":6991,"AIN":6992,"process":6993,"Sleep":6994,"ä½Ĥ":6995,"çļĦåģ¥":6996,"å¹ħåº¦":6997,"åº´":6998,"åľ°éĿ¢":6999,"áİ§":7000,"quivo":7001,"æŃ¦":7002,"ÂĲ":7003,"âĿĬ":7004,"éµ¢":7005,"Æĺ":7006,"îĺĸ":7007,"æĶ»çķ¥":7008,"ðŁĹ»":7009,"Ġaccurate":7010,"æŀľæĺ¯":7011,"ä±»":7012,"ç®©":7013,"æº±":7014,"æ··åĩĿ":7015,"Ġcurrency":7016,"triangle":7017,"å¼ºåĮĸ":7018,"é´ĳ":7019,"å¸Ĩ":7020,"åİ·":7021,"ðŁĶŃ":7022,"è¶Ĳ":7023,"qli":7024,"çĭŁ":7025,"ĠìĿ":7026,"ç²¼":7027,"share":7028,"æļ®":7029,"å¼ºçĥĪ":7030,"Ġnamespaces":7031,"åĪĽä¸ļ":7032,"ĶĦ":7033,"æºĤ":7034,"Ýľ":7035,"Ġaffected":7036,"çī±":7037,"ïģ¨":7038,"æĥĤ":7039,"ç¯Ĳ":7040,"éĽ¨":7041,"êĴĬ":7042,"oni":7043,"ç¹Ĭ":7044,"å°±éľĢè¦ģ":7045,"ĠTeam":7046,"************************************************":7047,"éĸ²":7048,"feedback":7049,"Men":7050,"è»Ĭ":7051,"ddd":7052,"å»ĥ":7053,"å¤½":7054,"Ġ/.":7055,"îªĬ":7056,"å¢ļ":7057,"ĠBASE":7058,"æ¸©æŁĶ":7059,"âĽ¹":7060,"urity":7061,"xcd":7062,"ĠControl":7063,"ipynb":7064,"èĤ£":7065,"Þĩ":7066,"Ġauthorized":7067,"àµĽ":7068,"ç¼Ĵ":7069,"MSG":7070,"deviceId":7071,"Ġinformation":7072,"ĠFOR":7073,"ë°«":7074,"á´ļ":7075,"Latitude":7076,"ormap":7077,"áº§":7078,"($_":7079,"Ur":7080,"éį²":7081,"êĶ·":7082,"å£ĸ":7083,"à¤²":7084,"áīĤ":7085,"åĢĸ":7086,"å·±":7087,"à²ī":7088,"èĩĭ":7089,"åĻĻ":7090,"braz":7091,"åİµ":7092,"Constraint":7093,"Ġepisode":7094,"æ¶¨":7095,"ç³»åĪĹ":7096,"ïģĦ":7097,"æĢ£":7098,"Ù¢":7099,"ðŁĸĮ":7100,"coder":7101,"ĠĠĠĠĠĠĠĠĠĠĠĠĠĠĠĠĠĠĠĠĠĠĠĠ":7102,"ĠTarget":7103,"obot":7104,"GPIO":7105,"ĠWhite":7106,"èģ¤":7107,"ïĲį":7108,"å¯ĵ":7109,"êĬ¨":7110,"ë¡Ń":7111,"çŁĶ":7112,"Ġdescribe":7113,"æĥĬåĸľ":7114,"é»ĺè®¤":7115,"çĻĢ":7116,"Ġrepresentation":7117,"é¬ķ":7118,"ðŁĲ¶":7119,"pem":7120,"HTTP":7121,"See":7122,"EXISTS":7123,"List":7124,"çĮ³":7125,"çĦ¶åĲİ":7126,"ĊĠĠĠĠĠĠĠĠĠĠĠĠĊĠĠĠĠĠĠĠĠĠĠĠ":7127,"é°µ":7128,"Ġcre":7129,"Dimension":7130,"èĺĻ":7131,"ĠÐ¿Ð¾Ð´":7132,"éĹĽ":7133,"ï¸":7134,"ue":7135,"é½´":7136,"éĿ¢å¯¹":7137,"Ġinfinite":7138,"äļ§":7139,"ïĢĦ":7140,"çªģåıĳ":7141,"Root":7142,"ifer":7143,"ðŁ¤Ł":7144,"èĳĦ":7145,"à°Ĭ":7146,"GENER":7147,"pyplot":7148,"â»Ķ":7149,"æ£Ĵ":7150,"SQLException":7151,"âĪ¿":7152,"xcb":7153,"à·Ĭ":7154,"çºģ":7155,"å¸¿":7156,"ðŁĹĥ":7157,"lete":7158,"Sheet":7159,"formula":7160,"Õ³":7161,"row":7162,"è²¯":7163,"ìĦŀ":7164,"éıı":7165,"Ġ(.":7166,"ðŁįľ":7167,"îĢĳ":7168,"éĬ±":7169,"éĢĶä¸Ń":7170,"='#":7171,"Tube":7172,"ĊĠĠĠĠĠĠĠĠĠĠĠĠĠĠĠĠĠĠĠĠĠĠĠĠĠĠĠĠĠĠĠĠĠ":7173,"unter":7174,"ategies":7175,"ð¨":7176,"Not":7177,"å³ŀ":7178,"Ġclean":7179,"NodeType":7180,"æĽĳ":7181,"åįĹ":7182,"è®¡":7183,"è¶£åĳ³":7184,"ä¸¤ç§į":7185,"çļĦè´£ä»»":7186,"Union":7187,"çĵļ":7188,"xxx":7189,"ê¯£":7190,"çĬĹ":7191,"Targets":7192,"ĠHome":7193,"áĲ":7194,"èµĵ":7195,"åº£":7196,"æļı":7197,"lie":7198,"ĠWarning":7199,"]|":7200,"ä´Ŀ":7201,"æĭįæĳĦ":7202,"ivari":7203,"Ê§":7204,"Ġneed":7205,"çİĺ":7206,"DOCUMENT":7207,"ä¼Ĭ":7208,"çĶĥ":7209,"Fragment":7210,"SPACING":7211,"è±ĳ":7212,"EXTERNALSYM":7213,"àª¤":7214,"structured":7215,"éĿĴæµ·":7216,"åĶĥ":7217,"Allocate":7218,"âĥł":7219,"áĬĸ":7220,"Time":7221,"æļĤæĹ¶":7222,"êĿļ":7223,"æĨī":7224,"ê«Ģ":7225,"ĠPub":7226,"ð¬ľ¯":7227,"à¬Ħ":7228,"åį±":7229,"æīĵå·¥":7230,"çīĪ":7231,"FD":7232,"å»ºç«ĭ":7233,"Addon":7234,"âĿĭ":7235,"ì´Į":7236,"å½¹":7237,"è¥¸":7238,"è·½":7239,"æ³ī":7240,"oan":7241,"åľ¨ä½ł":7242,"ORDER":7243,"è¸ĸ":7244,"éĪ»":7245,"î®ł":7246,"åĪ«äºº":7247,"à°µ":7248,"lobal":7249,"UEST":7250,"stat":7251,"ôĢ³ĩ":7252,"çĺģ":7253,"áī¼":7254,"Ġ<:":7255,"è¿ĺéľĢ":7256,"DOCS":7257,"plain":7258,"å¯ĺ":7259,"çº¼":7260,"çĹµ":7261,"æ£«":7262,"æĦ®":7263,"Spy":7264,"Ġcorrespond":7265,"èľ½":7266,"éĿĦ":7267,"èĥ¯":7268,"ã¼":7269,"èĽĿ":7270,"äĳĶ":7271,"å²ĩ":7272,"Ġdescriptions":7273,"ç¾·":7274,"Ġrest":7275,"çĸĢ":7276,"éĢ":7277,"Ġ\".$":7278,"ullet":7279,"BB":7280,"é¹Ĭ":7281,"ZEND":7282,"SetName":7283,"Ġ×ĳ":7284,"Reser":7285,"cor":7286,"versation":7287,"êħ¿":7288,"Ġow":7289,"çŁĤ":7290,"Ġmsg":7291,"riteria":7292,"ç¾ĩ":7293,"ä¾¨":7294,"Ġexperi":7295,"ë³Ħ":7296,"åªĨ":7297,"ĊĠĠĠĊĠĠ":7298,"æµ¯":7299,"å¦Į":7300,"ĠâĤ¬":7301,"ĊĉĉĠĠĠĠĠ":7302,"ä½łçļĦ":7303,"third":7304,"Ġfocused":7305,"SC":7306,"å¸Ľ":7307,"ãļµ":7308,"cnt":7309,"âĻĹ":7310,"áłĮ":7311,"æĥħå½¢":7312,"åħ³":7313,"Ġcoord":7314,"sWith":7315,"å¤ĩå¥½":7316,"DAC":7317,"Coded":7318,"ãŀ¹":7319,"å¨±ä¹ĲåľĪ":7320,"ÚĲ":7321,"official":7322,"âµ¦":7323,"éī¾":7324,"Ġproper":7325,"à¤Ĳ":7326,"ê¯©":7327,"isateur":7328,"osx":7329,"ĠConstant":7330,"åįķèº«":7331,"îĨ¬":7332,"çĿı":7333,"Ġpositive":7334,"cing":7335,"è¶ı":7336,"ĠConnection":7337,"åłı":7338,"CORRECT":7339,"à¤ķ":7340,"å»Ļ":7341,"çŁĩ":7342,"è¥Ħ":7343,"Ġ'</":7344,"èĶı":7345,"multip":7346,"çĢĮ":7347,"ïĤĥ":7348,"nÃŃ":7349,"ej":7350,"ä»£è¡¨":7351,"é¨ĺ":7352,"gamma":7353,"oma":7354,"CACHE":7355,"ó¾ĵŃ":7356,"ĠImp":7357,"comm":7358,"æ£ļ":7359,"ain":7360,"æ³º":7361,"è®©æĪĳ":7362,"å¿ŀ":7363,"AMD":7364,"éĹ¸":7365,"Ġcompil":7366,"áĢ´":7367,"Ġparents":7368,"çīĵ":7369,"Ûķ":7370,"å´Ń":7371,"å¾Ģä¸ĭ":7372,"åĤĢ":7373,"é¡¾":7374,"å±º":7375,"æĿ¿åĿĹ":7376,"voices":7377,"Brush":7378,"ç£Ĥ":7379,"Vertex":7380,"æ¨¡ç³Ĭ":7381,"éĽħæĢĿ":7382,"mission":7383,"é£µ":7384,"ïİĤ":7385,"çŀ±":7386,"å¾¿":7387,"vez":7388,"îŀ§":7389,"å°Ĳ":7390,"á¸ĳ":7391,"yped":7392,"íĻ§":7393,"ango":7394,"Ġ\\\"\"":7395,"âĬĬ":7396,"å¤ĸçļĦ":7397,"ä¸Īå¤«":7398,"OPEN":7399,"ÑĤ":7400,"Search":7401,"Ãº":7402,"å¢³":7403,"ïı¢":7404,"ïĢ£":7405,"ÐµÑĩ":7406,"î¦µ":7407,"ðŁķµ":7408,"æķ°çļĦ":7409,"ä¼°è®¡":7410,"datepicker":7411,"ãģĭ":7412,"Ġcsv":7413,"Ell":7414,"Þ±":7415,"ðŁª¦":7416,"ðĵĢ¤":7417,"æ¨¡æĭŁ":7418,"æ³ĵ":7419,"â¨Ģ":7420,"Ġcd":7421,"Ġ~/":7422,"îĺĭ":7423,"ICATION":7424,"Ġsorry":7425,"ĠPolygon":7426,"éĪļ":7427,"blockList":7428,"ç®±":7429,"ĠHow":7430,"***":7431,"slash":7432,"á´§":7433,"åļĸ":7434,"åĺļ":7435,"ĠOper":7436,"éĩ²":7437,"SCO":7438,"RENDER":7439,"bazel":7440,"Ġrestrictions":7441,"Ġíķľ":7442,"åĬ±":7443,"æ°ĳèŃ¦":7444,"cluding":7445,"imit":7446,"Privacy":7447,"âĨķ":7448,"å®¥":7449,"åĥŃ":7450,"inputs":7451,"Ly":7452,"Ġ&$":7453,"Ġë³Ģ":7454,"Ġig":7455,"âĪ":7456,"âĨ©":7457,"áİ©":7458,"x":7459,"æ£½":7460,"Wave":7461,"à²¿":7462,"čĊĠĠĠĠĠĠĠĠĠĠĠĠĠĠĠĠĠĠĠĠĠĠĠĠĠĠĠĠĠĠĠĠĠĠĠĠĠĠĠ":7463,"çĵĶ":7464,"ì§ĵ":7465,"ĠAX":7466,"Mul":7467,"èįİ":7468,"éĢļè¿ĩ":7469,"Ġfname":7470,"Ġhon":7471,"è¯ļä¿¡":7472,"Overlay":7473,"Interfaces":7474,"æ¸Ĥ":7475,"Ġlifetime":7476,"éį¸":7477,"ĠMonad":7478,"íĮľ":7479,"ãļ¼":7480,"éķ¼":7481,"Ð´Ñĥ":7482,"thedocs":7483,"×©":7484,"ĠMetrics":7485,"Del":7486,"ComponentModel":7487,"Ġdisp":7488,"Lite":7489,"Ġdependent":7490,"æ«·":7491,"é§¡":7492,"âŁ®":7493,"æ¾¸":7494,",-":7495,"End":7496,"è³ĵ":7497,"éĽ°":7498,"Ġtakes":7499,"è¿Ĳä½ľ":7500,"á¸ĭ":7501,"ðŁĽİ":7502,"ðŁļ¢":7503,"åļĢ":7504,"åĶĶ":7505,"ä¸Ńæľī":7506,"ðŁŁ¨":7507,"shares":7508,"æµģç¨ĭ":7509,"ogg":7510,"apt":7511,"*;":7512,"Ġfigure":7513,"å¡":7514,"âĿį":7515,"Ġcoefficient":7516,"ä°Ł":7517,"éįĤ":7518,"çĨī":7519,"íĬ¼":7520,"ä¿®è®¢":7521,"interfaces":7522,"remove":7523,"Ġsupports":7524,"ĠProtocol":7525,"FATAL":7526,"ĠWIT":7527,"Ġ/>":7528,"NullPointerException":7529,"æµľ":7530,"Ġchart":7531,"som":7532,"å«¸":7533,"jac":7534,"áķ":7535,"åĢ¸":7536,"èĲ¥éĶĢ":7537,"âĻı":7538,"repo":7539,"Ġdoing":7540,"Ġcosts":7541,"ðŁıĮ":7542,"æĮį":7543,"çĺĵ":7544,"ðŁĮ¥":7545,"ä¸Ģç¾¤":7546,"ĠÑĦÐ°Ð¹":7547,"Ġ},":7548,"çľĭåĪ°":7549,"ã§¯":7550,"è¦İ":7551,"Ġtypes":7552,"çĹ»":7553,"à³ª":7554,"èĿ¬":7555,"àŃĢ":7556,"åĪĽä½ľ":7557,"asÄ±":7558,"âĭĹ":7559,"éĩİçĶŁ":7560,"çļĦè®¾è®¡":7561,"ã§¾":7562,"è°ĵçļĦ":7563,"steps":7564,"êı¿":7565,"èĺĶ":7566,"julia":7567,"ïĦº":7568,"Ġprincip":7569,"Ë®":7570,"èĮ©":7571,"è·¯è¾¹":7572,"tos":7573,"è³ģ":7574,"pickle":7575,"èĵ¥":7576,"ãĹĤ":7577,"âĶĲ":7578,"âľ£":7579,"æ¯ķä¸ļäºİ":7580,"èµ©":7581,"ritical":7582,"Þ®":7583,"ĠMobile":7584,"é£¹":7585,"Cent":7586,"Ġiss":7587,"ïĢ¼":7588,"scribed":7589,"ische":7590,"æ¢":7591,"~/":7592,"å¨Ķ":7593,"ĠHeaders":7594,"Fire":7595,"Ġto":7596,"ä¸»è¦ģ":7597,"åĬ®":7598,"áįĢ":7599,"Ġneighbor":7600,"ĠÐ¸Ð½":7601,"ess":7602,"å¤©èĿİ":7603,"æ¤ī":7604,"éĺ²æ±Ľ":7605,"æ¤§":7606,"buff":7607,"==========":7608,"Ġgot":7609,"ĠdÃ©":7610,"Ġ\"*":7611,"èĮ¨":7612,"ÄŁer":7613,"ì½Ķ":7614,"EventHandler":7615,"Ġmedium":7616,"çļĦå®ī":7617,"èĶ¶":7618,"ç·¸":7619,"contains":7620,"Ġbooks":7621,"ç£»":7622,"ç½ħ":7623,"èµ·åĪ°":7624,"åŁ¥":7625,"readLine":7626,"éĻ¸":7627,"Ġ\"[":7628,"ãĥħ":7629,"äºĨåĩł":7630,"é¦ľ":7631,"ĠStudio":7632,"âŃ£":7633,"Ġcod":7634,"ĠShell":7635,"Ó²":7636,"èµĦæºĲ":7637,"à¦£":7638,"çħ¾":7639,"å³°":7640,"ĠDefault":7641,"Ġir":7642,"Ġremains":7643,"hal":7644,"open":7645,"îģ´":7646,"Ġsublic":7647,"ïĢı":7648,"irv":7649,"Ġenforce":7650,"æŃĸ":7651,"áªĭ":7652,"éĮ´":7653,"ila":7654,"ëĬĺ":7655,"ĠExtra":7656,"á½ĥ":7657,"Ġinvocation":7658,"ĠAV":7659,"Ġcri":7660,"Ġkann":7661,"ãĥĬ":7662,"å¨·":7663,"å¹ĭ":7664,"isease":7665,"æģ«":7666,"éĿĸ":7667,"à²¼":7668,"áĳ°":7669,"ĠjustifyContent":7670,"Props":7671,"åĥł":7672,"åģ²":7673,"åĨµ":7674,"Ġregexp":7675,"æĹ·":7676,"èµ¥":7677,"å¹Į":7678,"îªĹ":7679,"î²Ĳ":7680,"_[":7681,"Ýµ":7682,"åĩĮ":7683,"Turn":7684,"éĲ¼":7685,"ðŁıħ":7686,"çĳ¾":7687,"èĪľ":7688,"itch":7689,"ļ":7690,"ãģĳ":7691,"æĵĽ":7692,"èĿ³":7693,"parallel":7694,"æķ´æ²»":7695,"relu":7696,"åľ¨æĪĳ":7697,"Ġnz":7698,"é¤Ĭ":7699,"ìĸ¹":7700,"ç»±":7701,"Ġ\".\"":7702,"aspx":7703,"ãĤı":7704,"å»«":7705,"yout":7706,"è·Łéļı":7707,"êŀį":7708,"Ġanymore":7709,"Playing":7710,"æĦ¯":7711,"éī³":7712,"ãĥ¯":7713,"ìĶ¹":7714,"ïĺĪ":7715,"Init":7716,"æĭįçħ§":7717,"rict":7718,"åĿĲ":7719,"îĻħ":7720,"BY":7721,"äºĨä»ĸ":7722,"åĦ¦":7723,"ä¸įæķ¢":7724,"åīŃ":7725,"é»":7726,"âĹ·":7727,"Aware":7728,"çĺĶ":7729,"Allow":7730,"îĪĴ":7731,"æĦŁ":7732,"åĦĻ":7733,"åĶĽ":7734,"++)":7735,"Ġsigning":7736,"éļ¾ä»¥":7737,"StatusCode":7738,"ä¸ĵè¾ĳ":7739,"æĻ®éĢļ":7740,"EXTERNAL":7741,"usb":7742,"dirs":7743,"åĮĸçļĦ":7744,"jure":7745,"als":7746,"ç±Ń":7747,"â«":7748,"ïģ¬":7749,"èŀº":7750,"èĢĺ":7751,"æģ¸":7752,"ĠDiv":7753,"ĠPRIMARY":7754,"larÄ±":7755,"èĢģå©Ĩ":7756,"èºĤ":7757,"á¼¼":7758,"çģŃ":7759,"áİ«":7760,"æŃ¤å¤ĸ":7761,"éļ®":7762,"å»ŀ":7763,"åĴ³åĹ½":7764,"è¤ĳ":7765,"éªĢ":7766,"è¸·":7767,"éĩ±":7768,"æ°ĳäºĭ":7769,"Ġmaximum":7770,"Ġplayed":7771,"æ°":7772,"ĠHE":7773,"Ġundef":7774,"analyzer":7775,"mov":7776,"á³":7777,"Ġpersist":7778,"endar":7779,"------------":7780,"èĦĬ":7781,"Úĵ":7782,"éķ¡":7783,"èĿĹ":7784,"YP":7785,"åī¬":7786,"áŀĵ":7787,"áĲ¯":7788,"éĽ¶åĶ®":7789,"Ġç¬¬äºĮ":7790,"ĠEMPTY":7791,"ĠGood":7792,"Bean":7793,"Ġundo":7794,"à½§":7795,"äĨ":7796,"è±ī":7797,"çºłçº·":7798,"å¹Ĳ":7799,"ç¸¨":7800,"ç³¦":7801,"âĨľ":7802,"äŁķ":7803,"čĊĠĠĠĠĠĠĠĠĠĠĠĠĠĠĠĠĠĠĠĠ":7804,"Wind":7805,"âŀ±":7806,"æ®¶":7807,"âı©":7808,"åīĥ":7809,"ä¸ľè·¯":7810,"ĠĠĊ":7811,"åĸģ":7812,"æ¶¿":7813,"éĤķ":7814,"tomcat":7815,"Ġbits":7816,"liberty":7817,"èıı":7818,"ĠInfo":7819,"atars":7820,"Ġdiscard":7821,"â¤¬":7822,"å¢«":7823,"èĩ¼":7824,"ó±Ĳ":7825,"Öı":7826,"ð¤ĭ":7827,"UML":7828,"åĶħ":7829,"Ġvalidator":7830,"Ġseries":7831,"äĲ¢":7832,"ä¸įåĸľ":7833,"Sub":7834,"àº·":7835,"Ġapproval":7836,"********":7837,"å£¢":7838,"ç»»":7839,"ãµ":7840,"æ»Ģ":7841,"âĻĬ":7842,"Grad":7843,"near":7844,"ïĻĬ":7845,"åļĤ":7846,"ect":7847,"Flag":7848,"ê·Ħ":7849,"äºĨä¸ª":7850,"êĬ·":7851,"åı¿":7852,"åľ°çĲĥ":7853,"çĩĺ":7854,"è´Ŀ":7855,"Ġbullet":7856,"veis":7857,"è½¬è½½":7858,"çı³":7859,"è´¯å½»":7860,"oys":7861,"ìĹĺ":7862,"ĠÂ£":7863,"èĹ¿":7864,"coordinates":7865,"â£¿":7866,"Sent":7867,"ä¼ĬæľĹ":7868,"her":7869,"æļį":7870,"ìĩ":7871,"cko":7872,"&&":7873,"ä¸ºæĪĳä»¬":7874,".(":7875,"éĦ®":7876,"ĠFrank":7877,"ïİ¶":7878,"á¿ł":7879,"ãģģ":7880,"åħĸ":7881,"é£¬":7882,"(\"^":7883,"èªĹ":7884,"íĻĪ":7885,"rig":7886,"áħ²":7887,"Ġresol":7888,"æĹİ":7889,"æ¸ģ":7890,"part":7891,"Ġadmin":7892,"æĵª":7893,"æİµ":7894,"âĭĬ":7895,"æĮ¿":7896,"chant":7897,"Ġbreaking":7898,"å®¹":7899,"æĤ«":7900,"èĭħ":7901,"å®īå¸Ĥ":7902,"zier":7903,"æĬŀ":7904,"áĻ®":7905,"çłĶè®¨":7906,"ÞĢ":7907,"Ġwave":7908,"AS":7909,"äºĮæīĭ":7910,"Ġag":7911,"]].":7912,"Æ½":7913,"ÖĢ":7914,"true":7915,"ôı°Ĥ":7916,"ka":7917,"íĥĳ":7918,"txt":7919,"ĠÃ¶":7920,"æīĢæľīçļĦ":7921,"âĺº":7922,"è©¡":7923,"ĊĠĠĉ":7924,"æ¹Ŀ":7925,"éŃħ":7926,"èª¿":7927,"ÆŁ":7928,"Ġtrouble":7929,"ä»¶":7930,"çłŁ":7931,"éħįæĸ¹":7932,"ç¥Ŀ":7933,"ÐµÑĢÐ¶":7934,"éĻ§":7935,"æĤ¶":7936,"ç¨¶":7937,"ajor":7938,"Stopped":7939,"ç§ĳå®¤":7940,"äĤĵ":7941,"çĩģ":7942,"å¤ĸéĿ¢":7943,"âĩº":7944,"make":7945,"Ġtexture":7946,"æ¨ĸ":7947,"èĬ¼":7948,"ä¿Ŀåģ¥":7949,"FromString":7950,"rup":7951,"ç»©æķĪ":7952,"ĠKr":7953,"äĲ":7954,"ïĺĶ":7955,"ĠNZ":7956,"å¼ĢéĢļ":7957,"æįĤ":7958,"Ġ'\\'":7959,"èĳ¬":7960,"ĠÐµ":7961,"è¯¡":7962,"ATIVE":7963,"HttpClient":7964,"pay":7965,"ĠExplorer":7966,"ç¨":7967,"Lower":7968,"Ġas":7969,"å¿ħé¡»":7970,"ëĮķ":7971,"ĠLo":7972,"ari":7973,"çĤĮ":7974,"ëĸ":7975,"çŁ¥éģĵ":7976,"ives":7977,"à½¿":7978,"ĠJr":7979,"Ġ\"'":7980,"ä»Ģ":7981,"é¥®é£Ł":7982,"çŁģ":7983,"Ġtamb":7984,"éĿº":7985,"èĲ½åĲİ":7986,"Sep":7987,"kp":7988,"æĵ¨":7989,"graphql":7990,"æĻĶ":7991,"èĮł":7992,"ished":7993,"ç¦º":7994,"é¬ª":7995,"ç½Ķ":7996,"!'":7997,"Wlan":7998,"Func":7999,"ðŁħķ":8000,"Ïĥ":8001,"rsa":8002,"ä¼¥":8003,"ç¡Ĵ":8004,"çĶ¸":8005,"æģ¶æĢ§":8006,"JC":8007,"ä¸ĩäºĭ":8008,"gis":8009,"birth":8010,"ç¶Ĳ":8011,"ç¦ľ":8012,"à±ĵ":8013,"ipv":8014,"ĠForward":8015,"Å¢":8016,"è¶ĩ":8017,"å®Ĩ":8018,"Ýħ":8019,"á¼¸":8020,"é½¤":8021,"è¾¥":8022,"SAME":8023,"éĽĥ":8024,"î¤Ŀ":8025,"éŃĻ":8026,"áī":8027,"åıĭä»¬":8028,"ç¦ıçļĦ":8029,"Ġtier":8030,"çĳĺ":8031,"êĤª":8032,"Ġbenchmark":8033,"infrastructure":8034,"xampp":8035,"çºª":8036,"ç°´":8037,"ora":8038,"èİ´":8039,"èħ£":8040,"à¦Ł":8041,"fraction":8042,"CRE":8043,"Ġconnect":8044,"Ġintent":8045,"ĠScheduler":8046,"Ġnoise":8047,"ë¯":8048,"âĻŃ":8049,"ĠCAP":8050,"èĬĿéº»":8051,"Ġquest":8052,"æĭīå¼Ģ":8053,"îŁ":8054,"é¦ĸåıĳ":8055,"ĠTENT":8056,"æĤ´":8057,"ĠPaint":8058,"èĲ«":8059,"ä¸Ĭè¯¾":8060,"prec":8061,"ç¤Ĭ":8062,"oin":8063,"Ġoriginally":8064,"Mer":8065,"Macro":8066,"ì«Ħ":8067,"Ġtxt":8068,"äº½":8069,"ä¸įçĿĢ":8070,"Ġperson":8071,"(\"/":8072,"æĺ¯åı¯":8073,"xffffffff":8074,"è¾Ĭ":8075,"çĲ»":8076,"åį°ä»¶":8077,"ä¸¸":8078,"ØĹ":8079,"è¾§":8080,"Node":8081,"å¬¾":8082,"è¶¡":8083,"êİ¬":8084,"liance":8085,"å¶ĸ":8086,"stash":8087,"Refs":8088,"ĠReflection":8089,"ĠChanged":8090,"æķ¬è¯·":8091,"çĬ¹è±«":8092,"âĶĤ":8093,"îŁ»":8094,"unit":8095,"èļĻ":8096,"áĹķ":8097,"à¥ģ":8098,"ĠResolve":8099,"æ³¡":8100,"æĭ¼":8101,"çľŁå®ŀæĢ§":8102,"å½±åĵį":8103,"ìŀĶ":8104,"Truncated":8105,"Ã¼n":8106,"éħ¼":8107,"åħ±":8108,"à®¾":8109,"Ġsal":8110,"flags":8111,"ãĤ§":8112,"quip":8113,"imm":8114,"èĺ¶":8115,"iom":8116,"ANE":8117,"LARGE":8118,"Ġline":8119,"(%":8120,"enden":8121,"ïĤĽ":8122,"ïĢ°":8123,"ÕĤ":8124,"aes":8125,"â¦µ":8126,"èĮĥåĽ´åĨħ":8127,"íķĺê¸°":8128,"å¡¢":8129,"Ġforma":8130,"Ġay":8131,"Ġeinem":8132,"îĳĲ":8133,"ĠOs":8134,"å»¸":8135,"scores":8136,"ĠInstitute":8137,"`]":8138,"openid":8139,"Ë»":8140,"à´Ń":8141,"èİī":8142,"CEO":8143,"æĹħæ¸¸":8144,"Ġtimeout":8145,"ïĦ°":8146,"Sat":8147,"zt":8148,"çļĦè·¯":8149,"iten":8150,"îĲ¾":8151,"orage":8152,"â«¸":8153,"è¬Ħ":8154,"ä¸Ģä¼ļ":8155,"exclude":8156,"ç½Ģ":8157,"ç¼ºçĤ¹":8158,"achin":8159,"ÎĲ":8160,"ĠÌģs":8161,"DOUBLE":8162,"à·µ":8163,"bor":8164,"êĪĪ":8165,"tsd":8166,"DetalleFacturaProveedor":8167,"derr":8168,"ç½Ĭ":8169,"ìľĻ":8170,"ãģ¦":8171,"ðŁ¥£":8172,"ðŁª´":8173,"ß":8174,"ground":8175,"èĪ³":8176,"éĽĪ":8177,"ïįº":8178,"touch":8179,"ç¡¬ä»¶":8180,"Altern":8181,"åĮı":8182,"Safe":8183,"NESS":8184,"UN":8185,"blog":8186,"istence":8187,"HEADER":8188,"ðŁĲĩ":8189,"ĠWidget":8190,"éŁ¢":8191,"é¤ł":8192,",âĢĻ":8193,"èħ¹éĥ¨":8194,"FLOW":8195,"ĠParameter":8196,"å¹Ī":8197,"Router":8198,"ĠSpr":8199,"áĪĬ":8200,"æ¬³":8201,"ä¼µ":8202,"ëĲĲ":8203,"íģĺ":8204,"çµĩ":8205,"è¦ģåıĬ":8206,"ì²Ł":8207,"Ġrepl":8208,"Pitch":8209,"Ġå¤§":8210,"Music":8211,"íĻľ":8212,"hs":8213,"ç¢¦":8214,"ĠĠĠĠĠĠĠĠĠĠĠ":8215,"Ì²":8216,"Ġdeep":8217,"ä»£è°¢":8218,"îĢ½":8219,"åĪĨäº«":8220,"æĦĿ":8221,"å®ŀæĪĺ":8222,"Ġpkt":8223,"êİĸ":8224,"åĨ¦":8225,"ĠAl":8226,"éĦį":8227,"ĠDepartment":8228,"æĮİ":8229,"çŃĸçķ¥":8230,"äıļ":8231,"getTarget":8232,"lings":8233,"ìļ¸":8234,"ÔĦ":8235,"çĥ©":8236,"å©Ĩ":8237,"äº¬ä¸ľ":8238,"èºħ":8239,"è¡¬":8240,"çļ¬":8241,"Contacts":8242,"GER":8243,"ĠĠĠĠĠĠĠĠĊĠĠĠĠĠĠĠ":8244,"à«ģ":8245,"),":8246,"íĻ©":8247,"Attach":8248,"é¤¶":8249,"Ġpers":8250,"parsed":8251,"åĥķ":8252,"Ordinal":8253,"Ġaffiliates":8254,"é¬´":8255,"Ġscopes":8256,"backslash":8257,"è°¬":8258,"æĶ¯æĮģ":8259,"Upgrade":8260,"Ġrealm":8261,"íĮ°":8262,"Ġcombo":8263,"asInstanceOf":8264,"ĠVoid":8265,"GetType":8266,"IntPtr":8267,"ĠÐ¼":8268,"QUEUE":8269,"LineNumber":8270,"åħ³éĶ®è¯į":8271,"EMPTY":8272,"getX":8273,"à·ļ":8274,"åĤĹ":8275,"Ġextends":8276,"ðŁĺº":8277,"ãĦļ":8278,"äº²äºº":8279,"opc":8280,"Ġíķ":8281,"é¢°":8282,"Ġvolupt":8283,"é°¦":8284,"IAN":8285,"Mail":8286,"åĺ£":8287,"çĤ¹åįĬ":8288,"notebook":8289,"Ġbur":8290,"åĴķ":8291,"-{":8292,"æº§":8293,"Ajax":8294,"êľĤ":8295,"åĶ®":8296,".\")":8297,"á¸ĸ":8298,"shader":8299,"çľģèĢĥ":8300,"éĤİ":8301,"îĸ¡":8302,"Ġpolicy":8303,"æĪ¿äº§":8304,"Ġstill":8305,"åĮĸè§£":8306,"éĢĩ":8307,"rt":8308,"âĶ¯":8309,"ç´ĸ":8310,"setUp":8311,"caret":8312,"à±®":8313,"à®ĩ":8314,"Ġrotation":8315,"Ġlbl":8316,"åĳĦ":8317,"â¬¡":8318,"outer":8319,"Php":8320,"æł¹æį®":8321,"âķ«":8322,"âĸ²":8323,"ĠRh":8324,"áµİ":8325,"here":8326,"ĠRedirect":8327,"components":8328,"ã©Ļ":8329,"éķĵ":8330,"Ġ`${":8331,"á·¿":8332,"æĨŁ":8333,"é»¯":8334,"æŁ²":8335,"éĳĹ":8336,"ïĥ²":8337,"ĠHorizontal":8338,"é³ī":8339,"Bg":8340,"çĶ§":8341,"é¼ĳ":8342,"é¡":8343,"referred":8344,"æĤī":8345,"é±½":8346,"Ġco":8347,"åĽ¾":8348,"ĠparseFloat":8349,"æĵ©":8350,"ë¹ł":8351,"éĻĴ":8352,"tion":8353,"rier":8354,"Ġaê":8355,"áĹ":8356,"ĠAssembly":8357,"ð¢Ń":8358,"èĬ¹":8359,"èĢ³æľµ":8360,"ì²´":8361,"ĠGod":8362,"ä¼Ĺ":8363,"æĦŁåıĹåĪ°":8364,"æ¸®":8365,"æªĺ":8366,"ç§´":8367,"Ú¨":8368,"Bh":8369,"ðŁħĿ":8370,"Ġvar":8371,"áĥĻ":8372,"éĹ¨ç¥¨":8373,"â²ł":8374,"åµ¾":8375,"Ġinvoke":8376,"éģ®":8377,"å¹±":8378,"CONF":8379,"Ġ<%":8380,"ĠLN":8381,"îłĤ":8382,"âĨ¤":8383,"çļĦé«ĺ":8384,"ĠCalling":8385,"alyt":8386,"ĠNet":8387,"Ġresidual":8388,"``":8389,"ëĬĻ":8390,"Parser":8391,"functions":8392,"åĽĤ":8393,"èĻ¤":8394,"è£ª":8395,"çķħéĢļ":8396,"áĵĢ":8397,"åĲĦçº§":8398,"Simple":8399,"ĠIssues":8400,"Ġgoto":8401,"é¾ŀ":8402,"æĵ¦":8403,"Ġfamiliar":8404,"åĨľæĿĳ":8405,"èĥ¬":8406,"Good":8407,"Ġ:":8408,"èµŃ":8409,"æ®İ":8410,"é¡½":8411,"...\",":8412,"ç»ıè¿ĩ":8413,"Used":8414,"çŃĢ":8415,"elo":8416,"éĤ»":8417,"î³ª":8418,"êĪĬ":8419,"ĠImplement":8420,"Poll":8421,"æĢĢåŃķ":8422,"ç¥Ħ":8423,"ê³¡":8424,"ĠSC":8425,"RegExp":8426,"ĠM":8427,"ÍŃ":8428,"çµĥ":8429,"æĦ¸":8430,"Ġqt":8431,"éĳİ":8432,"æŃ¾":8433,"ä³Ĵ":8434,"ØŁ":8435,"ã«©":8436,"æ¶Īæ¯Ĵ":8437,"å±ł":8438,"He":8439,"åĢ½":8440,"çļĦåŁº":8441,"ä¸ºä¸Ńå¿ĥ":8442,"Spect":8443,"çģ¥":8444,"ä¹°åįĸ":8445,"îĿ¥":8446,"ĊĊĊĉ":8447,"Ġ',":8448,"çĥŁ":8449,"èĹ°":8450,"æ°Ĵ":8451,"ç£ĥ":8452,"ßº":8453,"é¡¹":8454,"ä½įçļĦ":8455,"åįļ":8456,"ðŁįı":8457,"æĿĲè´¨":8458,"è·¯åı£":8459,"mathbb":8460,"ðĳĲ¥":8461,"Ġcron":8462,"êĪį":8463,"èŃ¦å¯Ł":8464,"æ¡İ":8465,"Å¡":8466,"åī»":8467,"\"/":8468,"è©ļ":8469,"è¿ĲçĶ¨":8470,"å½¾":8471,"åĥį":8472,"ä½±":8473,"Ġsol":8474,"âĬ¢":8475,"deserialize":8476,"å¦Ķ":8477,"je":8478,"Ġsupp":8479,"ĠNov":8480,"éĤµ":8481,"æ´»çĿĢ":8482,"å«Ī":8483,"îĵ°":8484,"è¦Ĥ":8485,"ðŁĺļ":8486,"å±Ĭåħ¨åĽ½":8487,"èŁ³":8488,"àłµ":8489,"æĵ·":8490,"ĠSec":8491,"åľ°åĮºçļĦ":8492,"æĲĳ":8493,"Ġwith":8494,"ä¸ĢåĪĨ":8495,"TOT":8496,"é¥Ĭ":8497,"Ġseem":8498,"æĥ¾":8499,"è§Ń":8500,"çĸ¼":8501,"ôĢĨ³":8502,"oop":8503,"Retrieve":8504,"ïĨĶ":8505,"languages":8506,"è£į":8507,"Ġray":8508,"áľĶ":8509,"rows":8510,"ðŁķĴ":8511,"Ġcipher":8512,"ïĥī":8513,"Nonnull":8514,"munication":8515,"Ùĵ":8516,"ìĽį":8517,"Ġremoves":8518,"imap":8519,"Gem":8520,"ëµľ":8521,"çĨ¶":8522,"è¨ģ":8523,"êĪ´":8524,"à¾©":8525,"é´¼":8526,"éķ¿å¤§":8527,"ðĿ":8528,"represent":8529,"à¾ľ":8530,"socket":8531,"Ġå¹´":8532,"éĳĨ":8533,"ïĢĹ":8534,"é¢ħ":8535,"îĤ":8536,"ä¸ĭæ¬¡":8537,"setString":8538,"ang":8539,"n":8540,"ĠTP":8541,"getBlock":8542,"weibo":8543,"ðŁ§Ģ":8544,"á½ł":8545,"à¹Ĺ":8546,"ëĦ£":8547,"ptions":8548,",,,":8549,"åĶ¦":8550,"è£ĸ":8551,"îĿ¡":8552,"é¾Ĵ":8553,"èīĨ":8554,"ä¹ĭæĹ¶":8555,"æ¶īæ¡Ī":8556,"=(":8557,"Checksum":8558,"Ġ`\"":8559,"ðĳģĭ":8560,"Ġscene":8561,"è·Ļ":8562,"pe":8563,"Ġ[]);":8564,"è§¢":8565,"é°Ļ":8566,"è«º":8567,"â¤¥":8568,"ÎĪ":8569,"èĴĺ":8570,"à¬¹":8571,"Ġ*/,":8572,"ĠGenInst":8573,"æ¢Ĩ":8574,"áģ¤":8575,"èĨº":8576,"èĿ¨":8577,"ĠÐ¸Ð·":8578,"=\"%":8579,"dopt":8580,"Vl":8581,"|{":8582,"BV":8583,"ĠJo":8584,">:]<":8585,"å±¦":8586,"æ°ĳå·¥":8587,"áī½":8588,".'":8589,"æ»¤":8590,"ä¼º":8591,"ÜĢ":8592,"éłĻ":8593,"ïĮ·":8594,"Memory":8595,"ï¿³":8596,"Table":8597,"æµĹ":8598,"BoundingBox":8599,"îĽĻ":8600,"Only":8601,"âĬĢ":8602,"åº§æ¤ħ":8603,"=\"@":8604,"å¼ºè°ĥ":8605,"eef":8606,"éĲ¾":8607,"Ġvisible":8608,"éµµ":8609,"åı¶":8610,"ç¼ĸ":8611,"è¬¶":8612,"Twitter":8613,"é·¡":8614,"èĬ¿":8615,"é¸¤":8616,"æīįåıĳ":8617,"Ljava":8618,"æĹĮ":8619,"èĪ´":8620,"Ġ_$":8621,"á¾¦":8622,"Ü¬":8623,"éĩĲ":8624,"æµĵ":8625,"è¥°":8626,"cimal":8627,"Succeeded":8628,"Ġmechanism":8629,"ÑĶ":8630,"Ûº":8631,"çĬģ":8632,"ïĥµ":8633,"ç§ĺä¹¦éķ¿":8634,"â±¯":8635,"åīµ":8636,"ç¼´çº³":8637,"ç¬¬ä¸Ģ":8638,"IK":8639,"çĺŁ":8640,"æľīä½ł":8641,"å·²ç»ıæĺ¯":8642,"viding":8643,"à®¯":8644,"Hdr":8645,"Ġexchange":8646,"Cpu":8647,"Song":8648,"ä¸įå®ľ":8649,"ç¶Ķ":8650,"xlsx":8651,"Ġnach":8652,"çĤ½":8653,"ĠPrepare":8654,"publication":8655,"å½Ń":8656,"Orientation":8657,"åĽĹ":8658,"ĠUtils":8659,"á¼Ģ":8660,"asket":8661,"ðĸ¤Ĳ":8662,"Ġ{});":8663,"çĥ½":8664,"éĴ¥":8665,"Ġä½¿çĶ¨":8666,"Ýĵ":8667,"docker":8668,"ç«ª":8669,"ulong":8670,"æ¦Ĩ":8671,"Ġlearned":8672,"åľ¨åĽ½":8673,"Ġign":8674,"<(":8675,"èĦ½":8676,"îµº":8677,"éĤĢ":8678,"ä¾Ĺ":8679,"Ġ×Ļ":8680,"filename":8681,"é²ł":8682,"è°ĭåĪĴ":8683,"åĨłåĨĽ":8684,"å½ĵçĦ¶":8685,"EndOf":8686,"UNKNOWN":8687,"åľ¨äºİ":8688,"æĨ©":8689,"åĨı":8690,"ĠHa":8691,"çĪ²":8692,"scal":8693,"moj":8694,"ĠâĶĶ":8695,"ctrine":8696,"create":8697,"èĬĥ":8698,"Ġboxes":8699,"å«ĸ":8700,"é¬ı":8701,"æĺ¦":8702,"Ġmajor":8703,"Ġeffective":8704,"çŃīæĸ¹":8705,"ðŁ¥§":8706,"gister":8707,"ĠCRE":8708,"çļĦåħ¶":8709,"ĠPL":8710,"ĠJava":8711,"é¥Ģ":8712,"ó°":8713,"æĸŀ":8714,"ainter":8715,"Ġë¹Ħ":8716,"ĠWA":8717,"çª¯":8718,"èı»":8719,"çĵī":8720,"ðŁĴĥ":8721,"æ®ľ":8722,"æļ¡":8723,"ĠĊĊ":8724,"äº²èĩª":8725,"é¢ĭ":8726,"BOOLEAN":8727,"Ġshut":8728,"Ġrec":8729,"åĢ¼ç¨İ":8730,"ĠìķĦ":8731,"æ¸¯æ¾³":8732,"Du":8733,"ç±Ĩ":8734,"âĩĪ":8735,"ç°ļ":8736,"traj":8737,"BRANCH":8738,"phrase":8739,"è½½ä½ĵ":8740,"////////////////":8741,"ony":8742,"ç§ĸ":8743,"éľĸ":8744,"è°Ĺ":8745,"strap":8746,"éłĽ":8747,"å¸Ĥéķ¿":8748,"èĵ»":8749,"è®¨åİĮ":8750,"å®ŀæĸ½":8751,"åĹ³":8752,"éıĴ":8753,"îįħ":8754,"notifications":8755,"ê¹İ":8756,"Ġadicion":8757,"SCR":8758,":*":8759,"åĨĺ":8760,"Ġseek":8761,"âĻ¨":8762,"Ads":8763,"Ġ([#":8764,"=\"{":8765,"èīĵ":8766,"Ġoc":8767,"ĠSty":8768,"éĿ":8769,"Ç¿":8770,"ðŁķĳ":8771,"jah":8772,"æĥ³è¦ģ":8773,"enc":8774,"¬":8775,"Env":8776,"èĸ¶":8777,"DED":8778,"ĠASCII":8779,"const":8780,"ĠTree":8781,"ç¹į":8782,"ä½ıå®¿":8783,",\"":8784,"Space":8785,"Ġgrab":8786,"IPV":8787,"Building":8788,"æ¢ĭ":8789,"æ°ĳéĹ´":8790,"ata":8791,"áĵĹ":8792,"riend":8793,"ĠClean":8794,"à³§":8795,"é®¤":8796,"ä¸įä»£":8797,"çĮ¸":8798,"æµĽ":8799,"æ¦ģ":8800,"á¥·":8801,"éª§":8802,"âĢ«":8803,"æľĢåĪĿ":8804,"èºķ":8805,"åĲ¤":8806,"Ġse":8807,"Õ·":8808,"á¯²":8809,"Deep":8810,">@":8811,"formation":8812,"ÒĿ":8813,"ĠØª":8814,"installer":8815,"è®ºæĸĩ":8816,"(_,":8817,"å¤©åľ°":8818,"Players":8819,"à¿ģ":8820,"Ġvendor":8821,"á¾į":8822,"åıĳæī¬":8823,"ä¸Ĭæľī":8824,"lection":8825,"ĠAtt":8826,"åĮ·":8827,"èºį":8828,"æĦŁè°¢":8829,"éł¢":8830,"startswith":8831,"ĠĠĠĠĠĠĠĠĠĠĠĠĠĠĠĠĠĠĠĠĠĠĠĠĠĠĠĠĠĠĠĠĠĠĠĠĠĠĠĠĠĠĠĠĠĠ":8832,"ãľł":8833,"ìĳ":8834,"ating":8835,"å«Ł":8836,"ĠWrap":8837,"Ġ*(":8838,"devel":8839,"Yii":8840,"åłŃ":8841,"æķĪæŀľ":8842,"ĠSoftware":8843,"recip":8844,"åĹµ":8845,"é«º":8846,"éĸĲ":8847,"èĸ«":8848,"batches":8849,"EML":8850,"á¹ł":8851,"leted":8852,"èĮ§":8853,"pta":8854,"²":8855,"éĿ£":8856,"ä¼ľ":8857,"îĤ¬":8858,"ðŁ¥²":8859,"\"}":8860,"df":8861,"Ask":8862,"éµ":8863,"sche":8864,"èĪ¯":8865,"Ġsessions":8866,"åĻ¨å®ĺ":8867,"GY":8868,"ç¢¹":8869,"æŀ¥":8870,"ãŁ·":8871,"ä»¯":8872,"ono":8873,"PROCESS":8874,"Aggressive":8875,"åŁĿ":8876,"æĴ¾":8877,"åĥĦ":8878,"æ«®":8879,"ay":8880,"Ġì§Ģ":8881,"îĦİ":8882,"äĢ²":8883,"åħļç»Ħ":8884,"è§Ħå®ļ":8885,"îĪĻ":8886,"Ġcomposite":8887,"è¦ķ":8888,"ìĮį":8889,"áĶĳ":8890,"æĺ¯ä»¥":8891,"lient":8892,"çŀ©":8893,"åģķ":8894,"ĠJu":8895,"éĽħ":8896,"timezone":8897,"Ġcomes":8898,"tracks":8899,"éĴ»":8900,"RAD":8901,"î¤Ģ":8902,"ðŁ¦½":8903,"åµ§":8904,"adm":8905,"îĹ":8906,"æ¡Ĳ":8907,"Ä±":8908,"âĺĸ":8909,"èĢĩ":8910,"æ¹«":8911,"ç¸Ķ":8912,"binary":8913,"çľī":8914,"èģĩ":8915,"âĭ§":8916,"ä¸Ģå¥Ĺ":8917,"Ġday":8918,"ä¹Ī":8919,"tutorials":8920,"éªĦ":8921,"îģľ":8922,"âłŁ":8923,"ĠfontWeight":8924,"čĊĉĉĉĉĉĉĉĉĉ":8925,"SEND":8926,"à¢Ŀ":8927,"é¦ŀ":8928,"ĠCONFIG":8929,"ä¸Ńå°ıåŃ¦":8930,"ç¼Ŀ":8931,"çĭĵ":8932,"å¯¹äºĨ":8933,"éĢĭ":8934,"è¢»":8935,"à¾Ĺ":8936,"ê°":8937,"æĺħ":8938,"ection":8939,"ĠpostCellId":8940,"Cn":8941,"ä¿²":8942,"âĤ«":8943,"ç®ĵ":8944,"ãĹŃ":8945,"ĠMouse":8946,"ĠPor":8947,"ê¦«":8948,"ilo":8949,"à©Ķ":8950,"çħĢ":8951,"ìĭ¤":8952,"éľī":8953,"asure":8954,"ALIST":8955,"ĠExtract":8956,"ĠOp":8957,"î¦":8958,"æĢĭ":8959,"arehouse":8960,"clf":8961,"isting":8962,"%%%%%%%%%%%%%%%%%%%%%%%%%%%%%%%%":8963,"é§İ":8964,"exporter":8965,"é±£":8966,"xc":8967,"Soap":8968,"Ġsensitive":8969,"Ġnatural":8970,"ïĴĸ":8971,"ç£Ń":8972,"å¹´åº¦":8973,"åħ¨è¦ĨçĽĸ":8974,"æ¯ķ":8975,"ãģķãĤĮãĤĭ":8976,"éľĿ":8977,"lease":8978,"dis":8979,"ã¨ĸ":8980,"èľ®":8981,"èļĳ":8982,"Êİ":8983,"ĠĊĉĉĉ":8984,"åº®":8985,"éĹ¶":8986,"æįĩ":8987,"ĠContact":8988,"SWIG":8989,"åĬĢ":8990,"ðŁİļ":8991,"è¥į":8992,"Im":8993,"çļĦéĤ£":8994,"assert":8995,"åº·çłģ":8996,"secondary":8997,"èĶµ":8998,"oft":8999,"Inputs":9000,"çĩ£":9001,"ĠRemoved":9002,"Classifier":9003,"îīĻ":9004,"âĸ¶":9005,"Ġdell":9006,"åĤĩ":9007,"ïĺ¨":9008,"áľ":9009,"ä¸įç®¡":9010,"TypeOf":9011,"çĢª":9012,"áĭ²":9013,"ïģ¼":9014,"MPI":9015,"Ġpic":9016,"ises":9017,"å¤´éĥ¨":9018,"å£¨":9019,"ä»Ĭå¤©çļĦ":9020,"onic":9021,"á¡ł":9022,"æ¼ī":9023,"ãķĬ":9024,"ç¨®":9025,"èĦĸåŃĲ":9026,"Ġdownload":9027,"ok":9028,"ĠWork":9029,"ĠToast":9030,"Die":9031,"ç·ģ":9032,"propag":9033,"ëĬ¥":9034,"æģĶ":9035,"æ°İ":9036,"åłµå¡ŀ":9037,"_'":9038,"ïĩ¸":9039,"ĠChart":9040,"notation":9041,"QP":9042,"åŀº":9043,"Hint":9044,"éŃµ":9045,"âĻĢ":9046,"angerous":9047,"Ġwon":9048,"åĢ®":9049,"è¾±":9050,"interpret":9051,"æľ¬":9052,"review":9053,"Exchange":9054,"ì²ł":9055,"Ġarr":9056,"¡":9057,"ĠCOOKIE":9058,"Ġdim":9059,"ĠUpdates":9060,"ÚĴ":9061,"èĨĮ":9062,"Ġtodos":9063,"rint":9064,"åĩŀ":9065,"é·£":9066,"Writ":9067,"ç¹ĳ":9068,"::__":9069,"èĲ¥ä¸ļ":9070,"OME":9071,"IT":9072,"â¬·":9073,"OutOf":9074,"IID":9075,"ìºī":9076,"æĽĺ":9077,"îł°":9078,"ines":9079,"àºĸ":9080,"ä¸Ģå¾ĭ":9081,"çĨĦ":9082,"éķĻ":9083,"çŀ½":9084,"-----------":9085,"æĹ«":9086,"ðŁĻİ":9087,"ç¥¿":9088,"optimizer":9089,"éĻ¤éĿŀ":9090,"RESS":9091,"DUP":9092,"ãĥ§":9093,"êĥĨ":9094,"ç»ŃèĪª":9095,"ëį§":9096,"solve":9097,"éµ§":9098,"afka":9099,"newBuilder":9100,"hdfs":9101,"kFont":9102,"ê¯¨":9103,"æĶ¯æı´":9104,"àµĢ":9105,"onym":9106,"çĽľ":9107,"îľĴ":9108,"åİĥ":9109,"ParseException":9110,"Exporter":9111,"Ġability":9112,"æĽį":9113,"å¢Ħ":9114,"MAN":9115,"æ³¾":9116,"ĠUTC":9117,"linux":9118,"ê¿°":9119,"äıĤ":9120,"æ·ĳ":9121,"êīł":9122,"èķ®":9123,"ç®¶":9124,"ì¸ł":9125,"ĠWRITE":9126,"NameLink":9127,"ĠUnique":9128,"Ä¯":9129,"ç¦":9130,"å®³æĢķ":9131,"çŃīæĥħ":9132,"Ġskip":9133,"sav":9134,"è´Ńä¹°":9135,"å¬¨":9136,"çĻĶ":9137,"Ġauto":9138,"MBOL":9139,"tan":9140,"ðĴįª":9141,"HEAD":9142,"Center":9143,"æī¢":9144,"ðŁľ":9145,"umin":9146,"åĬī":9147,"â¦¾":9148,"èĶŀ":9149,"ÎĨ":9150,"æĥ³æ³ķ":9151,"ĠREFERENCES":9152,"izado":9153,"KEY":9154,"é´Ļ":9155,"render":9156,"deprecated":9157,"áĬł":9158,"Ġimprove":9159,"ðŁĵĭ":9160,"èĪ":9161,"cone":9162,"é£ĸ":9163,"ĠĊĉĉĉĉĉ":9164,"à´§":9165,"áĢĶ":9166,"é§ħ":9167,"å©į":9168,"æģ¯":9169,"Ġcorre":9170,"ç´µ":9171,"åĹĨ":9172,"Ġ\\'":9173,"æ²Ĥ":9174,"äļ°":9175,"ãĽĥ":9176,"Divider":9177,"Ġsolver":9178,"yw":9179,"æ±Ĳ":9180,"startsWith":9181,"ĠAdvanced":9182,"andle":9183,"ng":9184,"Ġman":9185,"é°Ł":9186,"åĨĲ":9187,"å¹³åı°":9188,"ï¿½ï¿½":9189,"ĠhashCode":9190,"Magic":9191,"NAMESPACE":9192,"Å":9193,"Ġrefs":9194,"åĢĨ":9195,"åģĮ":9196,"lean":9197,"ploy":9198,"ä¾Ħ":9199,"idiomas":9200,"ìķį":9201,"îĮŃ":9202,"ĠOptions":9203,"SCALE":9204,"æĹ¥å¿Ĺ":9205,"ðŁ¥Ħ":9206,"æł¦":9207,"ðŁ§¢":9208,"Ġcrop":9209,":\\\"":9210,"áī³":9211,"Ġapplicable":9212,"èĽĭç³ķ":9213,"Hook":9214,"eder":9215,"æħı":9216,"Ġbeginning":9217,"Mg":9218,"ìį¬":9219,"æ¢ŀ":9220,"ä¼ļè¢«":9221,"DRAW":9222,"Expiration":9223,"nology":9224,"Ġfragments":9225,"êĵĺ":9226,"è§£éĩĬ":9227,"methodName":9228,"lict":9229,"();\");":9230,"è¯´":9231,"æĥĶ":9232,"æįĵ":9233,"éģ¾":9234,"êİ®":9235,"æĢ»ä¹ĭ":9236,"æī¿åıĹ":9237,"à¨Ŀ":9238,"é¼²":9239,"Ġwrote":9240,"éĶ¿":9241,"åģľçĶµ":9242,"å´©":9243,"failed":9244,"Ġconstr":9245,"æ£Ĺ":9246,"DECREF":9247,"Ġdecorator":9248,"éĨĪ":9249,"îį©":9250,"ther":9251,"é·ĺ":9252,"æīĵå¥½":9253,"å¸ĤéĿ¢ä¸Ĭ":9254,"},":9255,"æ¶¼":9256,"buntu":9257,"çĺ¶":9258,"repeated":9259,"éĸļ":9260,"åĩºçİ°çļĦ":9261,"agn":9262,"æĻ®æŁ¥":9263,"éĴĮ":9264,"ĠPair":9265,"Ġboolean":9266,"ĠTrying":9267,"ïı³":9268,"Ġinverse":9269,"èįº":9270,"ä¸ĢæŃ¥":9271,"áŀļ":9272,"definition":9273,"Ġconflict":9274,"ĊĠĊĠĠĠ":9275,"é¾Ķ":9276,"SCRIP":9277,"è«§":9278,"î©Ħ":9279,"ì¹µ":9280,"rest":9281,"ĠDEF":9282,"éŃĵ":9283,"æĪĳéĥ½":9284,"á¸ł":9285,"é¡§":9286,"èĮĩ":9287,"ç¤¼çī©":9288,"Ġdropped":9289,"èĳº":9290,"ä¸Ģé¢Ĺ":9291,"è®¾å¤ĩ":9292,"æ½ľåĬĽ":9293,"á·ĩ":9294,"à²³":9295,"çļĦåĲĮ":9296,"å¾Ģ":9297,"AI":9298,"Ġfold":9299,"am":9300,"âĥŀ":9301,"è³Ľ":9302,"è±®":9303,"à¸®":9304,"ç·½":9305,"é¬¯":9306,"èµĽ":9307,"ALI":9308,"âĬ³":9309,">):":9310,"ä»ĭ":9311,"åı©":9312,"ãĤ¯ãĥª":9313,"é»¦":9314,"elm":9315,"reflection":9316,"ĠmethodName":9317,"éĺĦ":9318,"Ê½":9319,"é©¢":9320,"éº¼":9321,"áĬķ":9322,"çĶ½":9323,"osition":9324,"åĻĤ":9325,"ïİ¥":9326,"Ġalter":9327,"getFirst":9328,"}));":9329,"RestController":9330,"æı°":9331,"éĬĲ":9332,"filePath":9333,"ĠCondition":9334,"æĪĺ":9335,"éªĹåŃĲ":9336,"å¾½çľģ":9337,"åĹ¬":9338,"è¨ı":9339,"Ġtypeof":9340,"áįĮ":9341,"Region":9342,"ustr":9343,"èŀı":9344,"ç¾Ĭ":9345,"ĠAf":9346,"Ðĸ":9347,"çŁĭ":9348,"ench":9349,"Ledger":9350,"sp":9351,"argo":9352,"æ°´":9353,"æĴį":9354,"ï¼īãĢĤ":9355,"]\"":9356,"mesh":9357,"æģ®":9358,"Ġarrow":9359,"Ġsom":9360,">,":9361,"ym":9362,"åĹģ":9363,"æĶ¶åĪ°":9364,"jvm":9365,"éĥı":9366,"äĢ®":9367,"ĠClock":9368,"æħĨ":9369,"å®¶åºŃ":9370,"é±Ĥ":9371,"positor":9372,"Ġguarante":9373,"æ¿®":9374,"é²¨":9375,"æ¢¦æĥ³":9376,"à§Ĺ":9377,"ĠLine":9378,"ÑĢÐ¾":9379,"êģĸ":9380,"îĳ¥":9381,"Ġbackground":9382,"æ°¸":9383,"ĠKn":9384,"'d":9385,"atest":9386,"tre":9387,"Interface":9388,"à¿Ĩ":9389,"åı¯èĥ½ä¼ļ":9390,"¹":9391,"ìľĮ":9392,"arak":9393,"é¦ı":9394,"hip":9395,"ĠDAMAGE":9396,"Ġparticles":9397,"Ġç¼ĸè¾ĳ":9398,"ä»¥ä¸ĬçļĦ":9399,"Handling":9400,"éŀļ":9401,"tot":9402,"å¥Ķ":9403,"Ġawk":9404,"è©Ģ":9405,"çħī":9406,"é³ħ":9407,"íĮ¡":9408,"êĬľ":9409,"Ġ^=":9410,"åĲĨ":9411,"çħ·":9412,"âıª":9413,"Ġrespond":9414,"è¢¬":9415,"âĹŀ":9416,"ìħª":9417,"und":9418,"registry":9419,"Ġmetrics":9420,"MISSION":9421,"ðŁĩª":9422,"ler":9423,"å¿ħ":9424,"à¶ľ":9425,"åŁĴ":9426,"PR":9427,"åªħ":9428,"Óĥ":9429,"Ġi":9430,"act":9431,"áħ¤":9432,"ðĵĢĬ":9433,"éĽ¹":9434,"à°³":9435,"ïĹ":9436,"æ¾ķ":9437,"shift":9438,"åķľ":9439,"æ¯ıæĹ¥":9440,"êİ¹":9441,"âİ¹":9442,"Please":9443,"rim":9444,"Clients":9445,"ïĮĻ":9446,"nic":9447,"ðŁĮĹ":9448,"ÉĴ":9449,"è®ºæĺ¯":9450,"ĠDe":9451,"åıĹ":9452,"cargo":9453,"éĬħ":9454,"bernate":9455,"é¯·":9456,"tooltip":9457,"lad":9458,"æĿ£":9459,"Ġ\"<":9460,"Ġbeen":9461,"lesson":9462,"éĮĺ":9463,"ïĮĬ":9464,"Ç»":9465,"ä¹Łå°±":9466,"æĸĩåĮĸçļĦ":9467,"éŁ³ä¹Ĳ":9468,"åįĿ":9469,"Xml":9470,"ì¸µ":9471,"Ġprocess":9472,"OrCreate":9473,"engine":9474,"rp":9475,"ACHE":9476,"dif":9477,"å¤ªå¤ª":9478,"Ġretain":9479,"CSharp":9480,"å¾Ĺä¸Ĭ":9481,"Ġnur":9482,"åħĦ":9483,"Predicate":9484,"×ĩ":9485,"ðĵĨŀ":9486,"è¥¥":9487,"ĠTermin":9488,"ĠYes":9489,"áħİ":9490,"éģĺ":9491,"made":9492,"æĹ¢æľī":9493,"îĵĢ":9494,"æ²Į":9495,"ä¸Ńéĥ¨":9496,"lbl":9497,"è¢Ń":9498,"ToOne":9499,"åĨŀ":9500,"é«ĺéĵģ":9501,"è¸§":9502,"å¾ģç¨ĭ":9503,"å¤ªåİŁ":9504,"éĥĥ":9505,"Ġmodification":9506,"çĨ®":9507,"åĢĭ":9508,"Ġcancel":9509,"çĻº":9510,"ÎŃ":9511,"ĠSt":9512,"ĠXL":9513,"ê²Ł":9514,"\\\"]":9515,"ç£ĳ":9516,"Cached":9517,"Ġstrategy":9518,"áĽ¦":9519,"éĺŀ":9520,"î¤¢":9521,"rans":9522,"Ġrounded":9523,"pt":9524,">>();":9525,"èĲĽ":9526,"state":9527,"Reader":9528,"xabab":9529,"àªł":9530,"truth":9531,"áĽĪ":9532,"ilio":9533,"song":9534,"Ò":9535,"é£¯":9536,"ALISTP":9537,"Ġaavsop":9538,"AH":9539,"')).":9540,"death":9541,"æ¡µ":9542,"Ġwhose":9543,"åĴĸ":9544,"ĠINTO":9545,"Ġincre":9546,"åİĳ":9547,"æ¶ħ":9548,"ì´ī":9549,"ðŁĳľ":9550,"jd":9551,"ĠSubst":9552,"details":9553,"čĊĠĠĠĠčĊĠĠĠ":9554,"Facebook":9555,"åĬ¡éĻ¢":9556,"ĠDataSource":9557,"î¹":9558,"lasthandoff":9559,"èī¥":9560,"çĵ¶":9561,"æ¨Ń":9562,"åĸľæ¬¢":9563,"åħ³èĬĤ":9564,"ä¸Ģæ¬¾":9565,"çº¦å®ļ":9566,"éħĽ":9567,"Ġfd":9568,"ÈĦ":9569,"åĽ½æ°ĳ":9570,"æ§Ŀ":9571,"å¥¼":9572,"argar":9573,"ä¸įåĨį":9574,"ä½Ĩä»ĸ":9575,"jection":9576,"ĠUpdate":9577,"Ġtrap":9578,"Ġmight":9579,"æ«´":9580,"âĭ":9581,"æĤĦ":9582,"ç¾İåĳ³":9583,"æĻ®":9584,"ç´Ŀ":9585,"Ġsafecall":9586,"çª¡":9587,"Discard":9588,"Î£":9589,"ëŁ":9590,"å¥º":9591,"bad":9592,"áº¬":9593,"pypi":9594,"ç¶ĺ":9595,"ÑĢÐ¸":9596,"áĪ«":9597,"ç¢±":9598,"ë³¼":9599,"Ġcategories":9600,"éĢ¿":9601,"Iterable":9602,"æĶ«":9603,"æĨĿ":9604,"ĊĠĠĠĠĊĠ":9605,"ãĹ³":9606,"Ð¼Ð¾":9607,"å¯¹æĬĹ":9608,"æĸ¹":9609,"Ì±":9610,"æ²¿":9611,"ðŁ«ĸ":9612,"è°ĥçłĶ":9613,"çģ¾":9614,"æĿĮ":9615,"åĪĿæľŁ":9616,"ìĿ":9617,"Esc":9618,"search":9619,"mpty":9620,"àªĽ":9621,"ëµµ":9622,"ÄĦ":9623,"NR":9624,"á·İ":9625,"ðŁ¦ĳ":9626,"Ġdefines":9627,"Ġeines":9628,"éģĽ":9629,"è·¾":9630,"æįĻ":9631,"îĮ©":9632,"Ġconsidered":9633,"éªĮå®¤":9634,"èŀ¥":9635,"âĶĵ":9636,"åº¦çļĦ":9637,"Î¬":9638,"æ¸ł":9639,"ôı°ķ":9640,"getClass":9641,"Ops":9642,"æ°ĶçļĦ":9643,"(['":9644,"çĺµ":9645,"çĥ£":9646,"åĭĵ":9647,"Alerts":9648,"ually":9649,"å¤©æ´¥å¸Ĥ":9650,"çĨ¼":9651,"Skip":9652,"sia":9653,"Ġlesson":9654,"æĬĢæľ¯":9655,"å¦ĤæŃ¤":9656,"åħĿ":9657,"ĠThey":9658,"åģļå¾Ĺ":9659,"ĠGaussian":9660,"éĪ«":9661,"ĠAttributes":9662,"Ġ*,":9663,"Ð½Ð¸Ðµ":9664,"å®ļæĺ¯":9665,"ãĦį":9666,"åºĨ":9667,"ungen":9668,"Ġextent":9669,"åĻ±":9670,"é¸Ļ":9671,"à±³":9672,"rhs":9673,"Ġradio":9674,"CHAR":9675,"æļĲ":9676,"ä¸Ģè¾¹":9677,"çĶŁæĢģ":9678,"Ã©d":9679,"ä¸īåĽĽ":9680,"çĽ¸å½ĵ":9681,"join":9682,"Work":9683,"Apple":9684,"ï¼ĺ":9685,"Exo":9686,"å±ŀ":9687,"Ġselector":9688,"atype":9689,"éł©":9690,"dab":9691,"asarray":9692,"âĸĬ":9693,"Year":9694,"ðŁĵ»":9695,"TY":9696,"iant":9697,"çļ¿":9698,"åºĬä¸Ĭ":9699,"èĮ¥":9700,"æ£¯":9701,"objc":9702,"Ġunchecked":9703,"Ġ':'":9704,"ìĨĵ":9705,"éŃģ":9706,"åŃ¦éĩĳ":9707,"à«ī":9708,"Ġtalk":9709,"çı¯":9710,"âĩĽ":9711,"Î§":9712,"å±¸":9713,"æ³ķåĽ½":9714,"Ġweak":9715,"Ġinc":9716,"çĬĬ":9717,"Method":9718,"åŀģ":9719,"PerPage":9720,"bounded":9721,"Optimizer":9722,"kas":9723,"éİ¤":9724,"æ§ĥ":9725,"âİ¯":9726,"èł¾":9727,"ç»§æī¿":9728,"Ho":9729,"contract":9730,"Ġele":9731,"Sale":9732,"ëŁī":9733,"éŃĴ":9734,"æĽĪ":9735,"å¾·":9736,"åĶĪ":9737,"ä»·åĢ¼":9738,"è§Ĩéĩİ":9739,"à±Ĭ":9740,"Ã¡m":9741,"ì¦Į":9742,"ðŁļª":9743,"éĴĪå¯¹":9744,"æłĢ":9745,"íĹ»":9746,"ïĤ³":9747,"é¥°":9748,"è§ĦèĮĥ":9749,"æ¸ħåįİ":9750,"GEO":9751,"Ġdaily":9752,"ëĸ»":9753,"é¼Ĭ":9754,"áºĭ":9755,"ìķĦ":9756,"passed":9757,"íĶ¼":9758,"cod":9759,"Transition":9760,"åĳ¨äºĶ":9761,"è´´å¿ĥ":9762,"ĠStringUtils":9763,"quantit":9764,"é°»":9765,"êª°":9766,"êĤĺ":9767,"ocr":9768,"Ġfrag":9769,"æĲ±":9770,"contribut":9771,"è·¡":9772,"é¢ĥ":9773,"à§Ħ":9774,"æĻ§":9775,"Ġinsert":9776,"Url":9777,"çĽ¿":9778,"ifik":9779,"ÚĽ":9780,"Ġprotocols":9781,"estado":9782,"â¸ļ":9783,"æİĻ":9784,"å´«":9785,"áľĹ":9786,"alla":9787,"áĪ±":9788,"ç¥®":9789,"çķ¸":9790,"å¿©":9791,"isOpen":9792,"èı±":9793,"éĸ£":9794,"lik":9795,"ïı":9796,"éĦ¢":9797,"sam":9798,"çĸĭ":9799,"retch":9800,"âĪĨ":9801,"ç°Ļ":9802,"ĠDom":9803,"åįĲ":9804,"è¤ł":9805,"èµ°è®¿":9806,"éļ¡":9807,"æ¹¿åľ°":9808,"God":9809,"âĺĮ":9810,"æīĭæ³ķ":9811,"åĿ¤":9812,"ïħµ":9813,"âĹ":9814,"æ»ĵ":9815,"éĹĪ":9816,"anto":9817,"shapes":9818,"Nv":9819,"éĨ¬":9820,"å£«":9821,"è¤ŀ":9822,"Ġitk":9823,"aram":9824,"æ¤«":9825,"åĴ·":9826,"ç±¹":9827,"XE":9828,"å¤ı":9829,"éİķ":9830,"èŁ°":9831,"GRAM":9832,"observable":9833,"ïĤĹ":9834,"Ġë":9835,"çĤ³":9836,"ëĦ¸":9837,"êŀĶ":9838,"ç°¡":9839,"å¾Ł":9840,"å·¥åħ·":9841,"()):":9842,"ïĨ´":9843,"drag":9844,"æ»ī":9845,"à¯¯":9846,"Ġcorrespon":9847,"ublic":9848,"ĠIndex":9849,"Ġ@_;":9850,"é§¢":9851,"çıŁ":9852,"Ġargs":9853,"parse":9854,"ìŀ":9855,"âĨ¸":9856,"åĭĶ":9857,"çģĵ":9858,"èĨ£":9859,"Successfully":9860,"out":9861,"çī©è´¨":9862,"éĥŀ":9863,"KeyEvent":9864,"PointerException":9865,"»":9866,"âĬ¨":9867,"ducing":9868,"Íł":9869,"ä¾¯":9870,"æľªç»ı":9871,"ç¶¬":9872,"æįĬ":9873,"æ§Ļ":9874,"Arr":9875,"Ġuppercase":9876,"Fake":9877,"îĿ¸":9878,",,,,":9879,"æ°³":9880,"åħĥç´ł":9881,"ìĬ¬":9882,"Õħ":9883,"when":9884,"ïīĥ":9885,"ç»Ķ":9886,"á¹©":9887,"lich":9888,"å»¶è¿Ł":9889,"åīĵ":9890,"ĠAPI":9891,"èĵ¾":9892,"ä¸¤æ¬¡":9893,"TWARE":9894,"çĤ¸":9895,"Ġmess":9896,"æ¹¢":9897,"ëĢ½":9898,"AO":9899,"çĨ¢":9900,"ç¶·":9901,"îīĲ":9902,"éĩĨ":9903,"æ³Ī":9904,"subtract":9905,"clear":9906,"à§Ľ":9907,"upt":9908,"HdpiMode":9909,"çĪ±äºº":9910,"æŀĲ":9911,"lbk":9912,"è¯¦æĥħ":9913,"å±§":9914,"æĹ¥çĽĬ":9915,"éīĥ":9916,"bounding":9917,"èĲĲ":9918,"åĹŁ":9919,"æĸĥ":9920,"è·ĥ":9921,"WJ":9922,"åĪ¶éĢłä¸ļ":9923,"æĸ²":9924,"Mah":9925,"æĿļ":9926,"è¯ģä¹¦":9927,"getFile":9928,"çĸį":9929,"åģļé¢ĺ":9930,"æ¯ı":9931,"îĭĩ":9932,"å²¢":9933,"Ġda":9934,"åŃļ":9935,"nixpkgs":9936,"GE":9937,"Ġmonthly":9938,"æĶ¶èİ·":9939,"å¾®è¯¾":9940,"Ġdashboard":9941,"apiKey":9942,"á½ħ":9943,"æ¾³å¤§åĪ©":9944,"ç³³":9945,"ĠShared":9946,"æ¤ĭ":9947,"dll":9948,"DCALL":9949,"lying":9950,"èĪ¸":9951,"åįĥå¹´":9952,"äºĲ":9953,"áıĤ":9954,"ä¹Łè¦ģ":9955,"omega":9956,"callable":9957,"è¼ĳ":9958,"è¬Ģ":9959,"Ñ¾":9960,"æĢį":9961,"âĨ±":9962,"Ġspark":9963,"æĵįä½ľ":9964,"è©²":9965,"á²¢":9966,"åŃĭ":9967,"èĭĮ":9968,"èĹ®":9969,"ä¾Ŀèµĸ":9970,"áĳ":9971,"Ġsvg":9972,"åģ¥åħ¨":9973,"îłª":9974,"æĭ¿åĩº":9975,"è¾·":9976,"é¶·":9977,"Äį":9978,"Öľ":9979,"èĦ¾èĥĥ":9980,"aken":9981,"ä¼¬":9982,"_\"":9983,"çŃ¾è¯ģ":9984,"ìĸ":9985,"îĪ":9986,"ë¯¼":9987,"getResponse":9988,"è½ļ":9989,"Ġ[/":9990,"Orden":9991,"ä»¢":9992,"Ãģ":9993,"Äĳ":9994,"ÒŃ":9995,"á¿¦":9996,"æĹ¥åīį":9997,"ĠSelected":9998,"èİ¦":9999,"êĦĤ":10000,"âİĭ":10001,"æµĿ":10002,"ĠTile":10003,"->{'":10004,"ç¯½":10005,"æª°":10006,"ä¸Ģæĸ¹":10007,"éļ³":10008,"æĤª":10009,"Ġä»Ĭå¤©":10010,"çµ¡":10011,"HRESULT":10012,"â¤į":10013,"ç«ħ":10014,"Æı":10015,"imer":10016,"%,":10017,"ĠPDF":10018,"ðŁĢĪ":10019,"å¼Ĳ":10020,"åħįè´¹":10021,"âĶ«":10022,"IGH":10023,"ĠCA":10024,"çĨŁæĤī":10025,"cÃ©":10026,"åĨļ":10027,"å¢Ģ":10028,"ĠãĤµ":10029,"ïĩĺ":10030,"åĺ¦":10031,"åĩłå¹´":10032,"èĪİ":10033,"åĲĦé¡¹":10034,"ĠPreview":10035,"èŀ¼":10036,"å¦¾":10037,"åµ¼":10038,"åĿł":10039,"pw":10040,"éŀĬ":10041,"ĠGetting":10042,"Ġmodule":10043,"æŁ¬":10044,"âłĭ":10045,"Ġcombined":10046,"cÄ±":10047,"ĊĊĊĊĊĊĊĊ":10048,"áĢĨ":10049,"kecamatan":10050,"ëĪ´":10051,"åĿĲåľ¨":10052,"PTR":10053,"Unused":10054,"åĿ±":10055,"CONTAIN":10056,"åĩĿèģļ":10057,"BUS":10058,"ĠBUEN":10059,"éºº":10060,"ðŁıĦ":10061,"åĩĲ":10062,"dog":10063,"å¹ĺ":10064,"è¿Ĵ":10065,"bank":10066,"flux":10067,"cases":10068,"è§°":10069,"Æ©":10070,"íĲĦ":10071,"îĬĸ":10072,"ãĤį":10073,"åĢ«":10074,"å¶Į":10075,"åįª":10076,"identity":10077,"ç§Łéĩĳ":10078,"My":10079,"ðŁ©°":10080,"ðŁĴ¯":10081,"Three":10082,"cdnjs":10083,"Ġ&(":10084,"æĲ¢":10085,"å¹¶æ²¡":10086,"èļ¤":10087,"ç§ģäºº":10088,"ä¸½çļĦ":10089,"æħ¢":10090,"Choose":10091,"â§¹":10092,"åĴĿ":10093,"èĶī":10094,"=',":10095,"ðŁĨģ":10096,"ServiceProvider":10097,"éħįå¥Ĺ":10098,"åĲ±":10099,"virt":10100,"ÛŁ":10101,"å²Ĩ":10102,"èªĻ":10103,"åµŃ":10104,"scroll":10105,"ĠMT":10106,"Patterns":10107,"å®Ĳ":10108,"ache":10109,"à¢ĸ":10110,"changed":10111,"()</":10112,"Ġdedic":10113,"ĠThere":10114,"îıĹ":10115,"çĭ¤":10116,"UE":10117,"EEK":10118,"áħ¯":10119,"è¤¿":10120,"îĢĹ":10121,"ë¹¨":10122,"\"$":10123,"TimeStamp":10124,"æ£¥":10125,"é«ĺæķĪ":10126,"çĥŁèĬ±":10127,"á½Ŀ":10128,"ala":10129,"configuration":10130,"ç´Ĥ":10131,"Decorator":10132,"äı®":10133,"ENSION":10134,"éłĺ":10135,"OrUpdate":10136,"ĠUint":10137,"Ġpou":10138,"abbr":10139,"Presentation":10140,"INTEGER":10141,"èŃĬ":10142,"aurant":10143,"å¾Ľ":10144,"ĠĠĊĊ":10145,"ç³«":10146,"åķļ":10147,"æĢ¤":10148,"Ġssl":10149,"çľ¤":10150,"íİ":10151,".:":10152,"rice":10153,"Ġmanner":10154,"éİ¹":10155,"çİĩä¸º":10156,"èĪį":10157,"èģł":10158,"ipis":10159,"éį§":10160,"live":10161,"}.":10162,"jeky":10163,"çļĦæľºä¼ļ":10164,"ccb":10165,"CW":10166,"æ¯ł":10167,"æĢ»éĥ¨":10168,"è¤ı":10169,"Ò®":10170,"Ġdoub":10171,"ĠRegex":10172,"connected":10173,"âµľ":10174,"å¡®":10175,"Ġkn":10176,"áĭĪ":10177,"éĻįéĽ¨":10178,"ĠÑĤÐ°":10179,"âłħ":10180,"Small":10181,"ĠMag":10182,"Longitude":10183,"ä»ĳ":10184,"æİ¢ç´¢":10185,"Ġå¤©":10186,"çļĦå¸Ĥåľº":10187,"Cells":10188,"éİº":10189,"å±Ģ":10190,"é":10191,"EventType":10192,"Tracking":10193,"ĉ":10194,"è§Ĩ":10195,"çĢ¿":10196,"Ä©":10197,"è½µ":10198,"à²Ī":10199,"çĶ³è¯·äºº":10200,"Written":10201,"ĠEmail":10202,"íĮ½":10203,"uni":10204,"éĩ®":10205,"á»ľ":10206,"ìķ¨":10207,"áĮĲ":10208,"è¿ķ":10209,"å¤©ç©º":10210,"îķĳ":10211,"ðŁĵ¬":10212,"å¸£":10213,"select":10214,"rar":10215,"ïķ¾":10216,"æįŃ":10217,"å²Ĵ":10218,"ïĥ»":10219,"intValue":10220,"âİĺ":10221,"åįħ":10222,"Logo":10223,"Ġviol":10224,"ĠsetName":10225,"dff":10226,"å«ī":10227,"\"/>":10228,"æ¶°":10229,"ĠGC":10230,"èī°éļ¾":10231,"äº²çĪ±":10232,"parameter":10233,"generated":10234,"èıĪ":10235,"×´":10236,"ä¸Ń":10237,"=''>":10238,"icao":10239,"âĬ»":10240,"Ġ\"&":10241,"éĺĲ":10242,"...,":10243,"Bounding":10244,"âĸŁ":10245,"à¤£":10246,"ä¸Ģä½ĵåĮĸ":10247,"å°±ä¸į":10248,"SW":10249,"INFORMATION":10250,"èı©":10251,"æľīå°ı":10252,"éĤ£å°±":10253,"bytes":10254,"æ¶§":10255,"ĠfÃ¶r":10256,"åı£èħĶ":10257,"AGES":10258,"Þ»":10259,"å¹¿å·ŀ":10260,"Denied":10261,"æĭĽ":10262,"ç»ĻäºĪ":10263,"Ġyear":10264,"Ġsave":10265,"äĿ":10266,"à¨ĩ":10267,"Ñ±":10268,"ĠNeed":10269,"Minute":10270,"ç¤º":10271,"âĭ¯":10272,"èĥĿ":10273,"îģŃ":10274,"ãĥ£":10275,"á¸¾":10276,"çİ¼":10277,"éĺ¾":10278,"å¢Ł":10279,"Singleton":10280,"Consum":10281,"èĿ¶":10282,"éĸĴ":10283,"çµĽ":10284,"cia":10285,"êĥ¤":10286,"æª¨":10287,"âĨ¾":10288,"åİĴ":10289,"å§¹":10290,"çĬ¿":10291,"é¨°":10292,"ðĵĪ":10293,"asy":10294,"å¨µ":10295,"çµĿ":10296,"arget":10297,"\"}}":10298,"â§İ":10299,"getString":10300,"åĽ½":10301,"ĠMultiple":10302,"Ġexpired":10303,"ä¾ļ":10304,"Ġtracking":10305,"zip":10306,"FT":10307,"ç®Ĺæĺ¯":10308,"ã»Ĺ":10309,"îĥĳ":10310,"é¡į":10311,"ê¼´":10312,"ĠBad":10313,"setFont":10314,"Ġnext":10315,"REGISTR":10316,"UREMENT":10317,"áĵķ":10318,"Ġselection":10319,"åĥ¤":10320,"êĥ³":10321,"|',":10322,"å´Ĥ":10323,"http":10324,"æĦŁåĪ°":10325,"áįħ":10326,"èĥ¼":10327,"??":10328,"pology":10329,"äĵģ":10330,"åĳ¨è¾¹":10331,"SIGNED":10332,"()\",":10333,"reement":10334,"yield":10335,"ìĥ´":10336,"îĴĳ":10337,"parent":10338,"finalize":10339,"æ¢ģ":10340,"Ġwas":10341,"ã§Ł":10342,"êĳ¤":10343,"î¯":10344,"ulf":10345,"Parsing":10346,"æķħ":10347,"å¨¸":10348,"îļĸ":10349,"å°ĳ":10350,"hea":10351,"å»±":10352,"Ġtarget":10353,"cannot":10354,"Ï":10355,"ä½ķåĨµ":10356,"à«Ĳ":10357,"ä¸Ģå¹´":10358,"éĩī":10359,"æ¿ĩ":10360,"ç§Ĭ":10361,"<<":10362,"Ġinstalled":10363,"weep":10364,"ĠDart":10365,"áĮĤ":10366,"ð¡İļ":10367,"åıįèĢĮ":10368,"Ġrub":10369,"å§®":10370,"Ġinser":10371,"à¸Ĵ":10372,"ä¹Ĳè¶£":10373,"æ¤Ķ":10374,"æĽĥ":10375,"ç¼¡":10376,"ìĥĲ":10377,"å¥³äººçļĦ":10378,"olate":10379,"GCC":10380,"Average":10381,"å¥ł":10382,"ðłĥį":10383,"åĥĮ":10384,"îĤ¿":10385,"åŁ©":10386,"æĽ¦":10387,"ïıĨ":10388,"îłį":10389,"åĲİåı°":10390,"Ġvirtual":10391,"íķĺë©´":10392,"ë³Ģ":10393,"íĿ©":10394,"Ġgave":10395,"Ġextract":10396,"ç¿ŀ":10397,"ania":10398,"âľģ":10399,"æ³§":10400,"reatment":10401,"ðŁĴ°":10402,"åıįé¦Ī":10403,"Age":10404,"Ġmodified":10405,"äĢ¾":10406,"ìĨĿ":10407,"åĲ¸æĶ¶":10408,"ëĽ°":10409,"é¼¸":10410,"æ«Ļ":10411,"Ġproc":10412,"Ġclaim":10413,"åľ¨æĸ°":10414,"éĵ±":10415,"ç·Ĵ":10416,"å°ıæĹ¶åĢĻ":10417,"ç¯Ĺ":10418,"strn":10419,"merchant":10420,"Ġsaf":10421,"Vals":10422,"âľĵ":10423,"îĬ½":10424,"å°¼":10425,"åı¯åľ¨":10426,"æĶ¿æ²»":10427,"Ger":10428,"å½ĵäºĭäºº":10429,"ĠEV":10430,"æĲĲ":10431,"âľĦ":10432,"å¿ķ":10433,"å«ľ":10434,"shortsands":10435,"encrypted":10436,"sensor":10437,"camatan":10438,"ółģ£":10439,"ABLE":10440,"Ġte":10441,"æī³":10442,"'});":10443,"çĮ¡":10444,"à··":10445,"á¿¬":10446,"Ġthem":10447,"é·³":10448,"reference":10449,"Ġuz":10450,"ê¡Ķ":10451,"èłº":10452,"æĹłæķ°":10453,"ãĤĮ":10454,"=\"../../../":10455,"Ġmention":10456,"ĠuserName":10457,"Payment":10458,"è¹¯":10459,"æĶ¿æ³ķ":10460,"ÑĥÐ½":10461,"ä¨§":10462,"ç¤¢":10463,"á´į":10464,"ffffff":10465,"SYM":10466,"ÙĤ":10467,"çĽŁ":10468,"ðŁĺľ":10469,"åĳ¯":10470,"Decode":10471,"ì·Ħ":10472,"rb":10473,"à©®":10474,"hom":10475,"æĺº":10476,"ðŁĮµ":10477,"ç´ĺ":10478,"RESET":10479,"ç¾İåħĥ":10480,"è½Ŀ":10481,"å±ķçİ°":10482,"tensorflow":10483,"å¦Ĥæŀľè¯´":10484,"çĪĳ":10485,"UserData":10486,"ENABLE":10487,"å§İ":10488,"è©¨":10489,"ĊĠĠĠĠĠĠĠĠĠĠĠĠĠĠĠĠĠĠĠĠĠĠĠĠĠĠĠĠĠĠĠĠĠĠĠĠ":10490,"à¼Ĵ":10491,"states":10492,"æ§¹":10493,"éı¾":10494,"ĠĠĠĠĠĠĠĠĠĠĠĠĠĠĠĠĠĠĠĠĠĠĠ":10495,"EntityFramework":10496,"åī¡":10497,"îĭĵ":10498,"åģ¡":10499,"æŁ¾":10500,"ðĲĤ":10501,"solver":10502,"éĭĪ":10503,"èĥĬ":10504,"ĠSh":10505,"æĭħä¿Ŀ":10506,"è¾ļ":10507,"çħĨ":10508,"èµ·åºĬ":10509,"à¤Ĺ":10510,"ĊĠĠĠĠĠĠĠĠĠĠĠĠĠĠĠĠĠĠĠĠĠĠĠĠĠĠĠĠĠĠĠĠĠĠĠĠĠĠĠĠĠĠĠ":10511,"geben":10512,"äº®":10513,"çĢ±":10514,"è§¤":10515,"Ġtwice":10516,"ĠCMD":10517,"éĿĢ":10518,"aker":10519,"Days":10520,"ç®Į":10521,"ç¸Ĭ":10522,"Rectangle":10523,"TypeName":10524,"æ¶ĺ":10525,"å¼ľ":10526,"ä¾¿åĪ©":10527,"footer":10528,"é¢Īæ¤İ":10529,"Undefined":10530,"å°½":10531,"vid":10532,"éĸĪ":10533,"}>{":10534,"æıĻ":10535,"æİ¥ç§į":10536,"rand":10537,"Nj":10538,"Ġspeak":10539,"andra":10540,"ëķħ":10541,"ê¼Ī":10542,"yntax":10543,"è¿ĻäºĽ":10544,"ã«¬":10545,"å¡°":10546,"åª¬":10547,"endforeach":10548,"åĥŀ":10549,"èĪ²":10550,"deriv":10551,"ĠUsed":10552,"ĠaplicaciÃ³n":10553,"Zn":10554,"åİŁä»·":10555,"CellStyle":10556,"Ü©":10557,"æĹ¢çĦ¶":10558,"ĠDec":10559,"èĸĵ":10560,"visual":10561,"ðĳĢĵ":10562,",'":10563,"Wrap":10564,"Destination":10565,"Checkpoint":10566,"ä¾¿":10567,"ĠMany":10568,"îĸ":10569,"ï¸ł":10570,"Unsafe":10571,"oun":10572,"éĴŁ":10573,"å¯¹èĩª":10574,"áī¾":10575,"straction":10576,"íĿł":10577,"è¿Ļå®¶":10578,"TB":10579,"íĨł":10580,"*\\":10581,"íķĺëĬĶ":10582,"ä¸ľé£İ":10583,"Ġparticular":10584,"rolling":10585,"æłļ":10586,"åª¶":10587,"Ġsmooth":10588,"åħ¬åı¸çļĦ":10589,"çŁİ":10590,"åİ¿å§Ķ":10591,"æ±ĤèģĮ":10592,"aph":10593,"uff":10594,"æ¼į":10595,"KU":10596,"reverse":10597,"ÑĸÐ´":10598,"Ġrespon":10599,"CLOUD":10600,"îħĲ":10601,"Ġbold":10602,"èĺĸ":10603,"ÖĬ":10604,"ĠCurrency":10605,"Ġcapabilities":10606,"ither":10607,"}}</":10608,"Reporter":10609,"Rel":10610,"ìľ":10611,"è¨£":10612,"Jr":10613,"åĢĴåħ¥":10614,"æĹ":10615,"Repeated":10616,"é³ª":10617,"Õı":10618,"äºĭå®ŀ":10619,"ĠSyn":10620,"æ¢ĳ":10621,"factor":10622,"addresses":10623,"Behaviour":10624,"åĬŁæķĪ":10625,"éĽ«":10626,"updated":10627,"ĠCALL":10628,"âĸł":10629,"ð¡İ":10630,"çīĽ":10631,"äº¦":10632,"îĪĤ":10633,"tt":10634,"è§Ħå¾ĭ":10635,"éīĺ":10636,"çĽĥ":10637,"çĿĢä½ł":10638,"ility":10639,"hwnd":10640,"}^{":10641,"board":10642,"Locale":10643,"Ġoverall":10644,"âĸ¾":10645,"âľ¥":10646,"Ġcommod":10647,"the":10648,"Gauge":10649,"æĵĭ":10650,"Æµ":10651,"åªĶ":10652,"ïĢ¨":10653,"çºļ":10654,"ïĴĲ":10655,"ĠSample":10656,"CAN":10657,"Som":10658,"çī":10659,"Ö·":10660,"é¸Ł":10661,"rada":10662,"ãģ®ãģ§":10663,"Ġ<!":10664,"Ġspecifies":10665,"ï¿°":10666,"å¢ĸ":10667,"Ġrepresenting":10668,"mz":10669,"ĠisValid":10670,"æĵĹ":10671,"æįĲæ¬¾":10672,"è¾ª":10673,"Ġcomput":10674,"åĪ£":10675,"[];":10676,"ç¿Ļ":10677,"çİ°éĩĳ":10678,"åı¯çĪ±çļĦ":10679,"ß»":10680,"ïĵķ":10681,"ftype":10682,"dustry":10683,"âŁ":10684,"ç©İ":10685,"ä¹ĭç±»çļĦ":10686,"æĭ¯æķĳ":10687,"Ġíĺ":10688,"molec":10689,"ĠpostsynapticPopulation":10690,"EXTINF":10691,"POLYGON":10692,"çļĦæķħäºĭ":10693,"áīĦ":10694,"ĠRep":10695,"tb":10696,"ä²":10697,"Ü½":10698,"éĽ³":10699,"å¤§ä½¬":10700,"subplot":10701,"5":10702,"ç¢ı":10703,"ĠSignature":10704,"â¸³":10705,"à°Į":10706,"âłī":10707,"è¯Ń":10708,"çµĮ":10709,"é¥±æ»¡":10710,"áł¨":10711,"ĠSTD":10712,"è§Ĳ":10713,"ä¹º":10714,"áĬ¤":10715,"éłŁ":10716,"enumerate":10717,"reach":10718,"projection":10719,"áļº":10720,"åĿķ":10721,"ïĩĻ":10722,"you":10723,"uts":10724,"ffc":10725,"Ġquickly":10726,"ìĭ¸":10727,"çĹ±":10728,"á³µ":10729,"å³½":10730,"uis":10731,"è°ĥæİ§":10732,"prompt":10733,"çįł":10734,"ez":10735,"ĠFirebase":10736,"ç¯ľ":10737,"åŁ»":10738,"åĬłå¤§":10739,"bm":10740,"Ġpure":10741,"Ì½":10742,"Ġplayers":10743,"input":10744,"æ¾£":10745,"Ã¤l":10746,"Ġpow":10747,"textbf":10748,"eid":10749,"ðŁª³":10750,"ðŁį´":10751,"xee":10752,"ĠLIMITED":10753,"æĿ¥çļĦ":10754,"çŀĵ":10755,"æĺ¯ä»Ģä¹Ī":10756,"ĠìĿ´":10757,"ê¸ĭ":10758,"â§į":10759,"ìħĺ":10760,"è°§":10761,"åĬ¶":10762,"âľ¯":10763,"Ġraise":10764,"Chat":10765,"Ġlabels":10766,"Ġf":10767,"ãĥķ":10768,"Ġtyping":10769,"ìľ¼ë¡ľ":10770,"IPv":10771,"æ´¾åĩºæīĢ":10772,"Resize":10773,"âŁ¶":10774,"èİĪ":10775,"agraph":10776,"çĭĴ":10777,"ĠUtility":10778,"á¹Ī":10779,"å¢ħ":10780,"æĵ¶":10781,"Ġexplicit":10782,"ews":10783,"å¯¼èĩ´çļĦ":10784,"arx":10785,"ãģ¦ãģĦ":10786,"Add":10787,"sale":10788,"è»Ĵ":10789,"Ġob":10790,"è»ĸ":10791,"/></":10792,"Division":10793,"uage":10794,"TEXT":10795,"æ°Ķè¡Ģ":10796,"åĵı":10797,"rut":10798,"è»ı":10799,"æĪĴ":10800,"ëħ¸":10801,"áħ«":10802,"Ã¼m":10803,"SCHED":10804,"å©ł":10805,"ãĢĦ":10806,"-":10807,"Åº":10808,"éĴ¹":10809,"æĨĴ":10810,"OrDefault":10811,"Ġgateway":10812,"å¹Ĺ":10813,"åħ´è¶£":10814,"åģ¢":10815,"ĠDeveloper":10816,"èĢ¤":10817,"present":10818,"åŁ·":10819,"flake":10820,"ã¶·":10821,"É´":10822,"îħĤ":10823,"à¼Ĭ":10824,"äº§ä¸ļåĽŃ":10825,"ĠPRECISION":10826,"å®»":10827,"æĤ¼":10828,"Ô¦":10829,"ãĶĲ":10830,"æ¦ľæł·":10831,"áĬĹ":10832,"íĤ¹":10833,"èĬľ":10834,"ł":10835,"čĊčĊĠĠĠĠĠ":10836,"ðŁĩ¼":10837,"Ġdefaults":10838,"Bec":10839,"éīĲ":10840,"}'.":10841,"è¡ĥ":10842,"å¤©":10843,"æĺ¹":10844,"æ¾¥":10845,"èįĴ":10846,"âĻļ":10847,"Mark":10848,"Ui":10849,"Ġiterate":10850,"Anim":10851,"UDA":10852,"Ġprze":10853,"addons":10854,"ç²Ħ":10855,"åıĭåľĪ":10856,"è¹Ķ":10857,"ĠFin":10858,"èĹ±":10859,"×į":10860,"ïĺĵ":10861,"ĠTor":10862,"à³Ħ":10863,"íĳĹ":10864,"Page":10865,"îĥ¹":10866,"å±Ĥ":10867,"Trust":10868,"Tk":10869,"à¸Ĭ":10870,"åĩĭ":10871,"Ðŀ":10872,"ç¿¬":10873,"çĳģ":10874,"ä¸Ģç¬Ķ":10875,"áŁ¹":10876,"ç°¤":10877,"äį©":10878,"èĪĪ":10879,"àŃĭ":10880,"îĺī":10881,"æ°ľ":10882,"ä¾ĽåºĶ":10883,"äºĨä¸Ģä¸ĭ":10884,"ðŁĶ§":10885,"çĪĴ":10886,"About":10887,"Ay":10888,"î¶":10889,"ä½ıå®ħ":10890,"ëµĲ":10891,"statements":10892,"ĠĠĠĠĊĠĠĠ":10893,"Ì®":10894,"éª¤":10895,"ìĿ¸":10896,"å±¤":10897,"å¤ĩ":10898,"ĠmÃ©todo":10899,"å¿±":10900,"ĠPerformance":10901,"è¢Ĩ":10902,"æ¼¡":10903,"è¯łéĩĬ":10904,"ĠÐ£":10905,"xeb":10906,"ä¸įå¤ļ":10907,"rolled":10908,"ç¾İå¥½çļĦ":10909,"Ġ*/}":10910,"ä½ľçī©":10911,"Ġaã":10912,"elif":10913,"åĲģ":10914,"æ¶½":10915,"Definition":10916,"ĠAF":10917,"åŃ¦çļĦ":10918,"calls":10919,"æĬ¥èŃ¦":10920,"ç¶Ĭ":10921,"æĸĩä¸Ń":10922,"ĠMetric":10923,"aming":10924,"Ġcommitted":10925,"ĠBatch":10926,"è¾ħåĬ©":10927,"LAY":10928,"cdd":10929,"âĨĵâĨĵâĨĵ":10930,"ĠBGCOLOR":10931,"æµģéĩı":10932,"ertext":10933,"synchron":10934,"Device":10935,"cad":10936,"Ġspectrum":10937,"\",\"":10938,"á¡Ĺ":10939,"áıĩ":10940,"Dan":10941,"áĢ¼":10942,"èĬĹ":10943,"ÛĬ":10944,"intr":10945,"ĠMarshal":10946,"î·¸":10947,"åĢ§":10948,"Ġbib":10949,"æ¥¾":10950,"åĸ°":10951,"æ±¦":10952,"åĪ¯":10953,"ĠInformationen":10954,"Ġbench":10955,"Ġhistory":10956,"Monitor":10957,"Ġæ·":10958,"Ġnullable":10959,"Ġcmp":10960,"StringBuilder":10961,"èı¾":10962,"ä°ķ":10963,"é²¯":10964,"æĵĲ":10965,"åıªæĺ¯":10966,"å¯¯":10967,"Ġvelocity":10968,"á¬µ":10969,"Ġfam":10970,"æĶĮ":10971,"ĠCOM":10972,"Ġmonth":10973,"Ġ{};":10974,"éļ¾é¢ĺ":10975,"ERE":10976,"ĠComputer":10977,"çļĥ":10978,"îĿ¬":10979,"ä½¿çĶ¨çļĦ":10980,"Ġenabled":10981,"è¡ı":10982,"é®³":10983,"â»Ĥ":10984,"ÄĻ":10985,"çĪĤ":10986,"sto":10987,"ç¹ĸ":10988,"çĶ¨èį¯":10989,"ensus":10990,"è§£æŀĲ":10991,"ç±¿":10992,"å¸¸å¹´":10993,"Ġcandidates":10994,"oyd":10995,"ĠHashSet":10996,"Ġsyscall":10997,"fact":10998,"Ġcanvas":10999,"å·¶":11000,"å¾ħ":11001,"Ġnec":11002,"(\"%":11003,"Leave":11004,"çįħ":11005,"si":11006,"Ġ(<":11007,"Ġspecifying":11008,"å¯Ī":11009,"ã»Ĩ":11010,"ç©Ŀ":11011,"venta":11012,"Ġfails":11013,"æĲĸ":11014,"è¤į":11015,"çĬĮ":11016,"æł¼å¤ĸ":11017,"æĴ°":11018,"é¯ĸ":11019,"Parse":11020,"Ġins":11021,"è§º":11022,"éĶĶ":11023,"å¿®":11024,"Îı":11025,"çĪ¥":11026,"æ¡Ĩæŀ¶":11027,"áĢŁ":11028,"ä¸Ķ":11029,"indicator":11030,"éŃ¸":11031,"ðłľ":11032,"çĹħæ¯Ĵ":11033,"wer":11034,"äİ½":11035,"çĪĺ":11036,"ê¦ı":11037,"foo":11038,"give":11039,"é³ľ":11040,"é·Ń":11041,"Ġretval":11042,"nlp":11043,"é¤Ń":11044,"ãĥĳ":11045,"Asp":11046,"ïĪ":11047,"çĶŁåĳ½":11048,"å¬ĳ":11049,"å±ĢéĿ¢":11050,"čĊĉĉĉĉĉ":11051,"èķĹ":11052,"invest":11053,"Ġzone":11054,"Ð¸ÑģÑĤ":11055,"allax":11056,"îģ£":11057,"Los":11058,"mess":11059,"[$]":11060,"Prob":11061,"Pp":11062,"äº¿åħĥ":11063,"å½":11064,"áĹ£":11065,"ïĴ¡":11066,"âģ¦":11067,"áħµ":11068,"è·ļ":11069,"encrypt":11070,"ĠSets":11071,"Subscription":11072,"circular":11073,"å¹§":11074,"Xd":11075,"apos":11076,"çªģ":11077,"ĠOH":11078,"ë£Į":11079,"æ¼Ķç»İ":11080,"Ex":11081,"Ä°":11082,"åĩ®":11083,"Ġ\"\"\"":11084,"Ġnick":11085,"Ġmutex":11086,"ã¹":11087,"åİ©":11088,"ç¡Ģ":11089,"Ġ')":11090,"Kernel":11091,",_":11092,"subs":11093,"íļ":11094,"fc":11095,"]/":11096,"Ġsvn":11097,"æŃ¸":11098,"èĢĥåīį":11099,"çīºçī²":11100,"ç´§å¯Ĩ":11101,"èĩªèº«çļĦ":11102,"ã¸½":11103,"é«Ħ":11104,"Ġ/><":11105,"ç¨»":11106,"æĺł":11107,"åīįæĻ¯":11108,"å½·":11109,"ç¬§":11110,"åį¸":11111,"ighth":11112,"åµİ":11113,"çĽĤ":11114,"Ġfrontend":11115,"æī£":11116,"íĤ¥":11117,"â¿¹":11118,"used":11119,"æŁ´":11120,"æĶ¶èĹı":11121,"ĠStrings":11122,"quot":11123,"toHaveBeen":11124,"æĴ·":11125,"').":11126,"CONSTFN":11127,"âĦ®":11128,"æľŁè´§":11129,"è¯·æ±Ĥ":11130,"urrent":11131,"æ°ĳ":11132,"Ġemployees":11133,"è£¬":11134,"ĠDy":11135,"Ġdistances":11136,"ORG":11137,"ax":11138,"GREEN":11139,"unction":11140,"toHave":11141,"Para":11142,"ç¥ļ":11143,"æĦģ":11144,"æĸ°æīĭ":11145,"ä»ĸè¯´":11146,"åľ¨åħ¨åĽ½":11147,"çĻĮçĹĩ":11148,"ä¹Į":11149,"åģļäºº":11150,"Spaces":11151,"åĭĮ":11152,"åªķ":11153,"éĿ·":11154,"seq":11155,"Ġopts":11156,"å§ģ":11157,"Ot":11158,"urney":11159,"âŃĨ":11160,"Ġhour":11161,"ç©¶æīĢ":11162,"Ġbutton":11163,"îħİ":11164,"èĭ¸":11165,"ìĥĺ":11166,"æ¦ĳ":11167,"éĦ§":11168,"ĠÐ¼Ð°":11169,"âłĶ":11170,"åĥ¥":11171,"ament":11172,"bitcoin":11173,"Ġdiscover":11174,"\"+":11175,"â¤ĵ":11176,"éªĩ":11177,"à¬¨":11178,"LC":11179,"NLS":11180,"è¥ĥ":11181,"ì«ĵ":11182,"fsm":11183,"DataStore":11184,"ïĬĸ":11185,"Èī":11186,"ðŁĳģ":11187,"ĠTypeScript":11188,"éŃ¢":11189,"ç¼Ĺ":11190,"uby":11191,"===========":11192,"âĿº":11193,"åºħ":11194,"éĹĢ":11195,"Exception":11196,"uncated":11197,"Received":11198,"Ġqual":11199,"Ġsphere":11200,"Initialized":11201,"å·¬":11202,"epi":11203,"ĠAgent":11204,"çĴ¼":11205,"Ġjs":11206,"áĽ«":11207,"ĠCS":11208,"çĽ¸ä¿¡":11209,"ĠÃ©s":11210,"Switch":11211,"Str":11212,"çĨ½":11213,">),":11214,"ĠclassName":11215,"ĠLaunch":11216,"arter":11217,"though":11218,"åĩĬ":11219,"â¿°":11220,"è¨ħ":11221,"æ¼¹":11222,"ÕĢ":11223,"ðŁħ£":11224,"éļĨ":11225,"è¥§":11226,"fails":11227,"ĠÐ¿Ð¾":11228,"Immutable":11229,"KB":11230,"èį¥":11231,"è¿ĺä¸į":11232,"å¸¦":11233,"ðŁĮĦ":11234,"Vars":11235,"åĶĿ":11236,"æ¾¿":11237,"êģ¡":11238,"âĢ":11239,"ĠSan":11240,"áĮ¢":11241,"çĵĤ":11242,"âľ¼":11243,"æ²¦":11244,"çĽ¸éģĩ":11245,"è¬ª":11246,"áķĳ":11247,"izen":11248,"èĹĦ":11249,"ç¹ģåįİ":11250,"BAC":11251,"ç¢ĸ":11252,"é·ĸ":11253,"ç³Ĺ":11254,"èĢĥéªĮ":11255,"MS":11256,"CUSTOM":11257,"ç¤Ļ":11258,"People":11259,"ç±º":11260,"exchange":11261,"Ġmarked":11262,"gres":11263,"æ¬§çĽŁ":11264,"ãŃ¨":11265,"brew":11266,"æ®ī":11267,"æľ·":11268,"cket":11269,"è¾ľ":11270,"é¦½":11271,"Ġrelatively":11272,"à¶ĵ":11273,"è¨ĥ":11274,"Mm":11275,"FFF":11276,"ĠMock":11277,"æĹ¯":11278,"èĲĶ":11279,"èĿ»":11280,"xdd":11281,"çī¹å®ļ":11282,"copy":11283,":&":11284,"Ëħ":11285,"æ¥ĳ":11286,"ä¸Į":11287,"åģĿ":11288,"Con":11289,"å¹ĩ":11290,"âĮį":11291,"åĵ²":11292,"Mod":11293,"Ġeditable":11294,"áŁĴ":11295,"ëłĢ":11296,"éµİ":11297,"ïĢ¯":11298,"}${":11299,"Ġbalance":11300,"å·ª":11301,"{\\\"":11302,"æ¡«":11303,"è§ģåĪ°":11304,"è½©":11305,"Ġìĥ":11306,"uring":11307,"och":11308,"QB":11309,"æ¸Ī":11310,"ĠIndexes":11311,"å«Į":11312,"Vtbl":11313,"æĬĵèİ·":11314,"èŀ¦":11315,"éģ½":11316,"íı¬":11317,"à½ģ":11318,"ðĵĢģ":11319,"çĳ³":11320,"Ġlong":11321,"FIXED":11322,"èı¹":11323,"ç¡¶":11324,"Utf":11325,"çŁŃæļĤ":11326,"Í¢":11327,"é´º":11328,"æīĢèĥ½":11329,"è¤ĺ":11330,"é¢ª":11331,"ĠCode":11332,"ðĳĳĤ":11333,"ĠMessage":11334,"Che":11335,"valor":11336,"æ²»çĲĨ":11337,"TERM":11338,"iÃ³":11339,"ko":11340,"Ġdiscus":11341,"Ġrc":11342,"Ġsemantic":11343,"Ġ($(":11344,"alpine":11345,"æĹĵ":11346,"æĶ»åĩ»":11347,"Ġub":11348,"ïŁĨ":11349,"æ²ŁéĢļ":11350,"ë°Ľ":11351,"ÕĿ":11352,">>":11353,"ĠPlease":11354,"ĠFIX":11355,"µ¬":11356,"åģļäºĭ":11357,"ĊĠĠĠĠĠĠĠĠĠĠĠĠĠ":11358,"Prox":11359,"çı©":11360,"Ob":11361,"cipient":11362,"Ġretrieved":11363,"Ġmanually":11364,"ĠCOL":11365,"Ġsel":11366,"åŀŀ":11367,"îĥĢ":11368,"æĺĨæĺİ":11369,"æĢ»çĽĳ":11370,"documentation":11371,"Ġ(&":11372,"ÒĦ":11373,"cope":11374,"pent":11375,"æ¸½":11376,"sprintf":11377,"Ä¢":11378,"Ġformula":11379,"è¿¡":11380,"çµŀ":11381,"]['":11382,"Ðĵ":11383,"æľµ":11384,"cloned":11385,"åĲī":11386,"abil":11387,"metadata":11388,"badges":11389,"JOIN":11390,"$$":11391,"Sh":11392,"Ġ(#":11393,"ceive":11394,"ïĨľ":11395,"è®Ŀ":11396,"ïģ°":11397,"æ°ª":11398,"learn":11399,"ä»»ä½ķ":11400,"çģª":11401,"åĵģè´¨":11402,"æģĲæĥ§":11403,"Version":11404,"éĤ°":11405,"èĥģ":11406,"ç¬¾":11407,"èĨ´":11408,"âłŀ":11409,"mime":11410,"Ġzum":11411,"æįª":11412,"ç¦¡":11413,"ullong":11414,"Consent":11415,"ç¥´":11416,"åĺ¿":11417,"dec":11418,"æĻ¿":11419,"éĮĭ":11420,"expires":11421,"asar":11422,"âĨŀ":11423,"ç¿½":11424,"ragment":11425,"rain":11426,"èĪĮ":11427,"alo":11428,"ACCESS":11429,"åĶł":11430,"à¤ī":11431,"å¸¼":11432,"åĭº":11433,"é·¾":11434,"è»¦":11435,"latin":11436,"ç°»":11437,"éģª":11438,"Ġcontainers":11439,"è¨ĭ":11440,"rio":11441,"ç®ī":11442,"æ¯Ľæ³½":11443,"ä¼¤åı£":11444,"âĤµ":11445,"mtx":11446,"Available":11447,"éĴ°":11448,"åŀļ":11449,"æĹĦ":11450,"Birth":11451,"ĠResource":11452,"èĹĴ":11453,"æĤĻ":11454,"original":11455,"æĥ³":11456,"Ġmetadata":11457,"Ġtile":11458,"itial":11459,"âłĹ":11460,"ĠPlay":11461,"æ¢¡":11462,"enÃŃ":11463,"ëµĻ":11464,"áīķ":11465,"ç¶±":11466,"æĢ§çļĦ":11467,"çļĦä½¿":11468,"grow":11469,"îıĩ":11470,"áģİ":11471,"áİ¶":11472,"ç£Į":11473,"TEMP":11474,"fid":11475,"Team":11476,"æµº":11477,"iration":11478,"iper":11479,"street":11480,"ç¹µ":11481,"æĽ²":11482,"Ûł":11483,"é£Łæ¬²":11484,"oko":11485,"ïģ§":11486,"SERIALE":11487,"äĦª":11488,"å®ŀçļĦ":11489,"Ġoutgoing":11490,"çĲ°":11491,"æİĭ":11492,"enterprise":11493,"éĩĪ":11494,"Ġbed":11495,"Sky":11496,"bc":11497,"getY":11498,"ä»ĺå®Ŀ":11499,"åĨĴ":11500,"æĽĿåħī":11501,"romium":11502,"ĠKafka":11503,"ÎŁ":11504,"è¨«":11505,"éĺł":11506,"ç¹Į":11507,"éĿĻèĦī":11508,"Ġfar":11509,"oval":11510,"printf":11511,"Ġ`-":11512,"é¢¼":11513,"ç°¿":11514,"æ¨§":11515,"ç«Ŀ":11516,"uses":11517,"Ġcalculation":11518,"URATION":11519,"è¡Ĥ":11520,"êı®":11521,"ĠCompare":11522,"uir":11523,"èĨ°":11524,"Son":11525,"What":11526,"Ġlon":11527,"å¯¶":11528,"êĨ£":11529,"éıĶ":11530,"çĸģ":11531,"ĠEnergy":11532,"Partitions":11533,"ç¥¢":11534,"âļŁ":11535,"åħĥçļĦ":11536,"Ġbases":11537,"çļĦåŃ¦":11538,"íŀī":11539,"ĠOpenGL":11540,"ìĤ":11541,"Our":11542,"éŀ¤":11543,"Ġmeans":11544,"åĪĴåĪĨ":11545,"ç¯¦":11546,"Ġinterest":11547,"æ¬Ļ":11548,"æ¶¶":11549,"çļľ":11550,"ELDS":11551,"è»«":11552,"Ġavailable":11553,"é·Ĭ":11554,"ç»¡":11555,"æ´¥å¸Ĥ":11556,"Less":11557,"é«ħ":11558,"ç¾Ī":11559,"Ġâ§º":11560,"êĮħ":11561,"èĽĬ":11562,"navigate":11563,"Ġowner":11564,"èĢª":11565,"Ġgrupo":11566,"çļĦä»·æł¼":11567,"acob":11568,"GDAL":11569,"æŃĪ":11570,"Ġhexadecimal":11571,"âİª":11572,"ðŁĨĸ":11573,"Ġoptimization":11574,"Ġoperand":11575,"åĵ®":11576,"e":11577,"mat":11578,"tempts":11579,"à¨ĺ":11580,"urer":11581,"Writer":11582,"ä¸Ĭæĸ¹":11583,"åºĲ":11584,"é¸Ĩ":11585,"Port":11586,"îĤ²":11587,"èĦı":11588,"æ«»":11589,"setting":11590,"âłĤ":11591,"éµ³":11592,"éģĵçĲĨ":11593,"ä¸ĭæĹ¬":11594,"åĮŀ":11595,"èĭĴ":11596,"LAPACKE":11597,"Identity":11598,"GitHub":11599,"çŁĳ":11600,"ĠLoad":11601,"YI":11602,"gener":11603,"ç´į":11604,"åħ¥å¢ĥ":11605,"ĠèĢģ":11606,"ðĸł":11607,"æ¼ħ":11608,"îĪ±":11609,"EOL":11610,"éĲŃ":11611,"åģļä¸Ģ":11612,"Cle":11613,"áĥ¶":11614,"åķĿ":11615,"îĤ¨":11616,"names":11617,"ïĮİ":11618,"éĶ¶":11619,"ĠOct":11620,"æľĢä¸º":11621,"æ´»ä¸Ń":11622,"ĠCompany":11623,"pool":11624,"çµ§":11625,"Ġdin":11626,"dup":11627,"èĦĢ":11628,"COMP":11629,"enci":11630,"åŁĲ":11631,"âĪĺ":11632,"å¤ģ":11633,",.":11634,"ç³":11635,"Î¦":11636,"éĳ«":11637,"íĸĪ":11638,"Ġweighted":11639,"âĹ¯":11640,"\\\",\\":11641,"ĠInclude":11642,"ornia":11643,"æħ¯":11644,"æªķ":11645,"å¼Ń":11646,"åĲīç¥¥":11647,"ä¼²":11648,"åİ¿åŁİ":11649,"îĽ´":11650,"å³":11651,"èĵĮ":11652,"æĹĭ":11653,"ç©ĸ":11654,"âģĿ":11655,"ro":11656,"Ġfinish":11657,"FFFF":11658,"DAL":11659,"Medium":11660,"ĊĠĠĠĠĠĠĠĠĉ":11661,"ows":11662,"ðĵĢĭ":11663,"='/":11664,"ÑĤÐ²":11665,"png":11666,"è¨Ń":11667,"éºĨ":11668,"corp":11669,"baseUrl":11670,"(\"__":11671,"ðĳĦŀ":11672,"Ġtxn":11673,"æĮĬ":11674,"Load":11675,"ĠSpecify":11676,"è¾Ī":11677,"ä¾ľ":11678,"incip":11679,"ç°¦":11680,"ðŁĹĹ":11681,"ðŁĴ©":11682,"é®ĥ":11683,"îłĭ":11684,"ç¦¯":11685,"è¤Ĵ":11686,"âĿī":11687,"H":11688,"getChild":11689,"Post":11690,"é«ĺæ¸©":11691,"ĠSU":11692,"Ġcor":11693,"Ùĥ":11694,"Ġminim":11695,"è¹Ľ":11696,"ysqli":11697,"ç¼ł":11698,"ç´¢å¼ķ":11699,"WV":11700,"åĤ£":11701,"éĩįçĸ¾":11702,"éģĸ":11703,"---------":11704,"Ġviews":11705,"âļĨ":11706,"èĲł":11707,"éĩįå¤§":11708,"æģĳ":11709,"åŃĹä½ĵ":11710,"ijn":11711,"èĺ¯":11712,"PUB":11713,"acles":11714,"Ġnotice":11715,"LT":11716,"pkt":11717,"äľ£":11718,"IGN":11719,"Functional":11720,"àºľ":11721,"éĶ¹":11722,"éĥ½ä¸įèĥ½":11723,"provide":11724,"Drive":11725,"ĠTranslate":11726,"é¢ł":11727,"free":11728,"colate":11729,"èĿĤ":11730,"å°Ľ":11731,"IND":11732,"ticket":11733,"stored":11734,"ðŁĴŀ":11735,"ðŁ¥º":11736,"Ġlinked":11737,"ïĥĴ":11738,"å¾Īå¥½":11739,"é»¡":11740,"ðŁļİ":11741,"à¬ĺ":11742,"ERRUP":11743,"è¥ĳ":11744,"çģ±":11745,"å³ľ":11746,"ä¿¤":11747,"èµľ":11748,"ĠCSS":11749,"Ġshader":11750,"Cleanup":11751,"+)":11752,"îĽİ":11753,"ä¸ĭæĿ¥çļĦ":11754,"é¬ĥ":11755,"çĵĹ":11756,"COMMIT":11757,"æºŀ":11758,"å¿ħå¤ĩ":11759,"lcsStatus":11760,"ĠAdjust":11761,"agenta":11762,"Ġč":11763,"Ġrecognize":11764,"Ġjar":11765,"à¾µ":11766,"æºı":11767,".'\"":11768,"Ġsmall":11769,"âĻĭ":11770,"Ġwords":11771,"çħ°":11772,"çļ²":11773,"Ġäºº":11774,"setLayout":11775,"IW":11776,"éĶĸ":11777,"BAR":11778,"æŁĮ":11779,"ooled":11780,"task":11781,"æĽ´å®¹":11782,"ĊĊĉĉĉĉ":11783,"éıº":11784,"âĨŁ":11785,"éīī":11786,"è¹·":11787,"UDING":11788,"handled":11789,"Ubuntu":11790,"ç¾¾":11791,"à³Ģ":11792,"çº¯ç²¹":11793,"èĬĻ":11794,"ĠendDate":11795,"àº¸":11796,"uite":11797,"çĥĵ":11798,"åµĪ":11799,"ButtonText":11800,"prime":11801,"âľ´":11802,"à¯º":11803,"ç¿³":11804,"Aud":11805,"éĨĩ":11806,"dao":11807,"êħ°":11808,"horizontal":11809,"ì¡Į":11810,"jump":11811,"ĠCOMP":11812,"Ġä»ĬæĹ¥":11813,"CHANGE":11814,"ç¡¬":11815,"é¹Ģ":11816,"çĻ»":11817,"ä½łåĸľæ¬¢":11818,"ĠEST":11819,"iddle":11820,"Tv":11821,"OM":11822,"cef":11823,"à¸©":11824,"çĵ¬":11825,"ç¦Ľ":11826,"èķľ":11827,"ÜĶ":11828,"Desc":11829,"æ¬Ń":11830,"ĠHe":11831,"â§Ĺ":11832,"âĶ®":11833,"olg":11834,"Ġcommand":11835,"å°¡":11836,"î¤Ļ":11837,"é´Ħ":11838,"Ġcompleted":11839,"èĨŃ":11840,"à«´":11841,"ä¸įèī¯":11842,"ç²½":11843,"è¾ĸå¸Ĥ":11844,"ĠVariables":11845,"ç¡ķ":11846,"-\">":11847,"arg":11848,"Âł":11849,"å±¶":11850,"Ġdeleted":11851,"âĩ¢":11852,"áĬĪ":11853,"ìĺ»":11854,"éĿĩ":11855,"èµĿ":11856,"without":11857,"çįķ":11858,"Decoder":11859,"çĬĨ":11860,"Foundation":11861,"å¹¿ä¸ľ":11862,"âĢ½":11863,"ðŁĳ½":11864,"ISTR":11865,"ëİħ":11866,"read":11867,"Unauthorized":11868,"TML":11869,"é©Ļ":11870,"ĠÑĤÐ¾":11871,"æ¨¸":11872,"WT":11873,"Ð¸ÑĤ":11874,"æŃĩ":11875,"çĩĭ":11876,"è¦¶":11877,"Ġtr":11878,"ĠStop":11879,"à¦Ĳ":11880,"ðŁ§Ī":11881,"categoria":11882,"å¸ĤæĶ¿":11883,"Óı":11884,"çĴĢ":11885,"ĊĉĠĠĠ":11886,"æ½ł":11887,"ïĤŀ":11888,"äŃ¾":11889,"æ¦Ń":11890,"å¢£":11891,"inheritDoc":11892,"åħ¥ä½ı":11893,"êĲģ":11894,"+-+-+-+-":11895,"êģ¨":11896,"âŀĦ":11897,"ëĤ³":11898,"sect":11899,"ëĴĢ":11900,"è¼¬":11901,"LAT":11902,"ã¸":11903,"https":11904,"Ġmatrices":11905,"éĶŃ":11906,"ç£ł":11907,"æıĢ":11908,"ĠCAST":11909,"Ġconvenience":11910,"çĻ§":11911,"manual":11912,"êĪı":11913,"áµ²":11914,"SA":11915,"æ¸ĺ":11916,"åľ±":11917,"Ġles":11918,"works":11919,"ä¸Ĭæµ·":11920,"uga":11921,"éĴŃ":11922,"åı³çļĦ":11923,"ĊĊĠĠĠĠĠĠĠĠĠĠĠĠĠĠĠ":11924,"ðĳĢ":11925,"ïľµ":11926,"ä¸ĢåĲį":11927,"ÛĪ":11928,"éµĥ":11929,"ç¥µ":11930,"æ®Ĭ":11931,"PLE":11932,"éĮľ":11933,"ðŁİĹ":11934,"æħ»":11935,"ç·Ĩ":11936,"å·Ģ":11937,"åĪı":11938,"åª»":11939,"å³ĩ":11940,"Ġstartup":11941,"ĠLu":11942,"ĠWHETHER":11943,"æĮ¢":11944,"æŀŀ":11945,"ç¨ĭä¸Ń":11946,"ĊĊĉĉĉ":11947,"ÉŁ":11948,"Ġare":11949,"ïļĻ":11950,"ãĤ¢ãĥĹãĥª":11951,"åģ±":11952,"ĠåĽłä¸º":11953,"ffi":11954,"KNOWN":11955,"æĵĬ":11956,"é¥°æ¼Ķ":11957,"ëĦĺ":11958,"éģ¦":11959,"iming":11960,"haus":11961,"èļ¢":11962,"Òģ":11963,"riends":11964,"itespace":11965,"îł¥":11966,"ç£§":11967,"Interop":11968,"æ§µ":11969,"Acquire":11970,"è®Ģ":11971,"Ġ}</":11972,"vÃ¡":11973,"Ġheat":11974,"íĮ¬":11975,"áĮĮ":11976,"æŁ»":11977,"åĴĩ":11978,"âīĲ":11979,"ðŁıı":11980,"ç¯Ĵ":11981,"æį°":11982,"ç¨Ĥ":11983,"ä¸ĢçĽ´":11984,"geometry":11985,"essor":11986,"Pub":11987,"èīķ":11988,"ç¦į":11989,"Ò¶":11990,"áºĸ":11991,"replacement":11992,"èľĮ":11993,"æĶĺ":11994,"umul":11995,"åĢ·":11996,"à§¦":11997,"Ġindexing":11998,"NN":11999,"noise":12000,"âĭĭ":12001,"ãģ¹":12002,"Ġ%":12003,"âīĴ":12004,"Ġfraction":12005,"MIL":12006,"È¨":12007,"æĪĲç«ĭ":12008,"Versions":12009,"userName":12010,"à¯İ":12011,"éĦŃ":12012,"äķ«":12013,"ä½¢":12014,"ä¸ĢæıĲ":12015,"è±Ķ":12016,"äł°":12017,"url":12018,"ĠXXX":12019,"xae":12020,"ĠareaCode":12021,"éĹ§":12022,"Bond":12023,"å¢ŀ":12024,"Ġcenter":12025,"ä¿®æĶ¹":12026,"ä´":12027,"âļĲ":12028,"àŃĩ":12029,"Ãĳ":12030,"Ġmyself":12031,"èĽ¯":12032,"æ°ĳä¸»":12033,"Ġ''":12034,"ĠAS":12035,"=[":12036,"ðŁ§":12037,"BK":12038,"î¸Ń":12039,"è¥²":12040,"Â»":12041,"ĠSYS":12042,"ç°Ń":12043,"æľ¯çļĦ":12044,"éĿĴå¹´":12045,"Workspace":12046,"AAA":12047,"Pose":12048,"êļį":12049,"bi":12050,"Unmarshaller":12051,"éĨĴæĿ¥":12052,"æº¿":12053,"tables":12054,"éĳĸ":12055,"Ġant":12056,"ðŁİ¦":12057,"æ«Ģ":12058,"Ġdemon":12059,"ĠBar":12060,"Ġunnecessary":12061,"Ö¸":12062,"Ġup":12063,"bund":12064,"çķ¼":12065,"CERT":12066,"â¤Ĭ":12067,"èľħ":12068,"ïĴĺ":12069,"ãĢĪ":12070,"Ġsmallest":12071,"Third":12072,"êĴĴ":12073,"èľŁ":12074,"îĤĮ":12075,"scripts":12076,"ä½ĵ":12077,"aw":12078,"çĹĩçĬ¶":12079,"è»¤":12080,"nullable":12081,"èĦ¾":12082,"é¬ľ":12083,"RESH":12084,"å®¶çĶµ":12085,"Ġglobal":12086,"åŁ¯":12087,"asm":12088,"ðŁª":12089,"our":12090,"å¿¨":12091,"åļĳ":12092,"è°®":12093,"âİĿ":12094,"éķĮ":12095,"merce":12096,"primary":12097,"Ġsynchronous":12098,"multiply":12099,"layouts":12100,"Aff":12101,"rok":12102,"yyDollar":12103,"æĨħ":12104,"cap":12105,"very":12106,"ĠBASIS":12107,"Üĥ":12108,"Ġderiv":12109,"æµī":12110,"Ġuploaded":12111,"à¤¥":12112,"ĠHAL":12113,"ç««":12114,"å¯¹æīĭ":12115,"åĽº":12116,"çį±":12117,"ïģħ":12118,"éĮ¤":12119,"ôĢĨ":12120,"ĠDecode":12121,"êĲ±":12122,"Ġexpecting":12123,"å¾ł":12124,"åģĽ":12125,"@":12126,"ìĻ¸":12127,"åĢ¾":12128,"ĠErrInvalidLength":12129,"æª©":12130,"éĳ¹":12131,"cog":12132,"èº«æĿĲ":12133,"çİ´":12134,"èµ¶ç´§":12135,">/":12136,"Ġquis":12137,"ired":12138,"ENCE":12139,"åľģ":12140,"é»ĳèī²":12141,"å¥¶èĮ¶":12142,"éĦŁ":12143,"servers":12144,"é·¢":12145,"ListView":12146,"gyp":12147,"é»Ķ":12148,"à¦¶":12149,"çĥŃçº¿":12150,"ä¡¶":12151,"åıªæľī":12152,"æ¯ĽçĹħ":12153,"Ġ&[":12154,"ôĢĤ":12155,"áĪĨ":12156,"çĥĪ":12157,"Top":12158,"á²ª":12159,"Infinity":12160,"Ġoverload":12161,"æ¾¹":12162,"èł§":12163,"Ġtheta":12164,"à¨£":12165,"î¤¬":12166,"fore":12167,"flater":12168,"ìĸĮ":12169,"ord":12170,"åĩĨ":12171,"åĨĤ":12172,"Ġ([]":12173,"èļº":12174,"CHARACTER":12175,"âīº":12176,"©":12177,"FB":12178,"Introduction":12179,"å¹ı":12180,"ĠCSV":12181,"èĿ¿":12182,"Ġavoid":12183,"ä¸įéĻĲ":12184,"ê±·":12185,"æĪĲå°±":12186,"jee":12187,"MH":12188,"éİĭ":12189,"î¡ł":12190,"çĵª":12191,"ì¶§":12192,"ä¿Ń":12193,"èľ¢":12194,"æ¤ģ":12195,"ĠMail":12196,"å¤ĺ":12197,"Ġ$\"{":12198,"èĥİ":12199,"ðŁ¤¡":12200,"æķ¢äºİ":12201,"ĠÂ»":12202,"é·¨":12203,"Ġ*>(":12204,"Persistent":12205,"stringstream":12206,"ibus":12207,"æĺ¯æ²¡":12208,"CLC":12209,"ç¦»èģĮ":12210,"HEN":12211,"Ġmemcpy":12212,"Ġelectron":12213,"æ±Ħ":12214,"site":12215,"ç²Ĺ":12216,"æ¥ħ":12217,"åı£ç½©":12218,"æł¡å¤ĸ":12219,"Ä±ÅŁ":12220,"Ġtodo":12221,"Û«":12222,"empresa":12223,"æ¥Ĵ":12224,"ïĸĪ":12225,"Ġrepro":12226,"ftware":12227,"é¯´":12228,"onent":12229,"å¤Ĥ":12230,"åĢ¦":12231,"çģ«éĶħ":12232,"î¦£":12233,"UA":12234,"httpClient":12235,"ĠTo":12236,"ç®ª":12237,"åµ±":12238,"Ġnt":12239,"ðŁªĻ":12240,"macros":12241,"ĠShe":12242,"ĠD":12243,"loads":12244,"nih":12245,"Road":12246,"é±Ŀ":12247,"ì£¼":12248,"åį«":12249,"éĹ®æĪĳ":12250,"csi":12251,"ç®º":12252,"orm":12253,">\\":12254,"ĠTypeError":12255,"îįµ":12256,"æ´©":12257,"åİĿ":12258,"à¼¦":12259,"expire":12260,"ç¿°":12261,"æļ§":12262,"çī©ä¸ļ":12263,"è¡³":12264,"Ġavatar":12265,"Ġnotation":12266,"sigma":12267,"çĸ»":12268,"é±ľ":12269,"ĠGR":12270,"peg":12271,"éŃ±":12272,"\"@":12273,"PACK":12274,"å±½":12275,"Ġimplicit":12276,"Door":12277,"loor":12278,"Ġquiet":12279,"æī¸":12280,"çĥ«":12281,"texttt":12282,"Cast":12283,"éľ§":12284,"éĸĽ":12285,"ĠFill":12286,"æĺ³":12287,"BSD":12288,"toString":12289,"GridView":12290,"CheckBox":12291,"icipant":12292,"ãµĺ":12293,"éĪĭ":12294,"Ø§ÙĨ":12295,"analy":12296,"å©¢":12297,"Ġthumb":12298,"ĠëĲ":12299,"ç²Ĩ":12300,"Depth":12301,"ðŁĮĨ":12302,"åĽ¾ä¹¦é¦Ĩ":12303,"Args":12304,"VAL":12305,"à§®":12306,"Ġsafe":12307,"Initialize":12308,"ã©Ĥ":12309,"sex":12310,"æ¬ģ":12311,"æŃ£éĿ¢":12312,"à¸µà¹Ī":12313,"è°¼":12314,"è¯Ł":12315,"à¿Ķ":12316,"áįĩ":12317,"é·«":12318,"Just":12319,"rpm":12320,"çĹ¸":12321,"æ²¼":12322,"Fa":12323,"æłĴ":12324,"ï¿":12325,"ä¾Ķ":12326,"æĥ¡":12327,"Sans":12328,"Ġscaling":12329,"dhcp":12330,"è¶¤":12331,"áĢİ":12332,"â´»":12333,"åŃ²":12334,"=\"../../../../../":12335,"yes":12336,"ìĽ":12337,"ë½ķ":12338,"åļ²":12339,"ëķĭ":12340,"èĦ´":12341,"æ³°":12342,"é³«":12343,"æĲºå¸¦":12344,"FUNC":12345,"ïĩŃ":12346,"çĬ¶åĨµ":12347,"ĠsetState":12348,"Ġmv":12349,"ïĴ¸":12350,"æ¼«":12351,"ç¹Ģ":12352,"å¢Ĵ":12353,"éĽŃ":12354,"êĢĥ":12355,"ishes":12356,"â®¤":12357,"éļ£":12358,"äººåĴĮ":12359,"å´Ľ":12360,"èĶ¨":12361,"ÊĶ":12362,"è´´":12363,"ql":12364,"ä¶Ľ":12365,"Enumerator":12366,"èĬĪ":12367,"âĶģâĶģ":12368,"ìķħ":12369,"æĭĨéĻ¤":12370,"éĮĬ":12371,"éĿ©":12372,"å¡¿":12373,"éĴ®":12374,"ç²¾éĢī":12375,"çĦ¦çĤ¹":12376,"def":12377,"âĩ¹":12378,"ç¯Ĥ":12379,"ä¼łåªĴ":12380,"åĹĤ":12381,"ipo":12382,"Ġaws":12383,"éİĥ":12384,"Ð¾Ñĩ":12385,"å°±æľī":12386,"èª°":12387,"Ġìĭ":12388,"Ġgenerate":12389,"Ġfactors":12390,"îĥ¸":12391,"è·±":12392,"á¡¤":12393,"åĻķ":12394,"ÚĿ":12395,"ĠClip":12396,"å¸ĺ":12397,"Ġsegu":12398,"ĠCarbon":12399,"âĶ³":12400,"Undef":12401,"Ġbounds":12402,"References":12403,"Client":12404,"Ev":12405,"forced":12406,"é¶ī":12407,"æħ¸":12408,"äºīåĬĽ":12409,"ä¸ĭä¸ĢæŃ¥":12410,"éī°":12411,"åĺ¬":12412,"ãĸİ":12413,"Ġslight":12414,"Ġinp":12415,"ĠTu":12416,"æ¤ĩ":12417,"Parameter":12418,"rl":12419,"à¡³":12420,"ç®Ĺæ³ķ":12421,"äºĮç»´":12422,"anh":12423,"æļ¥":12424,"ïĶ¨":12425,"Ġconversation":12426,"æ§±":12427,"æĮ":12428,"ç§Ľ":12429,"Ĵ":12430,"çº³ç¨İäºº":12431,"èĤľ":12432,"æ°´æŀľ":12433,"åĥ¬":12434,"é¾Ļ":12435,"éª":12436,"!</":12437,"ErrUnexpectedEOF":12438,"beb":12439,"ĠCmd":12440,"èĺĵ":12441,"±Ð¾ÑĤ":12442,"++++++++":12443,"%\\":12444,"æĿĶ":12445,"={\"":12446,"č":12447,"Ġdump":12448,"CASCADE":12449,"ãĺŀ":12450,"Ã¡s":12451,";\"><":12452,"èĤ¡ä¸ľ":12453,"releases":12454,"é¾Ĺ":12455,"èĲħ":12456,"uploads":12457,"signal":12458,"Skill":12459,"ä°":12460,"æ¯¬":12461,"è¡¥åĬ©":12462,"pull":12463,"æ²½":12464,"å°¢":12465,"ç¬¬åĽĽ":12466,"èĿŁ":12467,"ãĩĳ":12468,"$(\"#":12469,"ä½łä¸į":12470,"ãģķãģĦ":12471,"Éī":12472,"/_":12473,"ĠGLint":12474,"WI":12475,"AND":12476,"æ¯įäº²":12477,"åģĩæľŁ":12478,"digital":12479,"istogram":12480,"â¸į":12481,"å¢ģ":12482,"logrus":12483,"ĠÅŁ":12484,"éĶį":12485,"æİ¥åıĹ":12486,"Ġsign":12487,"ically":12488,")])":12489,"ç¥»":12490,"èĩªçĦ¶":12491,"mkr":12492,"Ġpartial":12493,"åĬŁçļĦ":12494,"rray":12495,"Panel":12496,"Segment":12497,"Ã¬":12498,"compiler":12499,"æ°¿":12500,"éŃŀ":12501,"New":12502,"è¥®":12503,"á´Ħ":12504,"ä¿Ĩ":12505,"åģĺ":12506,"Ġpod":12507,"findById":12508,"èŀľ":12509,"æĹĸ":12510,"pixels":12511,"ĠHer":12512,"æĽĬ":12513,"ïİŁ":12514,"Multiple":12515,"ç»Īç©¶":12516,"âĮĵ":12517,"VAR":12518,"èºģ":12519,"î¶ĩ":12520,"čĊĉĉĉĉĉĉĉ":12521,"Ġescape":12522,"ì§ĳ":12523,"ëĵł":12524,"éĿ¬":12525,"sn":12526,"specs":12527,"å¬¹":12528,"æķ£":12529,"Õī":12530,"åĶŁ":12531,"ïĺ«":12532,"åĢĴ":12533,"wic":12534,"ïĳ®":12535,"ïĴĳ":12536,"æħĶ":12537,"Ġraised":12538,"éĺ«":12539,"æµ³":12540,"éĵ¯":12541,"îīį":12542,"igr":12543,"ãĥ¼ãĤ":12544,"egg":12545,"å¢Ĺ":12546,"ì¹©":12547,"á¿·":12548,"qa":12549,"îĤº":12550,"}/":12551,"ç²ĸ":12552,"è®Ĥ":12553,"ê°ĳ":12554,"â´¸":12555,"Ġwar":12556,"è²ħ":12557,"è·¶":12558,"dv":12559,"èĸĪ":12560,"ç¼ķ":12561,"æĩ¥":12562,"AreEqual":12563,"á´©":12564,"ĠÐ¿Ð¾Ð»":12565,"ocÃª":12566,"àª²":12567,"åĢ¡":12568,"æ«Ĩ":12569,"Stmt":12570,"ĠCalculate":12571,"ìħľ":12572,"ubuntu":12573,"Èĵ":12574,"ïĲ±":12575,"é¼Į":12576,"é¬ħ":12577,"èº«ä»½":12578,"Ġimpossible":12579,"çľ§":12580,"å¬Ħ":12581,"tokenizer":12582,"àµº":12583,"âĽ·":12584,"éĨ¹":12585,"ç¾¼":12586,"ä½İå¤´":12587,"UnexpectedEOF":12588,"}}\">":12589,"æ¤¼":12590,"çĮªä»·":12591,"æ¨¶":12592,"Break":12593,"zo":12594,"æ¯ıå¹´":12595,"åĽļ":12596,"îĺµ":12597,"éĩĩè®¿":12598,"hamcrest":12599,"æºĭ":12600,"åŃĨ":12601,")+":12602,"ç§į":12603,"'].'":12604,"åĶ²":12605,"æ¡©":12606,"è¿ĩå¤ļ":12607,"Priority":12608,"èĺĮ":12609,"RESP":12610,"æĻ®éĢļè¯Ŀ":12611,"æľīçļĦäºº":12612,"Ġåľ¨":12613,"å½Ĺ":12614,"OPTIONS":12615,"Rotation":12616,"éĳļ":12617,"ïľ±":12618,"ĠSorry":12619,"PEND":12620,"ĠuÅ¼y":12621,"ç¦Ĩ":12622,"ì¿¤":12623,"æ¤³":12624,"cestor":12625,"ê²°":12626,"å§Ķåĳĺ":12627,"ĠSo":12628,"ĠFUNCTION":12629,"èŁ":12630,"å£ģ":12631,"æĦ":12632,"æŃ¨":12633,"ĠPYG":12634,"âĬľ":12635,"Ġlocate":12636,"äĵ¯":12637,"âĥĸ":12638,"åķ¯":12639,"çģİ":12640,"è¶¿":12641,"æĭĽåĭŁ":12642,"generator":12643,"èĤ¦":12644,"ç·Ķ":12645,"CD":12646,"åĴª":12647,"Mt":12648,"çª·":12649,"ç»¬":12650,"ä¿ĥè¿Ľ":12651,"çīĬ":12652,"Ġmedi":12653,"Äµ":12654,"ÚŁ":12655,"ï¼ļ</":12656,"êĻ¨":12657,"First":12658,"Ġconsume":12659,"æį¦":12660,"ĠLess":12661,"elem":12662,"Parallel":12663,"çĹľ":12664,"ðŁħ":12665,"å¶į":12666,"remarks":12667,"è¼ª":12668,"âįº":12669,"ile":12670,"Jar":12671,"Ġrights":12672,"FXML":12673,"description":12674,"æłĿ":12675,"ĠRaise":12676,"æĿ®":12677,"å®³":12678,"åĤĪ":12679,"Ġcourse":12680,"çĨ¹":12681,"æ´Ĵ":12682,"Qg":12683,"Adding":12684,"è±¨":12685,"ĠÑĤ":12686,"Nic":12687,"change":12688,"çŁ®":12689,"îģĿ":12690,"æ±ī":12691,"è®ħ":12692,"åıĳçĥŃ":12693,"çŀ¢":12694,"TP":12695,"éįĽ":12696,"XG":12697,"çĸ¤":12698,"Ġservice":12699,"çįĨ":12700,"è§İ":12701,"Ġocr":12702,"Ġmin":12703,"verride":12704,"Refer":12705,"JQ":12706,"åĨħå®¹":12707,"liche":12708,"çİ½":12709,"LICENSE":12710,"ðŁĽĦ":12711,"ïĥŁ":12712,"Ġ^":12713,"Ġidx":12714,"limits":12715,"Ġchrome":12716,"Ġglm":12717,"Ġtutorial":12718,"å¶§":12719,"ĠpresynapticPopulation":12720,"çļĦè§Ħå®ļ":12721,"åªĪ":12722,"Ġ:+":12723,"åŀĳ":12724,"å¸¸æĢģ":12725,"ëª»":12726,"æĦ°":12727,"íĴį":12728,"ĠUInt":12729,"éĬ¢":12730,"ĠÐ·Ð°Ð¿":12731,"slot":12732,"Ġcell":12733,"ðŁĲĬ":12734,"é³Į":12735,"Of":12736,"áĸĩ":12737,"hlsl":12738,"Ä¤":12739,"ÐĶ":12740,"ðŁ§®":12741,"æĳº":12742,"chrome":12743,"ĠGo":12744,"å¾Ĺ":12745,"æ¹ĸåĮĹçľģ":12746,"çº¨":12747,"åķİ":12748,"å¶Ń":12749,"iB":12750,"agnitude":12751,"âłķ":12752,"é¡Į":12753,"â£Ħ":12754,"eturn":12755,"TableName":12756,"è¤ĵ":12757,"îĹĩ":12758,"à¹Ĭ":12759,"çķı":12760,"ä¸Ńåħ±":12761,"é¹ĥ":12762,"ve":12763,"éį¿":12764,"èĢ±":12765,"Å¨":12766,"ĠWidth":12767,"æĪŀ":12768,"decor":12769,"æļµ":12770,"Elem":12771,"Roll":12772,"ðŁĮ¶":12773,"dylib":12774,"okes":12775,"ä¸»æ¼Ķ":12776,"éĺŁåıĭ":12777,"ÊĻ":12778,"ĠKIND":12779,"åªİ":12780,"êĬ¿":12781,"èª©":12782,"à´ĭ":12783,"æµį":12784,"é¤²":12785,"åĿļåĨ³":12786,"BN":12787,"ĠKe":12788,"ĠEvery":12789,"ÐĽ":12790,"dispatch":12791,"Ġrename":12792,"è»§":12793,"èķ¸":12794,"ÃŃa":12795,"î¥ĥ":12796,"VERSION":12797,"('{":12798,"é¶ĥ":12799,"ĠPartial":12800,"çªķ":12801,"Ġflush":12802,"ã©ī":12803,"å¤Ĳ":12804,"REWRITE":12805,"é§¹":12806,"îĴİ":12807,"åŃĬ":12808,"JO":12809,"é´ī":12810,"ïģĺ":12811,"Ġsql":12812,"åħ¯":12813,"application":12814,"ĊĠĠĠĠĠĠĠĠĠĠĠĠĠĠĠĠĠĠĠĠĠĠĠĠĠĠĠĠĠĠĠĠĠĠĠĠĠĠĠĠĠĠĠĠĠĠ":12815,"chedul":12816,"æĩ¡":12817,"Ġmanager":12818,"camera":12819,"æĹ´":12820,"Øº":12821,"åĽ°æī°":12822,"èĮ¸":12823,"å§·":12824,"èķ´":12825,"â®¡":12826,"Ġcost":12827,"æŁĥ":12828,"æ´ŀåı£":12829,"Throwable":12830,"peri":12831,"xj":12832,"é©²":12833,"àłĲ":12834,"ä»¤äºº":12835,"íħ¨":12836,"embedded":12837,"ìĿĺ":12838,"éĥ½ä¼ļ":12839,"avatars":12840,"horizontalLayout":12841,"Ġoffset":12842,"ïĢĭ":12843,"ãŁĸ":12844,"æ¯İ":12845,"å·ķ":12846,"àª¸":12847,"è®ŃçıŃ":12848,"éħ":12849,"àł´":12850,"incoming":12851,"àº²":12852,"åĵª":12853,"ico":12854,"âĢļ":12855,"æĮº":12856,"PRINT":12857,"è¾¹":12858,"è¥Ĩ":12859,"VAC":12860,"Thrown":12861,"ardu":12862,"Ġformatter":12863,"áŁı":12864,"îĲĦ":12865,"Deleg":12866,"é£ħ":12867,"æĥħ":12868,"KO":12869,"ometry":12870,"className":12871,"Integration":12872,"Manip":12873,"Éĥ":12874,"backup":12875,"åªª":12876,"éķ±":12877,"Ġkept":12878,"DIS":12879,"à²ĩ":12880,"ffici":12881,"ĠFlags":12882,"Ġaccessor":12883,"åĵģç§į":12884,"figur":12885,"âİ©":12886,"ä¸įåĪ°":12887,"Æĳ":12888,"Ã¤rndÃ¼tsch":12889,"æ¼Ī":12890,"áİº":12891,"æ°ĳåĽ½":12892,"Ġpositions":12893,"æĢģåĬ¿":12894,"ĠĊĠĠĠĠĠĠĠĠĠĠĠĠĠĠ":12895,"ĠProblem":12896,"ãĹľ":12897,"æĢĴ":12898,"æłĨ":12899,"êĮ©":12900,"Ġed":12901,"artifactId":12902,"alÄ±ÅŁ":12903,"æĴ®":12904,"à¸²à¸":12905,"weekly":12906,"ĠTestCase":12907,"loc":12908,"èĽ¹":12909,"áģµ":12910,"ĠMsg":12911,"Ġcompress":12912,"éĺ³å¸Ĥ":12913,"ç»¦":12914,"Cod":12915,"ì¶":12916,"áĵ´":12917,"override":12918,"ĠMath":12919,"é©ĳ":12920,"Ġben":12921,"å¿ª":12922,"æ´º":12923,"éĵ´":12924,"â²ī":12925,"Ġlooking":12926,"è¨ŀ":12927,"Ġincorrect":12928,"çī¯":12929,"åĪ¤åĨ³":12930,"DATA":12931,"Ġåĳ¨":12932,"Ïİ":12933,"é¨İ":12934,"ä½ľç¤¾":12935,"={(":12936,"ova":12937,"ifiers":12938,"åıĸå¾ĹäºĨ":12939,"è«¡":12940,"æ¡¿":12941,"æ©©":12942,"ðŁĳ»":12943,"à®Ĵ":12944,"åĺĴ":12945,"æ¶Ĺ":12946,"åĶ¥":12947,"å¥³æľĭåıĭ":12948,"éĮ²":12949,"åµª":12950,"EventListener":12951,"Ġstrlen":12952,"Ø¦":12953,"áĵĪ":12954,"åį´":12955,"å·Ĩ":12956,"æ½¥":12957,"ĠUsage":12958,"êĤ":12959,"ä¿Ĳ":12960,"TS":12961,"Ġregistry":12962,"çļĦæķ°æį®":12963,"wget":12964,"Ġimages":12965,"Morph":12966,"led":12967,"ĠDepth":12968,"á¼³":12969,"åŃ§":12970,"BG":12971,"ä¸įæĺ¯":12972,"Xi":12973,"ĠCannot":12974,"á¾§":12975,"Ġverified":12976,"ĠOk":12977,"ĠSend":12978,"ICY":12979,"Ġtrailing":12980,"çºľ":12981,"æ¶Ĵ":12982,"ä¹ĺè½¦":12983,"\".$":12984,"INDEP":12985,"Ġhigher":12986,"onical":12987,"Weapon":12988,"CMP":12989,"ĠÐł":12990,"âĮĸ":12991,"é´¢":12992,"coming":12993,"åĥ²":12994,"Ġprototype":12995,"Ġdisconnect":12996,"áħŃ":12997,"Ġdd":12998,"genes":12999,"ADDR":13000,"éŃı":13001,"æ©Ń":13002,"peek":13003,"åĿį":13004,"Øı":13005,"kes":13006,"ðŁ¤°":13007,"æ«¡":13008,"alpha":13009,"arxiv":13010,"à¼§":13011,"ïĢŀ":13012,"Operators":13013,"àł®":13014,"Non":13015,"éģº":13016,"éĽª":13017,"à¢Ń":13018,"âĤģ":13019,"éľĢæ±Ĥ":13020,"AIMED":13021,"âıŃ":13022,"éķª":13023,"êģ":13024,"Texture":13025,"ĠBigDecimal":13026,"åĿ":13027,"Println":13028,"Suffix":13029,"åĹĥ":13030,"å¼Ľ":13031,"à·Ĵ":13032,"pow":13033,"Bot":13034,":${":13035,"čĊĠĠĠĠĠĠĠĠĠĠĠĠĠĠĠĠĠĠĠĠĠĠĠĠĠ":13036,"Resume":13037,"Ġscoped":13038,"WAIT":13039,"uZ":13040,"éĵ·":13041,"ppe":13042,"ðŁıĳ":13043,"åĸ¸":13044,"éĥ½è¯´":13045,"Edge":13046,"é®ĩ":13047,"æĢģåĮĸ":13048,"Boy":13049,"UG":13050,"é¸§":13051,"ìħĪ":13052,"ÑĭÑħ":13053,"ç³ĸå°¿":13054,"ĠCy":13055,"áıī":13056,"STATS":13057,"ĠAff":13058,"å¿ĺè®°":13059,"texture":13060,"Ġcolspan":13061,"âį¨":13062,"Ġfish":13063,"ĠDispose":13064,"Inference":13065,"à³į":13066,"èĳ·":13067,"çĴ¢":13068,"Ġdetermined":13069,"å»ģ":13070,"Ġ();":13071,"èĭŃ":13072,"çĢĨ":13073,"èĤ¹":13074,"erate":13075,"éĥ¾":13076,"aml":13077,"å°±":13078,"Ġletter":13079,"HID":13080,"çĽ¨":13081,"ART":13082,"Äĺ":13083,"Ġher":13084,"ĠGl":13085,"å¦®":13086,"openg":13087,"ã®¾":13088,"ðŁĩ¦":13089,"Ġ>-(":13090,"moid":13091,"verse":13092,"éŀ¯":13093,"å¦·":13094,"umm":13095,"çľŁå®ŀçļĦ":13096,"longitude":13097,"ð¡¿¨":13098,"Ġfeed":13099,"ç§ĭå¤©":13100,"ĠMQTT":13101,"è¶½":13102,"ç²³":13103,"æ¼ĥ":13104,"åķĳ":13105,"abe":13106,"Backup":13107,"æĬ¾":13108,"orge":13109,"æ¬Ī":13110,"ðŁĢħ":13111,"ĠSubLObject":13112,"çĿį":13113,"æĹ¶éķ¿":13114,"Machine":13115,"ĠARISING":13116,"ingen":13117,"åª¨":13118,"åĸ¼":13119,"Fields":13120,"ä½©æĪ´":13121,"æ°Ķæģ¯":13122,"algo":13123,"Collapse":13124,"ĠEncryption":13125,"Ġenum":13126,"wig":13127,"ðŁĴ¼":13128,"factory":13129,"é®":13130,":')":13131,"Vk":13132,"ĠSUB":13133,"èĩī":13134,"Figure":13135,"æ¬¯":13136,"éĵľ":13137,"ë²Ħ":13138,"Ġreading":13139,"Ġordering":13140,"áįķ":13141,"îĥ¾":13142,"é£¸":13143,"His":13144,"ç´Ģ":13145,"æ³¨å®ļ":13146,"åī±":13147,"æ²İ":13148,"ĠiOS":13149,"Ġdummy":13150,"ĠCELLSPACING":13151,"è»ŀ":13152,"æĪĳçİ°åľ¨":13153,"çħ§":13154,"å±ĳ":13155,"æ¦ľåįķ":13156,"Jun":13157,"é¶ľ":13158,"åĻ½":13159,"Ġevaluated":13160,"à´ħ":13161,"Capabilities":13162,"á¤¿":13163,"Èº":13164,"èĿķ":13165,"î¨ĭ":13166,"ç¹¼":13167,"ĠÃī":13168,"ç¨İæĶ¶":13169,"ike":13170,"æł©":13171,"Ġmethod":13172,"æĶ¶çº³":13173,"milliseconds":13174,"XT":13175,"éĵĤ":13176,"Ġrecent":13177,"éĿ¢è¯ķ":13178,"æĨ¿":13179,"iling":13180,"programming":13181,"Ġcomando":13182,"ĊĠĠĠĠĉĉ":13183,"êĳŁ":13184,"æĶ¹åıĺ":13185,"èĴĴ":13186,"&,":13187,"ç¦¥":13188,"å¾Ĥ":13189,"æµ¬":13190,"ĠĠĠĠĠĠĠĠĠĠĠĠĠĠĠĠĠĠĠĠĠĠ":13191,"æĢŀ":13192,"ç²±":13193,"åģĩè®¾":13194,"oda":13195,"Ġvalidates":13196,"é°ĩ":13197,"Ù»":13198,"ä»¥åĨħ":13199,"Ġjupyter":13200,"çļĦåĨħå®¹":13201,"Ġadjust":13202,"ĠPayment":13203,"Óĩ":13204,"apis":13205,"èŁĤ":13206,"ä¸ĭè·Į":13207,"lux":13208,"ÑĨ":13209,"êĬ":13210,"Ã§Ã£o":13211,"á¸Ĺ":13212,"æººæ°´":13213,"åĲ¬":13214,"éĥ¼":13215,"ä¸ĬåĨĮ":13216,"ç¹³":13217,"ïĦĨ":13218,"åµļ":13219,"red":13220,"êıĳ":13221,"çļĦåıĳçĶŁ":13222,"ç»Ħ":13223,"]**":13224,"æĪıåī§":13225,"æ¯Į":13226,"Mut":13227,"êĩĳ":13228,"éĻĶ":13229,"å¥İ":13230,"Å¾e":13231,"ARE":13232,"î·²":13233,"zs":13234,"ET":13235,"ä¹Ł":13236,"ç¹ł":13237,"Ġemit":13238,"TextString":13239,"âİ°":13240,"æĨ°":13241,"èĲĨ":13242,"å¢Ĩ":13243,"Inc":13244,"ĠclEOA":13245,"îĹĦ":13246,"æĨĻ":13247,"à´¤":13248,"æº¢":13249,"èŁ®":13250,"êıħ":13251,"é¢ĦåĶ®":13252,"è§Ĥä¼Ĺ":13253,"Ġment":13254,"ìĤ°":13255,"äººçī©":13256,"Eng":13257,"tbody":13258,"Ġ),":13259,"xa":13260,"çħ£":13261,"AutoriPagoOrdenCompra":13262,"ÌĻ":13263,"applications":13264,"ãŀİ":13265,"è¤ħ":13266,"èĹ²":13267,"IOS":13268,"âķĤ":13269,"avg":13270,"Ġsucceed":13271,"ĠEB":13272,"éºĪ":13273,"éħĺ":13274,"æĳĦåħ¥":13275,"cached":13276,"STITUTE":13277,"çĮĹ":13278,"ä»¥åīį":13279,"åĮºéĹ´":13280,"quent":13281,"é¼ĸ":13282,"æĥ¿":13283,"ĠLL":13284,"æĪī":13285,"type":13286,"éł¼":13287,"áŀ»":13288,"Ġdetail":13289,"Ġconditions":13290,"Û¬":13291,"rcx":13292,"ðŁĺ¡":13293,"ippet":13294,"Ġintervals":13295,"ĊĊĠĠĠĠĠĠĠĠĠĠĠĠĠ":13296,"SQL":13297,"ĠÐ¡":13298,"ä¸¢å¤±":13299,"ĠStorage":13300,"é©ĩ":13301,"ËĢ":13302,"Ò¦":13303,"Ġadding":13304,"_:":13305,"ïĳĻ":13306,"ifference":13307,"å¹´åīį":13308,"MIC":13309,"Lj":13310,"ĠClassification":13311,"çįŀ":13312,"Ġslot":13313,"ras":13314,"rax":13315,"ä¼ļè®©":13316,"ïĳ½":13317,"èĩªä¸»":13318,"so":13319,"å®ļ":13320,"ðŁĳļ":13321,"é£¤":13322,"INDEX":13323,"statement":13324,"records":13325,"Ô±":13326,"æ§ª":13327,"GetValue":13328,"å¶Ħ":13329,"âĸ¤":13330,"è´Ļ":13331,"é±Ĳ":13332,"äºĴçĽ¸":13333,"Ġgender":13334,"PROVIDED":13335,"ãĨ":13336,"è¨¡":13337,"ä®Ń":13338,"Ø¤":13339,"ROID":13340,"à®ı":13341,"éŀģ":13342,"Ġsich":13343,"åıªèĥ½":13344,"sv":13345,"çĩ¦":13346,"çĪĩ":13347,"Ġincreased":13348,"JT":13349,"plot":13350,"ĠStore":13351,"Raises":13352,"áŀ¹":13353,"åķ¶":13354,"è¹ħ":13355,"îĻĦ":13356,"íĹ½":13357,"Ġorder":13358,"å¥«":13359,"É¬":13360,"æĸ¦":13361,"markup":13362,"ecore":13363,"é¬Ĳ":13364,"é¼µ":13365,"Ġpaths":13366,"ĠBS":13367,"digits":13368,"à¸Ľ":13369,"èĤ¡ä»·":13370,"è¶Ĩ":13371,"èĩ£":13372,"à§Ĳ":13373,"Ġ{":13374,"schwiz":13375,"ĠConf":13376,"ArrayEquals":13377,"ä¸¾":13378,"é§Ĳ":13379,"è½Ĭ":13380,"COMB":13381,"é¦¾":13382,"jr":13383,"êģ±":13384,"ĠImages":13385,"ĠOnce":13386,"å¤¸":13387,"åĥĺ":13388,"åĩºæīĭ":13389,"jButton":13390,"ç«ĺ":13391,"êĩ¤":13392,"èıĬ":13393,"sor":13394,"Ġ(*":13395,"Mesh":13396,"ä»¥":13397,"Zm":13398,"ac":13399,"çĦ½":13400,"Ġexperience":13401,"Robot":13402,"âķ±":13403,"îĢħ":13404,"è½¦åŀĭ":13405,"å·¥ä½ľæĹ¥":13406,"éĴķ":13407,"Ġbridge":13408,"Ġ'?":13409,"ĠImmutable":13410,"instances":13411,"ĠListView":13412,"èĢį":13413,"æĻŁ":13414,"éºħ":13415,"ä¾¬":13416,"éĴ¡":13417,"éĳĥ":13418,"æīįçŁ¥":13419,"æºĳ":13420,"lems":13421,"æ¿´":13422,"systems":13423,"à¤§":13424,"RE":13425,"çĪ¸çĪ¸":13426,"åª±":13427,"tern":13428,"ĠgetDefault":13429,"Explanation":13430,"ADIE":13431,"àºĿ":13432,"ç±¥":13433,"å·²è¢«":13434,"ĠHere":13435,"Ġvert":13436,"ìĹ¼":13437,"PREFER":13438,"çĦİ":13439,"éĻ¢å£«":13440,"ADO":13441,"Ġkotlin":13442,"è¹¾":13443,"Focused":13444,"Ġinvalid":13445,"çīĶ":13446,"çĳ¤":13447,"ç¬Ľ":13448,"è¿ĺæĺ¯å¾Ī":13449,"False":13450,"éħ¨":13451,"çĩµ":13452,"èµµ":13453,"æĩ¢":13454,"Assigned":13455,"ations":13456,"èĥ«":13457,"upyter":13458,"hore":13459,"á´ī":13460,"èĢĥçĤ¹":13461,"âĻ¬":13462,"éĩ¡":13463,"ðŁĳĬ":13464,"åĮĢ":13465,"ĠWhat":13466,"Drawable":13467,"Blank":13468,");\"":13469,"jmeter":13470,"ĠTr":13471,"ç®Ł":13472,"èħĬ":13473,"è¡ĸ":13474,"charts":13475,"Ġexecution":13476,"EDED":13477,"InnoDB":13478,"ĠRed":13479,"çĩı":13480,"æ°¡":13481,"åĤŀ":13482,"èª¨":13483,"number":13484,"å´Ł":13485,"åĭ¿":13486,"ãĤ¤ãĥ«":13487,"îĵĵ":13488,"lin":13489,"Prototype":13490,"èĺĭ":13491,"velocity":13492,"xp":13493,"ãª¶":13494,"è¯¬":13495,"PROG":13496,"adi":13497,"é«ĺäºĨ":13498,"çİ®":13499,"ogenerated":13500,"Context":13501,"ðŁĲĮ":13502,"vac":13503,"heck":13504,"å¦Ĭ":13505,"B":13506,"åŃ¦è´¹":13507,"ïı¿":13508,"éĻ¦":13509,"à³ģ":13510,"Normalize":13511,"çĵ§":13512,"ç§ĳæĬĢ":13513,"ïĻĩ":13514,"èıº":13515,"ĠNH":13516,"Ġendforeach":13517,"ä¾º":13518,"æİ¥è§¦":13519,"ïĩ¯":13520,"çįŃ":13521,"ç¼¦":13522,"ãģĹ":13523,"Ġcomma":13524,"éı©":13525,"æ¦¢":13526,"æĪ¿":13527,"çĶ¶":13528,"ç®¤":13529,"æĸ°åĮº":13530,"Observer":13531,"ã·§":13532,"çįĬ":13533,"Ý«":13534,"ãłĻ":13535,"åĦ¿":13536,"Ġthrown":13537,"é¼ľ":13538,"î¡ľ":13539,"åĤĮ":13540,"éŁ¦":13541,"å¹Ŀ":13542,"åħ±éĿĴåĽ¢":13543,"åĽĵ":13544,"Ġac":13545,"æ¹»":13546,"nÃ©":13547,"è¼ĵ":13548,"âİ®":13549,"éĸī":13550,"æľĢå¥½":13551,"å£ķ":13552,"éĽĺ":13553,"oss":13554,"éĻ´":13555,"å¾ĹåĪ°äºĨ":13556,"ĠResearch":13557,"éµĢ":13558,"éĮł":13559,"arily":13560,"ResponseBody":13561,"êĤĴ":13562,"å«ĥ":13563,"ami":13564,"íĺģ":13565,"æ¡Īä»¶":13566,"merged":13567,"è´":13568,"ä¸ĩäºº":13569,"'})":13570,"è»Ĳ":13571,"ÐļÐ°":13572,"ĠØ§Ø":13573,"bers":13574,"peer":13575,"topic":13576,"ç»¤":13577,"æ»«":13578,"éĽĳ":13579,"ĠTrigger":13580,"hbase":13581,"åĳł":13582,"çĹ½":13583,"ç§ı":13584,"áĲł":13585,"é¤¹":13586,"æİĴéĻ¤":13587,"éĢ¥":13588,"èĨ¨":13589,"ïĤĸ":13590,"Ġssh":13591,"maint":13592,"Ġstream":13593,"given":13594,"æķ¾":13595,"é³¡":13596,"}{\\":13597,"STORAGE":13598,"à¬´":13599,"Ġçİ°åľ¨":13600,"è¼ı":13601,"æĦı":13602,"ÔĨ":13603,"Prot":13604,":{}":13605,"ĠBCM":13606,"ÓĪ":13607,"å®ĥæĺ¯":13608,"é»¢":13609,"é²½":13610,"çĴ°":13611,"æľĪçļĦ":13612,"oud":13613,"ä½Ĺ":13614,"Ġcompilation":13615,"PIXEL":13616,"Adapt":13617,"Minor":13618,"çķĬ":13619,"ĠNSString":13620,"çĻĻ":13621,"è¨Ĥ":13622,"ä»ĭç»į":13623,"ïĴ¦":13624,"ç²ļ":13625,"Wow":13626,"Ġfood":13627,"à´±":13628,"payments":13629,"ðŁ¦":13630,"âļ±":13631,"Â¬":13632,"å§ı":13633,"Ġpackets":13634,"åħ¨æĸ°çļĦ":13635,"pkgs":13636,"Ġlate":13637,"ä±Ĥ":13638,"åĳ¼":13639,"bon":13640,"æĸ°åªĴä½ĵ":13641,"rs":13642,"olved":13643,"Ġtimeline":13644,"Ã°":13645,"Ġhar":13646,"åĻ³":13647,"îģĬ":13648,"ç§¯éĩĳ":13649,"ç®Ĵ":13650,"êµ³":13651,"ç»Ħå»º":13652,"exp":13653,"Äº":13654,"èŁ·":13655,"ĠEns":13656,"Ġ$_":13657,"èĮŃ":13658,"ĠTransport":13659,"à¶¼":13660,"æµ©":13661,"Ġrequires":13662,"Ġsns":13663,"èīŀ":13664,"ëĸ³":13665,"lng":13666,"è¡¨è¾¾":13667,"Part":13668,"ðŁĩ":13669,"Ġrebuild":13670,"æ®Ľ":13671,"é±±":13672,"ĠNET":13673,"æĳį":13674,"é¡ºåºı":13675,"é±":13676,"vetica":13677,"SACTION":13678,"áĨ¬":13679,"âīŃ":13680,"inion":13681,"èĪªç©º":13682,"CAD":13683,"Ġgpio":13684,"Apply":13685,"°":13686,"Éĵ":13687,"ĠLIABILITY":13688,"ðŁįĸ":13689,"executable":13690,"props":13691,"â®Ĥ":13692,"é´Ĥ":13693,"è¬ĭ":13694,"Persist":13695,"è¬Ŀ":13696,"âĹª":13697,"Ġexponent":13698,"Mis":13699,"vendor":13700,"GetField":13701,"é¾ķ":13702,"Ġlisteners":13703,"ë·":13704,"å¿¿":13705,"à¸ĭ":13706,"å®īå¿ĥ":13707,"Ġ[\\":13708,"ä¸įå¤§":13709,"å¤§åĪ©":13710,"èĴ«":13711,"Bag":13712,"æ£¾":13713,"vlan":13714,"å¼Ĺ":13715,"ê¸į":13716,"ifth":13717,"â²ĺ":13718,"è©µ":13719,"æ®«":13720,"îĦ»":13721,"olv":13722,"hello":13723,"îĤĦ":13724,"åį§":13725,"æ³ĸ":13726,"çķĻè¨Ģ":13727,"íĶ½":13728,"é±¢":13729,"Ġsimilar":13730,"éĤ¶":13731,"THRESH":13732,"ĠTh":13733,"éĺ²æ°´":13734,"çļĦåīį":13735,"éŁ¾":13736,"PARAMS":13737,"Ġaccum":13738,"åº¿":13739,"REL":13740,"Ġmutation":13741,"îĬħ":13742,"è¨¾":13743,"DropDown":13744,"Ġcausing":13745,"ìĽľ":13746,"èĮ±":13747,"à§«":13748,"çĮ¥":13749,"provision":13750,"ĠĠĠĠĠĠĠĠĠĊ":13751,"ĠPers":13752,"Ġterminate":13753,"åµķ":13754,"TestSuite":13755,"gender":13756,"åħĲ":13757,"labelledby":13758,"ä¸´":13759,"Ġembod":13760,"æĴ²":13761,"æłĳ":13762,"áŀĩ":13763,"Status":13764,"â¸Ŀ":13765,"åķĨåľº":13766,"æ¿£":13767,"ðŁįĩ":13768,"Actual":13769,"åŁ´":13770,"ĠPython":13771,"à»ĥ":13772,"ACCOUNT":13773,"cdf":13774,"èŁĦ":13775,"è¿ĺåľ¨":13776,"ðŁĹ¯":13777,"åķĥ":13778,"INFO":13779,"Ġíķ´":13780,"åł¿":13781,"ä¼ļéķ¿":13782,"å®¢":13783,"àŃĶ":13784,"èºĪ":13785,"ëĥ¥":13786,"ËĬ":13787,"åĪĻä¸Ĭ":13788,"ç½ŀ":13789,"é§º":13790,"ĠHi":13791,"perfil":13792,"È¸":13793,"Ì«":13794,"ĠStatic":13795,"å¸Ķ":13796,"è¹´":13797,"ToolBar":13798,"èŁ¨":13799,"æ¬§æ´²":13800,"æģİ":13801,"zed":13802,"éĻħ":13803,"Ġandroidx":13804,"Ash":13805,"èĬĴ":13806,"Ġinvoking":13807,"åĦĳ":13808,"èĶº":13809,"çĶµæľº":13810,"ðŁĮ®":13811,"é££":13812,"Ġcity":13813,"indexOf":13814,"Ġprograms":13815,"åĲĿ":13816,"çįĮ":13817,"æ»Ĩ":13818,"ACC":13819,"Ġrect":13820,"Õ¿":13821,"æ¹ĥ":13822,"ins":13823,"Render":13824,"åħ«åį¦":13825,"terminal":13826,"Ġlight":13827,"databind":13828,"éº£":13829,"æĢ":13830,"æĢ¶":13831,"Recording":13832,"çĬĩ":13833,"å¤§ä¼Ĺ":13834,"îĶ¥":13835,"ĠAt":13836,"ĠYork":13837,"ç¿²":13838,"ðŁį©":13839,"å´Ĳ":13840,"æĸ°æĺ¥":13841,"dsl":13842,"finder":13843,"æ¶Ń":13844,"àºĹ":13845,"dtd":13846,";\"></":13847,"åĬłäºĨ":13848,"éŁ¤":13849,"Ġnx":13850,"éĶ»çĤ¼":13851,"detallenotacreditopunto":13852,"contentType":13853,"sent":13854,"uname":13855,"ĠCSR":13856,"Ġgrey":13857,"éĳĻ":13858,"äºĻ":13859,"åĹ¥":13860,"èĲ¸":13861,"á»ĵ":13862,"èĺ":13863,"æĶ¾ä¸ĭ":13864,"èĦ±è´«":13865,"çĬĻ":13866,"Ġìĥģ":13867,"ottom":13868,"ĠConn":13869,"å¤Ħå¥³":13870,"çĽ¼":13871,"éĽĭ":13872,"æĪĲåĵģ":13873,"è¯¥":13874,"ðŁļ¿":13875,"ĠRs":13876,"æĬĵå¥½":13877,"BYTES":13878,"ðŁįª":13879,"à¸´":13880,"Ak":13881,"æ´»åĬ¨ä¸Ń":13882,"Ġsetter":13883,"íĶ":13884,"åŁı":13885,"ëļ±":13886,"éĻĦä»¶":13887,"MT":13888,"ä¼ĳ":13889,"ðŁĶĨ":13890,"PIO":13891,"Ð¯":13892,"ĊĠĠĊĠĠĠ":13893,"íĥĢ":13894,"åĳĶ":13895,"ç¡İ":13896,"çıŀ":13897,"ðŁļĨ":13898,"ðĴĦĢ":13899,"čĊĠĠĠĠĠĠĠĠĠĠĠĠĠĠĠĠĠĠĠĠĠĠĠĠĠĠĠĠĠĠĠĠĠĠĠĠĠĠĠĠĠĠĠĠĠĠĠĠĠĠĠ":13900,"ä¢İ":13901,"Creating":13902,"ïįĿ":13903,"ĠæĬ":13904,"éĶ£":13905,"Ġtimestamp":13906,"çī¹å¾ģ":13907,"â£ł":13908,"çļĦè¡¨çİ°":13909,"'re":13910,"ĠGoogle":13911,"èĢģ":13912,"è¯ĥ":13913,"å®£":13914,"ĠThread":13915,"Ġdto":13916,"å¯ķ":13917,"TextColor":13918,"House":13919,"å¬°":13920,"çĩĤ":13921,"ĠLINE":13922,"Neg":13923,"gistration":13924,"î¥ĳ":13925,"Ġcodigo":13926,"cipl":13927,"OS":13928,"Markdown":13929,"åµĵ":13930,"æ°´åĪĨ":13931,"Health":13932,"xcc":13933,"æĥŀ":13934,"ilar":13935,"Ġ///<":13936,"simd":13937,"udies":13938,"ãľ·":13939,"éŁĳ":13940,"âĩĹ":13941,"âĢ²âĢ²":13942,"uc":13943,"ïĩł":13944,"Ġspecs":13945,"à±ļ":13946,"é§Ī":13947,"ĠIEnumerable":13948,"Ġpreviously":13949,"î¦Ĵ":13950,"Ġprefer":13951,"chron":13952,"impro":13953,"Ġlearn":13954,"Ġcustomer":13955,"é¬ī":13956,"è©´":13957,"è«ľ":13958,"surface":13959,"Ġdolor":13960,"åĨįçĶŁ":13961,"èģĬå¤©":13962,"â»Ľ":13963,"Ġhierarchy":13964,"å·¥ä½ľçļĦ":13965,"viewport":13966,"Ġforms":13967,"Ġ&'":13968,"è¼µ":13969,"Ñĸ":13970,"lat":13971,"Ġreflect":13972,"Floor":13973,"æģĸ":13974,"unregister":13975,"çĲ¸":13976,"lemetry":13977,"\"</":13978,"SELECT":13979,"ç«´":13980,"Tex":13981,"Z":13982,"cg":13983,"éŃ·":13984,"Abstract":13985,"Øĺ":13986,"çıħ":13987,"æĳ¹":13988,"èĴĢ":13989,"ç©¿":13990,"æĥŁ":13991,"æİ¨è¡Į":13992,"ĠSome":13993,"è¾ĩ":13994,"éĬļ":13995,"ĠOnInit":13996,"åħ¬åı¸":13997,"à¢":13998,"ä¸¤ä¸ªæľĪ":13999,"atoms":14000,"å¾Ĺä¸į":14001,"§º":14002,"*\"":14003,"è½¶":14004,"Pal":14005,"feed":14006,"åįģ":14007,"Ġguarantee":14008,"î¤¤":14009,"èĥ·":14010,"æĦĳ":14011,"æĥħä¾£":14012,"ĠApiException":14013,"CDF":14014,"éĦ¸":14015,"Ġdifer":14016,"â´²":14017,"éŁ©åĽ½":14018,"è½·":14019,"ë¶ķ":14020,"Ġworks":14021,"æ¦ľ":14022,"èŃ¤":14023,"ç´Ł":14024,"æī¹è¯Ħ":14025,"åĪŁ":14026,"ä¸´æĹ¶":14027,"âĹ¡":14028,"Ġembedded":14029,"îĥ¡":14030,"Fatal":14031,"ĠÃª":14032,"ĠDetail":14033,"æĵł":14034,"âĿĸ":14035,"æ¸¸æĪı":14036,"éħĢ":14037,"é¹¹":14038,"displayProperty":14039,"å´©æºĥ":14040,"osta":14041,"ApplicationModel":14042,"çħķ":14043,"ĠGP":14044,"â¤ĥ":14045,"è·µè¡Į":14046,"datasets":14047,"cles":14048,"çªį":14049,"ìĦ°":14050,"bud":14051,"çļĽ":14052,"é¢Ŀå¤ĸ":14053,"ĠPhp":14054,"çİ°ä»»":14055,"åĸł":14056,"çł©":14057,"çĭĩ":14058,"å¾¸":14059,"focused":14060,"à·©":14061,"çĸ£":14062,"åĿĹéĴ±":14063,"èĪĸ":14064,"çĺ½":14065,"messageInfo":14066,"åĽŀé¡¾":14067,"á»¤":14068,"çĲ®":14069,"ç³ģ":14070,"ë°Ŀ":14071,"Î·":14072,"æĸ°åĬłåĿ¡":14073,"Ġnome":14074,"è¯³":14075,"ïĦ":14076,"Markup":14077,"ëĦ·":14078,"ĠEnum":14079,"è¯ĨçĤ¹":14080,"éĿ¨":14081,"Changing":14082,"Ç§":14083,"Ë¸":14084,"è¿¦":14085,"éĸ¦":14086,"oe":14087,"âĦ²":14088,"ScrollPane":14089,"Shown":14090,"æ©¨":14091,"âĤ¹":14092,"positions":14093,"æĥĨ":14094,"Ġparser":14095,"Ġscope":14096,"à¸Ńà¸ĩ":14097,"ëŀŃ":14098,"é¬¨":14099,"askell":14100,"Ġcollection":14101,"ES":14102,"é¯¸":14103,"é®¡":14104,"îµ":14105,"grid":14106,"ĠOrd":14107,"ç¼ĺ":14108,"æª§":14109,"é¹¯":14110,"èıĳ":14111,"Ġnoop":14112,"îĲ·":14113,"Ċĉĉĉĉĉĉĉĉĉĉ":14114,"æłıçĽ®":14115,"Ġhypre":14116,"èŃĹ":14117,"ëĬĲ":14118,"ä¸įéĢĤ":14119,"ĠPOSSIBILITY":14120,"èĳ«":14121,"é©Ŀ":14122,"Ġexclude":14123,"Ġze":14124,"åı¦è¡Į":14125,"SpringBoot":14126,"éĨĹ":14127,"äºĮç»´çłģ":14128,"ðŁıī":14129,"dataset":14130,"î©ľ":14131,"ĠThis":14132,"ã£µ":14133,"gom":14134,"åĢĮ":14135,"îļ¯":14136,"èĽ¡":14137,"eq":14138,"ĠForms":14139,"æ¶ĳ":14140,"éŁ®":14141,"VX":14142,"ĠHooks":14143,"ape":14144,"ë¨¸":14145,"çĴ«":14146,"æĵ¥":14147,"áŀł":14148,"Ġdiv":14149,"Ġpb":14150,"é¬²":14151,"æ¼ı":14152,"ìŀŃ":14153,"ìĶ¨":14154,"Ġfailures":14155,"é½İ":14156,"èĹĶ":14157,"ê¹Į":14158,"æ§ī":14159,"âļĶ":14160,"æĳ¾":14161,"ä¸Ģå¯¹ä¸Ģ":14162,"à¥ı":14163,"ä¼ģ":14164,"åīĮ":14165,"à¦¸":14166,"áĬ¡":14167,"ëºĲ":14168,"åµ°":14169,"å®ĮæĪĲäºĨ":14170,"æ³¢åĬ¨":14171,"çĶµåķĨ":14172,"PIN":14173,"ôı°ĳ":14174,"ïī¢":14175,"îĦµ":14176,"à½Ĳ":14177,"ĠBIG":14178,"le":14179,"AIL":14180,"ðŁĩ»":14181,"èªŁ":14182,"çĻı":14183,"èŁļ":14184,"ÑģÐ°":14185,"hl":14186,"éŀĽ":14187,"Records":14188,"îĲķ":14189,"Plane":14190,"åĨĻ":14191,"ppc":14192,"ently":14193,"CFLAGS":14194,"fÃ©":14195,"æ°´å¹³":14196,"ĠAdapt":14197,"ĠĠĠĠĠĠĠĠĠĠĠĠĠĠĠĠĠĠĠĠĠĠĠĠĠĠĠĠĠĠ":14198,"Install":14199,"Cipher":14200,"îĲ°":14201,"éĲµ":14202,"Ġtang":14203,"å°Ĭéĩį":14204,"ĠLast":14205,"é©Ń":14206,"å»¶éķ¿":14207,"ä°«":14208,"æĻ´":14209,"ç¬³":14210,"Pre":14211,"èıĢ":14212,"Program":14213,"Ġhardware":14214,"ä§¿":14215,"ĠPID":14216,"æ¬İ":14217,"ä½¶":14218,"æ«©":14219,"Ġpur":14220,"{{":14221,"Validator":14222,"à¬¶":14223,"çļĦæľĭ":14224,"îħ¿":14225,"çĩ°":14226,"igens":14227,"ÏĬ":14228,"à¡º":14229,"é«¼":14230,"Foreground":14231,"éĤ¨":14232,"Ġconstructor":14233,"Automation":14234,"Ö®":14235,"unlink":14236,"Ġmarkers":14237,"á»İ":14238,"à¾į":14239,"é¶±":14240,"è¾¢":14241,"Ġasc":14242,"æķ°æį®åºĵ":14243,"åĬ¨çĶ»":14244,"çº¿ä¸ĭ":14245,"fake":14246,"Ġinventory":14247,"çĪ·çĪ·":14248,"å¸°":14249,"Ġja":14250,"çĦ¼":14251,"æ½ĭ":14252,"éİ²":14253,"é±³":14254,"ðĲĮ²":14255,"é®ķ":14256,"Creator":14257,"='$":14258,"é¹":14259,"latency":14260,"èĮĹ":14261,"dn":14262,"î¥Ĥ":14263,"áıĹ":14264,"travis":14265,"çģ«è½¦":14266,"PWD":14267,"å³ļ":14268,"inactive":14269,"ç·į":14270,"trap":14271,"â£Ľ":14272,"san":14273,"ðŁĨĦ":14274,"Ġinvok":14275,"é¥Ħ":14276,"ç«ĭæ¡Ī":14277,"æŁĵèĢħ":14278,"çŁĻ":14279,"é´ĺ":14280,"åħ»èĢģéĩĳ":14281,"é²Ķ":14282,"å©§":14283,"îģ§":14284,"åĵ¬":14285,"deck":14286,"ĠTRAN":14287,"éĥª":14288,"âīĮ":14289,"È½":14290,"âĮ¾":14291,"åĩĻ":14292,"åīİ":14293,"ĠPage":14294,"argmax":14295,"Â¡":14296,"îĢ¿":14297,"ç»Ģ":14298,"solution":14299,"tolower":14300,"ç±Ī":14301,"î¡ĳ":14302,"ðŁ§¹":14303,"ðŁĴĭ":14304,"æ¯ıæĻļ":14305,"ĠMut":14306,"Ġchars":14307,"Ġseveral":14308,"Õĩ":14309,"MenuItem":14310,"çĻ»å½ķ":14311,"ĠStyle":14312,"CCCC":14313,"å²ĵ":14314,"by":14315,"çģ®":14316,"æ°Ħ":14317,"Ġger":14318,"Two":14319,"ĠZERO":14320,"èĴĬ":14321,"Ġaff":14322,"é¡¾å®¢":14323,"âłĵ":14324,"Ð³Ð°":14325,"å½±":14326,"å©Ĩå©Ĩ":14327,"periment":14328,"ppy":14329,"amente":14330,"å«¾":14331,"MethodImplOptions":14332,"decrypt":14333,"çģ½":14334,"ç²¯":14335,"çĺĿ":14336,"windows":14337,"conflict":14338,"æİģ":14339,"ä½§":14340,"å®¶éķ¿":14341,"è¯İ":14342,"aCreditoPunto":14343,"mint":14344,"ĠVec":14345,"ãī¿":14346,"erta":14347,"Std":14348,"Operating":14349,"Ġraster":14350,"ĠRunnable":14351,"çŁĺ":14352,"FINAL":14353,"emies":14354,"Ġçİ°":14355,"lickr":14356,"Ġsx":14357,"ç¬±":14358,"ea":14359,"äĩĤ":14360,"ä¸ªäººçļĦ":14361,"Description":14362,"çĮĬ":14363,"æļĥ":14364,"Ġcallback":14365,"âĻģ":14366,"çķĻ":14367,"èºĴ":14368,"é¼¿":14369,"è£Ħ":14370,"îĦĻ":14371,"ç²ħ":14372,"Ġensures":14373,"alho":14374,"ä¸ºæĪĳ":14375,"ïı°":14376,"åįº":14377,"ç¢ĵ":14378,"éľĹ":14379,"TimeUnit":14380,"âİĮ":14381,"()',":14382,"ðĲ¤":14383,"î§":14384,"åĨħçļĦ":14385,"î¨ĺ":14386,"áĦĩ":14387,"Ġbonus":14388,"íĢµ":14389,"çģĿ":14390,"ĠRetrie":14391,"íİł":14392,"è¥³":14393,"ä»¸":14394,"çµ¹":14395,"ĠGRO":14396,"ä¾ı":14397,"ÛĢ":14398,"normalized":14399,"|-:":14400,"Clusters":14401,"insights":14402,"ïĩ":14403,"æ·±å¤ľ":14404,"âŁ²":14405,"Äħ":14406,"åŃ¦ä¹łçļĦ":14407,"ENO":14408,"æªŃ":14409,"WW":14410,"éĴĬ":14411,"ä»ĸ":14412,"ç«ł":14413,"<-":14414,"Ġscipy":14415,"OB":14416,"êĻŃ":14417,"sess":14418,"DESCRIPT":14419,"é¨¾":14420,"äĨ²":14421,"ä»»æĦı":14422,"},\"":14423,".....":14424,"ç¸ļ":14425,"ëįľ":14426,"áĬĳ":14427,"é«ĺæł¡":14428,"ïĤ¢":14429,"æł³":14430,"åįĩ":14431,"åĸĿ":14432,"äį¸":14433,"å¤Ħç½®":14434,"EMPLARY":14435,"æĺķ":14436,"éĩļ":14437,"è¢Ŀ":14438,"å¤§åŃ¦":14439,"à´ĺ":14440,"é¢ļ":14441,"â°į":14442,"è§®":14443,"ç¡°":14444,"åĬĥ":14445,"ĠDomain":14446,"é®´":14447,"î¸£":14448,"è»¼":14449,"ìķĹ":14450,"čĊĠĠĠĠĠĠĠĠĠĠĠĠĠĠĠĠĠĠĠĠĠĠĠĠĠĠĠĠĠĠĠĠĠĠĠ":14451,"á»¡":14452,"è§Ĥèµı":14453,"Ġ--------":14454,"è´ļ":14455,"Ġ\\\"%":14456,"åĵº":14457,"å¾¡":14458,"é©¬ä¸Ĭ":14459,"IFF":14460,"ç¸ľ":14461,"çŃ¾":14462,"é¸ĵ":14463,"Ð»Ðµ":14464,"ĠktÃ³":14465,"æ§²":14466,"å¸¸å¸¸":14467,"è¤Ł":14468,"èľĻ":14469,"å£Ħ":14470,"æĸĮ":14471,"çŃĽæŁ¥":14472,"IPAddress":14473,"ë§Ŀ":14474,"é¯Ń":14475,"æ°ĩ":14476,"wendung":14477,"Éµ":14478,"éįĬ":14479,"é·Ĺ":14480,"ä¹Łè®¸":14481,"æĿĢèıĮ":14482,"]^":14483,"âĹĵ":14484,"PCI":14485,"íĹĻ":14486,"Interrupt":14487,"é«Ľ":14488,"å¯ĸ":14489,"æ¦»":14490,"åľĪåŃĲ":14491,"|`":14492,"neighbors":14493,"ë¿Į":14494,"Ċĉĉĉĉĉĉĉĉ":14495,"setInitial":14496,"âĨĤ":14497,"coin":14498,"color":14499,"å¼ķèµ·":14500,"moved":14501,"è¿ĲåĬ¨åĳĺ":14502,"å¥Į":14503,"è¿ĶåĽŀ":14504,"Gray":14505,"osed":14506,"Evidence":14507,"æĹµ":14508,"âĬĻ":14509,"oper":14510,"================================================":14511,"ĠassertNotNull":14512,"çŃº":14513,"èĴ°":14514,"èĩĪ":14515,"Øļ":14516,"Ġnavigation":14517,"à¸¯":14518,"staff":14519,"ä¼ĺè´¨":14520,"Ġval":14521,"ç¯ĵ":14522,"ç¨Ĳ":14523,"ĠHandle":14524,"äĿ·":14525,"Ġuseful":14526,"Animation":14527,"COMM":14528,"templates":14529,"Guard":14530,"â¬¬":14531,"âĮı":14532,"apter":14533,"é²ĺ":14534,"éļ¾":14535,"ïģĮ":14536,"Ġparticipant":14537,"è¿ĭ":14538,"Ġencounter":14539,"å°Ĵ":14540,"lated":14541,"á»ŀ":14542,"Second":14543,"ridden":14544,"æĤĿ":14545,"DateTime":14546,"çĨ©":14547,"çļĦè§Ĵ":14548,"Date":14549,"ðŁ¥ħ":14550,"AXB":14551,"äºĶä¸Ģ":14552,"è¿ĺ":14553,"æŀ¹":14554,"é«ĺåİĭ":14555,"ĠULONG":14556,"Ġinstrument":14557,"Ġomp":14558,"é©¹":14559,"çĲł":14560,"æĭİ":14561,"vt":14562,"æĺ¯å¤§":14563,"ðŁĮķ":14564,"çĳ":14565,"apa":14566,"èĶŁ":14567,"åĨĻåŃĹ":14568,"æķĨ":14569,"åĮºåĪ«":14570,"Ġ$('":14571,"è£Ĺ":14572,"Collection":14573,"é«Ĩ":14574,"çĴ¤":14575,"RAM":14576,"áŀħ":14577,"Ja":14578,"î¡ĥ":14579,"Ġcompl":14580,"Requires":14581,"éĿķ":14582,"î«£":14583,"strike":14584,"à¿ĩ":14585,"é±¼":14586,"æĲ®":14587,"âħ":14588,"ìħ°":14589,"êħĭ":14590,"layout":14591,"é½ļ":14592,"áĥŁ":14593,"æĢ·":14594,"Ġreplay":14595,"çļĦèĤº":14596,"styled":14597,"é¹Ī":14598,"toolbar":14599,"ðŁªģ":14600,"ÌĲ":14601,"è¯ĨåĪ«":14602,"FF":14603,"æ®Ĩ":14604,"persist":14605,"çµ´":14606,"Ġ=================================":14607,"åĽ½åĨħ":14608,"çªİ":14609,"æ©¿":14610,"Úº":14611,"çĺ©":14612,"Ġinterface":14613,"click":14614,"åĴĢ":14615,"çĸł":14616,"åĢº":14617,"Tr":14618,"çĪµ":14619,"Ġfh":14620,"king":14621,"á²¨":14622,"åĬĽåĴĮ":14623,"ĠMovie":14624,"æ¹ķ":14625,"ostream":14626,"è´Ĭ":14627,"namespace":14628,"ĠÑĤÐ°Ðº":14629,"çºĲ":14630,"anu":14631,"Ġdepends":14632,"ĠHello":14633,"î«Ĳ":14634,"æĥ¶":14635,"ĠTD":14636,"åį´ä¸į":14637,"[%":14638,"iÃ³n":14639,"æł·":14640,"ĠOPT":14641,"æīĲ":14642,"èįĻ":14643,"à¬ī":14644,"æ¾ļ":14645,"raz":14646,"ĠDestroy":14647,"é°ł":14648,"à¾Į":14649,"ĠRelative":14650,"TESTS":14651,"åº»":14652,"(/":14653,"ystal":14654,"åĻµ":14655,"áĮ¯":14656,"çł£":14657,"Ġsymbols":14658,"Ġcallable":14659,"ĠSal":14660,"Avg":14661,"WL":14662,"íĸī":14663,"Ñ©":14664,":+":14665,"æ«ľ":14666,"çīħ":14667,"]++;":14668,"æľºåħ³":14669,"å«§":14670,"Âĺ":14671,"çŀĸ":14672,"inherits":14673,"Ã¼r":14674,"åŁĺ":14675,"èħ¢":14676,"îĨ":14677,"æĳĤ":14678,"ä¹¦éĿ¢":14679,"âªĻ":14680,"ille":14681,"operations":14682,"å¼°":14683,"Ġaccessing":14684,"ĠfÃ¶":14685,"ïĦ²":14686,"hest":14687,"çģĳ":14688,"âŁ°":14689,"Ġyo":14690,"ĠJson":14691,"Ġwhitespace":14692,"åĬ¨":14693,"âİ¸":14694,"DIF":14695,"DIFY":14696,"æµ¤":14697,"Éĸ":14698,"years":14699,"PROFILE":14700,"ðŁĲ¢":14701,"ç··":14702,"ïįĥ":14703,"áħĢ":14704,"áĻ±":14705,"æİĥ":14706,"ĠTs":14707,"éĮ£":14708,"èµį":14709,"tls":14710,"åģ¿":14711,"uns":14712,"Missing":14713,"med":14714,"(.*":14715,"populate":14716,"áł¬":14717,"çĥ":14718,"ç£¦":14719,"fel":14720,"ĠDT":14721,"aad":14722,"cosm":14723,"é¡ĵ":14724,"ä¼ĳæģ¯":14725,"åĩłåįģ":14726,"Ú²":14727,"ç¤Ķ":14728,"æĥĭ":14729,"æ³ķ":14730,"ðŁĺ¨":14731,"å§ĭ":14732,"å©²":14733,"è´¢":14734,"fillable":14735,"forder":14736,"Å°":14737,"êĮ¡":14738,"æĹłæĸ°å¢ŀ":14739,"ĠHttpRequest":14740,"åªº":14741,"àªĺ":14742,"æĪĳè§ī":14743,"á¡µ":14744,"æĸ¹æ¡Ī":14745,"lli":14746,"éĢļçŁ¥ä¹¦":14747,"ç¶¯":14748,"èĺ½":14749,"Ġsparse":14750,"å°©":14751,"ðŁłĬ":14752,"ç«ĸ":14753,"âĺ¡":14754,"å©Ķ":14755,"ĠPRIV":14756,"ç«ĭ":14757,"Åľ":14758,"Sibling":14759,"çĥŃæ°´":14760,"ung":14761,"udit":14762,"éľĤ":14763,"cv":14764,"Fly":14765,"*******":14766,"å©¬":14767,"æĸ°é²ľ":14768,"èĢĥå¯Ł":14769,"InstanceId":14770,"ature":14771,"Ġthough":14772,"èı·":14773,"INPUT":14774,"è»Ŀ":14775,"ResourceGroup":14776,"æĮĥ":14777,"é¯ķ":14778,"æĥĦ":14779,"çĤ£":14780,"æĺĹ":14781,"å²¦":14782,"ĠCELLPADDING":14783,"outline":14784,"æ¯»":14785,"Ġfollowing":14786,"æ¤ĸ":14787,"Ġbin":14788,"ã¤":14789,"oll":14790,"Ġdiscussed":14791,"ced":14792,"ãķľ":14793,"à¤ĵ":14794,"scription":14795,"å¢¯":14796,"LAUL":14797,"mutex":14798,"åĽ¸":14799,"êħ":14800,"êĩŃ":14801,"creation":14802,"ĠstartIndex":14803,"ĠMy":14804,"Ġ--":14805,"Ġdelete":14806,"detector":14807,"á½´":14808,"æĭĽåķĨ":14809,",{":14810,"î¥¶":14811,"merch":14812,"Ġíķ¨ìĪĺ":14813,"çī¨":14814,"â¤ĳ":14815,"ðŁĳĲ":14816,"fno":14817,"æ¦©":14818,"çĹĩ":14819,"Ġhit":14820,"CQ":14821,"nested":14822,"à³Ĭ":14823,"UTIL":14824,"Ġshuffle":14825,"ç¿ı":14826,"ë©§":14827,"ç¯®":14828,"ãĳĢ":14829,"éµĽ":14830,"Ġcheckout":14831,"äĥĦ":14832,"Office":14833,"á¬³":14834,"slides":14835,"Gener":14836,"åĺĮ":14837,"åıĬåħ¶ä»ĸ":14838,"êĴĻ":14839,"åĪĶ":14840,"Ġlo":14841,"et":14842,"Ġsafety":14843,"Ġliteral":14844,"Ġnotebook":14845,"istance":14846,"é³Ŀ":14847,"âİ¾":14848,"èĸĹ":14849,"åı¯éĿł":14850,"ðŁĺĴ":14851,"dt":14852,"é¯ļ":14853,"Ġxhr":14854,"ðŁĲ¸":14855,"æ°¬":14856,"æ¬°":14857,"tr":14858,"ä»¥è®©":14859,"ïľ´":14860,"è¬®":14861,"æ¹Ħ":14862,"ifs":14863,"æºŃ":14864,"æ¬«":14865,"æĥľ":14866,"äĮ":14867,"æŀ¢":14868,"active":14869,"å£Ĺ":14870,"git":14871,"åīįåĲİ":14872,"nip":14873,"æ·±":14874,"ëģĶ":14875,"å®¶å±ŀ":14876,"éįŁ":14877,"åĸı":14878,"Ëį":14879,"(__":14880,"åĴ¹":14881,"çļĦéľĢæ±Ĥ":14882,"æĺ²":14883,"Ġfailed":14884,"Cliente":14885,"ç®Ģæ´ģ":14886,"æĹħå®¢":14887,"æł´":14888,"çĬ¯ç½ª":14889,"ebook":14890,"scatter":14891,"æĢ²":14892,"quare":14893,"é¡¾éĹ®":14894,"ç¤¾":14895,"æ¨Ĩ":14896,"Ensure":14897,"èĩĥ":14898,"é¸µ":14899,"(**":14900,"êµĲ":14901,"=\"#":14902,"ä¿®åħ»":14903,"éĩģ":14904,"åĨ":14905,"Ġunicode":14906,"èĹ¨":14907,"êĦ®":14908,"ceb":14909,"èĬŀ":14910,"çŃ³":14911,"èĽ¨":14912,"éĸ¹":14913,"ĠArchive":14914,"MID":14915,"Ü±":14916,"ìĴ¼":14917,"è¯Ĩ":14918,"gid":14919,"çĵĸ":14920,"çĲ¶":14921,"Îł":14922,"êīĮ":14923,"achine":14924,"Ò§":14925,"Ġflask":14926,"alchemy":14927,"popup":14928,"Ġë³´":14929,"Ġadministr":14930,"æµı":14931,"ç¿ħ":14932,"à§ħ":14933,"à¬¸":14934,"æģ¶æĦı":14935,"ientation":14936,"plat":14937,"ilter":14938,";;;;;;;;":14939,"é¶Ĥ":14940,"êµ½":14941,"LinkedList":14942,"fcc":14943,"ìª½":14944,"è¡ħ":14945,"èļ":14946,"éıĭ":14947,"çĿ¡åīį":14948,"Released":14949,"care":14950,"çĶ":14951,"è®ª":14952,"ÔĴ":14953,"closure":14954,"æĿ¥åĪ°":14955,"Display":14956,"å´¢":14957,"çģ£":14958,"æŀ¡":14959,"éĤ¦":14960,"Ġpredicted":14961,"å¤ĸè¯Ń":14962,"Min":14963,"âĺĵ":14964,"åĬłæ²¹":14965,"Preview":14966,"varchar":14967,"Ġtype":14968,"ĠAssignment":14969,"ĠBlue":14970,"clamp":14971,"/'+":14972,"ìŀĦ":14973,"é¦ĸå¸Ń":14974,"Ġcolors":14975,"(@\"":14976,"snprintf":14977,"çĻİ":14978,"çĽĩ":14979,"digo":14980,"é¼·":14981,"overlap":14982,"îļ¹":14983,"|;":14984,"Repository":14985,"jc":14986,"çĩķ":14987,"êĪĵ":14988,"çī¹åĪ«":14989,"íĨ":14990,"ðŁĶģ":14991,"ë":14992,"ãģıãģł":14993,"Ġso":14994,"áŁĥ":14995,"Capture":14996,"Ġcommercial":14997,"åĬį":14998,"cyc":14999,"âĮ":15000,"å¢¶":15001,"MONTH":15002,"èĮĺ":15003,"ìħ¨":15004,"è¿¶":15005,"å½ĵä¸Ń":15006,"çĽĬ":15007,"èĮı":15008,"êĢĢ":15009,"è±ľ":15010,"ê°¤":15011,"è¿Ĭ":15012,"î·":15013,"éĦĴ":15014,"Ġsubmit":15015,"âĢµ":15016,"çīĪç¤¾":15017,"åµĤ":15018,"Ġrequesting":15019,"åº¨":15020,"ì£Ħ":15021,"eners":15022,"versations":15023,"ä°Ģ":15024,"èºĹ":15025,"á»¬":15026,"ëģĪ":15027,"è¢°":15028,"glass":15029,"ĊĊĊĠĠĠĠĠĠĠ":15030,"ç¬Ģ":15031,"alibaba":15032,"ä¸»é¢ĺ":15033,"selves":15034,"ĠHu":15035,"Ġintegrate":15036,"inds":15037,"åĬĨ":15038,"âıµ":15039,"BLK":15040,"âĽŁ":15041,"æĻ·":15042,"å½³":15043,"çĤĥ":15044,"à¥ĥ":15045,"åŃĽ":15046,"áıĴ":15047,"æĸ¡":15048,"à°¯":15049,"ãģĮãģĤãĤĬãģ¾ãģĻ":15050,"ÎĹ":15051,"æĹ¥ä¸Ģ":15052,"tra":15053,"BI":15054,"Transactions":15055,"ÒĲ":15056,"Ġkw":15057,"Agent":15058,"onus":15059,"Shortcut":15060,"Ġhyper":15061,"ĠÐ¿ÑĢÐ¸":15062,"ïĦ¸":15063,"âĻĲ":15064,"å¦ĩç§ĳ":15065,"åĪĩ":15066,"èĤ¬":15067,"æĢĪ":15068,"è¼Ĩ":15069,"Ġcontin":15070,"čĊčĊ":15071,"æ·±åħ¥":15072,"ç»´çĶŁç´ł":15073,"åĳĤ":15074,"åħģè®¸":15075,"å½ĥ":15076,"à¬ľ":15077,"ë¿Ķ":15078,"ð§¿¹":15079,"Ġconfigurations":15080,"îģĳ":15081,"ðŁ¤¬":15082,"InfoList":15083,"ìŁģ":15084,"èķ¨":15085,"ä¹Łä¼ļ":15086,"Services":15087,"uture":15088,"Ġmaps":15089,"íĪ´":15090,"Helpers":15091,"æ©Ĩ":15092,"allel":15093,"Matches":15094,"ç¢°æĴŀ":15095,"åŁ¹èĤ²":15096,"çĽ´åľ¨":15097,"ĊĉĉĊ":15098,"ĠFramework":15099,"åĳĨ":15100,"è¹»":15101,"å¸¦æĿ¥":15102,"ipel":15103,"è¨Ľ":15104,"åĬ¢":15105,"apl":15106,"distance":15107,"ðŁıģ":15108,"addr":15109,"ara":15110,"watcher":15111,"èµĴ":15112,"ðŁĳ¼":15113,"æ»¼":15114,"ç¬ĳ":15115,"FUL":15116,"å«¥":15117,"Started":15118,"Ġ{{{":15119,"ìĻł":15120,"ç¨įå¾®":15121,"sum":15122,"ĠStack":15123,"ç¥ķ":15124,"éºĶ":15125,"éŁĢ":15126,"ĠÙĨ":15127,"èģĮ":15128,"ê¿Ī":15129,"erial":15130,"Ġc":15131,"Ġlive":15132,"á»§":15133,"à°¹":15134,"ç¨İåĬ¡":15135,"short":15136,"Ġsage":15137,"num":15138,"è§Ħ":15139,"êĨª":15140,":\");":15141,"àµĩ":15142,"Ġpsy":15143,"âľ±":15144,"Ñ³":15145,"å¦¿":15146,"ĠRob":15147,"Ġdelle":15148,"çĵĨ":15149,"Ġgray":15150,"çĻ¼":15151,"Ġcaller":15152,"Ġ-*-":15153,"passwd":15154,"âŁ¯":15155,"å®ŀæĺ¯":15156,"ĠArr":15157,"ÑĢÐ°Ð½":15158,"èĬ²":15159,"ðĵģĦ":15160,"Act":15161,"ĠCOP":15162,"æĳ¢":15163,"Ġinit":15164,"Collector":15165,"ä¸ŃçŃī":15166,"ret":15167,"ĠSTAT":15168,"æ´Ģ":15169,"clusters":15170,"ë»¥":15171,"ç»½":15172,"SM":15173,"ĊĠĠĠĠĠĠĠĠĠĠĠĠĠĠĠĠĠĠĠĠĠĠĠĠĠĠĠĠĠĠĠĠĠĠĠĠĠĠĠĠĠĠĠĠĠĠĠĠĠĠĠĠĠĠĠĠ":15174,"runtime":15175,"ĠReal":15176,"ïĤª":15177,"Mirror":15178,"åĺĦ":15179,"ä¨±":15180,"áī¶":15181,"çĸĶ":15182,"ĠUpgrade":15183,"è®Ķ":15184,"ÍĪ":15185,"é³Ĥ":15186,"èĪĤ":15187,"faker":15188,"ïĶĴ":15189,"ï¿±":15190,"ðŁĴ·":15191,"Ķ":15192,"ðŁĢĮ":15193,"æļĳæľŁ":15194,"uning":15195,"ĠReser":15196,"èĳĵ":15197,"é¾·":15198,"Ġspect":15199,"åŁ¿":15200,"Bus":15201,"Compressed":15202,"çľĹ":15203,"ã¼ľ":15204,"Äĭ":15205,"îĹĴ":15206,"ìķŀ":15207,"Ġnb":15208,"è¤ĸ":15209,"åĩ¶":15210,"çĽ¸ç»ĵ":15211,"éīŁ":15212,"MEDI":15213,"pix":15214,"å½¯":15215,"ipping":15216,"å½º":15217,"switch":15218,"ä¸įæĸŃ":15219,"d":15220,"Ġdrag":15221,"æħ©":15222,"è¸Į":15223,"wi":15224,"èª¸":15225,"å¤§æĪĺ":15226,"çŃ½":15227,"restart":15228,"ĠBuilder":15229,"well":15230,"Prefs":15231,"stdint":15232,"ood":15233,"çļĢ":15234,"ìĪı":15235,"è¿Ļä¹Ī":15236,"lista":15237,"ä¹ĭéģĵ":15238,"Deposit":15239,"csrf":15240,"page":15241,"§":15242,"ãģĹãģ¦ãģıãģłãģķãģĦ":15243,"Ä±z":15244,"ç¢°":15245,"çĶļèĩ³":15246,"ase":15247,"çĻª":15248,"ToInt":15249,"ðŁĮĲ":15250,"â¸":15251,"ho":15252,"Preset":15253,"ä¾ĺ":15254,"water":15255,"ĠÐĹ":15256,"à½ī":15257,"uplicate":15258,"ÑĢÑı":15259,"æĴ«":15260,"èīĶ":15261,"Ġwithin":15262,"Horizontal":15263,"Tip":15264,"éĭ¶":15265,"à¸Į":15266,"èĲĮ":15267,"áī²":15268,"Ġdifferences":15269,"Ï¢":15270,"éĽ¶é£Ł":15271,"æį®":15272,"ĠÐ¼Ðµ":15273,"w":15274,"getBy":15275,"ç¢ĥ":15276,"')]":15277,"Ġmock":15278,"Tasks":15279,"Online":15280,"Ġ>}}":15281,"æĿį":15282,"ĠLin":15283,"fold":15284,"é©½":15285,"<(),":15286,"ĠChat":15287,"ÐºÐ¾":15288,"ëĤ¨":15289,"æ¦º":15290,"åĪĽ":15291,"îĢĺ":15292,"ĠPROP":15293,"é£Łåĵģ":15294,"èĿ£":15295,"ÇĴ":15296,"auto":15297,"à¹İ":15298,"åĪĿä¸Ń":15299,"é½ī":15300,"ðĲ":15301,"çĩ³":15302,"escape":15303,"æĻ®éģį":15304,"â±¤":15305,"Cd":15306,"è´§å¸ģ":15307,"Configs":15308,"è·¯çĶ±":15309,"éİľ":15310,"æĺ¢":15311,"âģ":15312,"è®ĩ":15313,"edu":15314,"locks":15315,"ÊĨ":15316,"lectron":15317,"ä¹ĺ":15318,"çŁ³æ²¹":15319,"ëĿ½":15320,"Ġdevice":15321,"Ġpersons":15322,"pear":15323,"Ôį":15324,"éĿį":15325,"åĭļ":15326,"éĿı":15327,"sign":15328,"ĠGa":15329,"]\");":15330,"ä¼ŀ":15331,"åı½":15332,"æį´":15333,"æ´±":15334,"çŃį":15335,"á½ķ":15336,"ëĦĭ":15337,"mate":15338,"çģ¯":15339,"ółģ³":15340,"ixel":15341,"cms":15342,"êĳ¶":15343,"ä¿½":15344,"è±Ĺ":15345,"curl":15346,"speed":15347,"Ġcloud":15348,"ì«Ģ":15349,"åŀĭçļĦ":15350,"éŃ¥":15351,"âĵ¶":15352,"ç¢ĩ":15353,"cognized":15354,"âł¤":15355,"nombre":15356,"iOS":15357,"UIRED":15358,"ÜĽ":15359,"ç§Łè½¦":15360,"éĵ¹":15361,"Ġlin":15362,"çĦĬ":15363,"åĨ¼":15364,"æģ»":15365,"ĠMore":15366,"(\"'":15367,"fdf":15368,"å¢¸":15369,"Plot":15370,"ïĥĹ":15371,"ã®µ":15372,"èľĵ":15373,"ç¿º":15374,"dz":15375,"Ġesp":15376,"çĲĨåŃ¦":15377,"åı¢":15378,"æ¥ı":15379,"Infof":15380,"phys":15381,"à±¾":15382,"Milli":15383,"à§©":15384,"éĮĹ":15385,"iol":15386,"abor":15387,"ç«ĭåľº":15388,"æ¯Ŀ":15389,"æ³Ĩ":15390,"èŃĲ":15391,"Ġgi":15392,"âįİ":15393,"æ¹Ĳ":15394,"è¡ī":15395,"Ġweights":15396,"æľīéĹ®é¢ĺ":15397,"æĿĬ":15398,"åŁº":15399,"îĺĲ":15400,"é¥Į":15401,"Ġpopulate":15402,"áħ³":15403,"å¥½å¥ĩ":15404,"æħ£":15405,".</":15406,"ĠJavascript":15407,"ðĲ¤ī":15408,"ðŁ¤³":15409,"ind":15410,"âĶı":15411,"ĠItem":15412,"åģł":15413,"á»Ī":15414,"æĿ¥è®²":15415,"listdir":15416,"èĤĽ":15417,"configured":15418,"Ġbel":15419,"Dynamic":15420,"âĶĺ":15421,"å¯ĨéĽĨ":15422,"roller":15423,"ĠPROC":15424,"ĠDetails":15425,"Ġtherefore":15426,"ì§Ģ":15427,"æľĸ":15428,"æľ®":15429,"à©©":15430,"ðĲĬ§":15431,"éķİ":15432,"á»Ĵ":15433,"LOW":15434,"âĢ²":15435,"èµ¬":15436,"Ġmalloc":15437,"áĭį":15438,"æ¦ī":15439,"Action":15440,"Ŀì²´":15441,"drivers":15442,"á»µ":15443,"åŃ¦çĶŁçļĦ":15444,"é½ķ":15445,"àµļ":15446,"Ġ./":15447,"îĺŁ":15448,"çķĻåŃ¦":15449,"ression":15450,"ê¹Ĳ":15451,"Pet":15452,"á¹½":15453,"tagHelper":15454,"checking":15455,"Q":15456,"Sa":15457,"ToMany":15458,"amage":15459,"èĥĲ":15460,"ë§Ł":15461,"î¢¢":15462,"printer":15463,"îĽī":15464,"èªĴ":15465,"æĥħæĦŁ":15466,"ETH":15467,"æļ·":15468,"ìĹŃ":15469,"é²¤":15470,"æłĩæ³¨":15471,"Ġcos":15472,"Ġyour":15473,"éª´":15474,"Ġpartition":15475,"èĥ½åĬĽçļĦ":15476,"çīİ":15477,"äĽĲ":15478,"à»Ĵ":15479,"é£»":15480,"éĢīé¡¹":15481,"åĳĴ":15482,"êĳĳ":15483,"ĠProduct":15484,"ĠProxy":15485,"å»¶ç»Ń":15486,"éŃ»":15487,"_)":15488,"ĠÑĢÐµ":15489,"Ġthemes":15490,"âİ¤":15491,"RuntimeException":15492,"å£º":15493,"å¦¥":15494,"ä½ľå®¤":15495,"é³¨":15496,"éĢ¤":15497,"åīł":15498,"é¢ĺæĿĲ":15499,"Ġæµ·":15500,"çĴĪ":15501,"'^":15502,"Find":15503,"////////":15504,"å¢ĥçķĮ":15505,"ĠÙħ":15506,"%</":15507,"Ġcontains":15508,"extern":15509,"å©´åĦ¿":15510,"getLocal":15511,"éĽ§":15512,"Ġenabling":15513,"SEG":15514,"SerializationError":15515,"é¼ĩ":15516,"èĨ³":15517,"ĠåįĹ":15518,"ðŁĨĻ":15519,"èĢ¿":15520,"Ġdoesn":15521,"Ġpara":15522,"unnel":15523,"ĠGraphics":15524,"rootScope":15525,":\\\\":15526,"å®Ĥ":15527,"Ġcriterion":15528,"æľ½":15529,"Ġequ":15530,"åĲ£":15531,"è¬©":15532,"å¥īçĮ®":15533,"Absolute":15534,"è®©èĩª":15535,"Ġstatus":15536,"åļĦ":15537,"åĩºåı°":15538,"ÑģÑĤÐ°Ð½":15539,"ç±į":15540,"ãģķ":15541,"Ġfoi":15542,"ÄĲ":15543,"èĢģäºº":15544,"æ¥¼":15545,"çºĭ":15546,"èĤĥ":15547,"dia":15548,"cline":15549,"çĹ¦":15550,"ined":15551,"QUAL":15552,"èĻ³":15553,"ĠB":15554,"writeString":15555,"é¢ĩ":15556,"å¦ĤåĲĮ":15557,"ç¦Ģ":15558,"ç®¼":15559,"ĠLLVM":15560,"çķķ":15561,"æĶĹ":15562,"Hostname":15563,"Ġ'^":15564,"éĪŀ":15565,"acer":15566,"èº¼":15567,"finally":15568,"ĠOwner":15569,"Å³":15570,"ä¼Ĩ":15571,"éĢĤçĶ¨":15572,"áĬ²":15573,"ç¾Ļ":15574,"ĳ":15575,"å©ŀ":15576,"è¨Ĩ":15577,"æĬĭ":15578,"è³°":15579,"âĹĩ":15580,"FALSE":15581,"è»ĺ":15582,"æ¾¢":15583,"Reducer":15584,"amental":15585,"ZERO":15586,"ðŁĵī":15587,"é°¡":15588,"æľºåĻ¨äºº":15589,"èĭİ":15590,"ä¸Ļ":15591,"stor":15592,"á¨Ĵ":15593,"Norm":15594,"×Ľ":15595,"êĿ¼":15596,"ĠURL":15597,"Ġhero":15598,"ToolStrip":15599,"æĿĲ":15600,"å¿Ŀ":15601,"éķ¿æĹ¶éĹ´":15602,"à¨¯":15603,"çĻ¸":15604,"ĠEasy":15605,"áīĥ":15606,"ãµ¡":15607,"asing":15608,"äºĶéĻ©":15609,"¶</":15610,"STOP":15611,"É¯":15612,"æĽ®":15613,"wlp":15614,"æ²¡æľī":15615,"èľ¬":15616,"Ġprint":15617,"å®Įæķ´":15618,"tel":15619,"ä½¦":15620,"VR":15621,"curve":15622,"ĠST":15623,"åŃ¯":15624,"çł¬":15625,"iga":15626,"EMR":15627,"shuffle":15628,"áħ¡":15629,"èĬ¥":15630,"é²ģ":15631,"åħ·":15632,"ivate":15633,"ê¡Ĭ":15634,"enses":15635,"////":15636,"Ġfig":15637,"åĤļ":15638,"æľĽ":15639,"éĿĳ":15640,"placement":15641,"UNUSED":15642,"Ġdependency":15643,"Ġunknown":15644,"ĠInterval":15645,"èĢĿ":15646,"GOO":15647,"âĶ¨":15648,"duc":15649,"aven":15650,"ç¾¨":15651,"âĩ£":15652,"æ³°åĽ½":15653,"æĪĳçŁ¥":15654,"hashCode":15655,"ïĪ¡":15656,"Ġstandalone":15657,"ë§ī":15658,"çľŁçĽ¸":15659,"æĭħä»»":15660,"ĠBody":15661,"measure":15662,"æ°ŀ":15663,"æĹ¥ä¸Ĭ":15664,"Parent":15665,"ĊĠĠĠĠĠĠĠĠĠĠĠĠĠĠĠĠĠĠĠĠĠĠĠĠĠĠĠĠĠĠ":15666,"ðŁį±":15667,"Ġç¬¬ä¸Ģ":15668,"adow":15669,"ÝĻ":15670,"åķ£":15671,"éĨ²":15672,"ä¼¨":15673,"ĠSimple":15674,"dark":15675,"éª·":15676,"makedirs":15677,"ðŁ¥¦":15678,"spinner":15679,"åĨ¥":15680,"rollers":15681,"ĠArc":15682,"è³º":15683,"Ġrelationships":15684,"æĲİ":15685,"å¯ľ":15686,"oting":15687,"Ġresponses":15688,"Cost":15689,"avo":15690,"arative":15691,"æķ©":15692,"ISO":15693,"ã¹§":15694,"ðŁĴ¶":15695,"çĶ©":15696,"å¤ļ":15697,"ðŁĺį":15698,"æĵº":15699,"è«Ĺ":15700,"Ġnicht":15701,"Waiting":15702,
[...]
